#version: 0.2
Ġ t
h e
Ġ a
i n
Ġt he
Ġ w
Ġ s
Ġ o
r e
n d
h a
e r
o u
Ġ b
e d
Ġ m
i s
i t
Ġ f
Ġ c
e n
Ġo f
o n
Ġt o
Ġa nd
in g
o r
Ġ d
e s
Ġ p
l l
Ġ in
Ġ h
a r
Ġ l
a s
Ġ he
a n
a t
Ġ n
Ġ ha
o m
Ġ g
Ġb e
ha t
l e
Ġ I
o t
i c
o w
Ġ e
u t
v e
l d
l y
Ġt h
i m
Ġw as
i d
Ġ y
s t
Ġt hat
s e
g h
en t
Ġ re
Ġ it
Ġo n
Ġ "
c e
i on
Ġ u
Ġy ou
a y
a l
e t
v er
i r
it h
Ġw h
Ġf or
Ġh is
Ġa s
u r
Ġw ith
Ġw e
Ġs t
a d
T he
Ġ r
gh t
Ġ is
Ġha d
a c
Ġn ot
Ġa n
he r
Ġhe r
o o
a m
ou ld
Ġa t
t er
i f
i ll
k e
Ġs e
a in
Ġ M
Ġm e
r i
Ġh im
Ġ S
Ġ A
r o
re d
Ġs a
c h
c t
' s
Ġs u
i l
es s
Ġ H
. "
i ght
o re
Ġs he
Ġs o
Ġd e
Ġha ve
Ġ k
Ġf r
a ll
om e
p e
ic h
Ġb y
Ġm y
Ġ B
Ġb ut
Ġa ll
u l
Ġ C
g e
Ġc on
Ġwh ich
Ġn e
Ġ The
q u
Ġu p
Ġs h
a nd
t h
Ġfr om
, "
Ġd o
u s
Ġwe re
es t
Ġth is
Ġthe y
Ġo r
Ġw he
Ġsa id
Ġe x
p p
an t
b le
Ġ v
re s
at ion
ar d
u st
ou s
Ġm an
n t
Ġ W
Ġ T
Ġwh o
Ġon e
ou r
Ġl i
er s
e m
Ġa l
l f
Ġf e
Ġa re
Ġk n
is t
Ġthe m
in d
ver y
Ġn o
o s
r a
ar t
am e
on g
i e
Ġin t
ou t
Ġ P
Ġw ould
oo d
o l
as t
Ġw or
ou nd
Ġ G
Ġo ut
u m
Ġc om
Ġthe re
i g
Ġthe ir
Ġa b
Ġl e
Ġ L
u n
at e
on e
k ed
ou gh
ha n
Ġbe en
' t
a k
Ġw ill
it t
ow n
o d
p t
Ġ D
i ve
v en
Ġ j
Ġt r
Ġp l
Ġ F
or t
e l
re at
Ġwhe n
? "
t her
e ll
Ġg o
he d
o st
se lf
ac k
it y
Ġp ro
a ce
u re
Ġa g
id e
o se
a u
Ġ if
ĠH e
Ġw hat
a ke
Ġc ould
Ġ E
Ġa r
Ġ qu
Ġs p
r y
Ġu n
Ġt im
Ġc an
c k
a g
Ġan y
Ġa f
Ġm ore
Ġyou r
Ġint o
h ing
o p
Ġ J
Ġ R
Ġs ome
Ġp r
v ed
in e
nd er
e ct
i es
Ġc l
e p
Ġ N
ic e
oo k
Ġb r
Ġ O
Ġkn ow
Ġu s
Ġa m
as s
Ġ '
a re
Ġo ther
w ay
Ġt w
ur n
en ce
Ġd id
a ble
Ġli ke
Ġtim e
Ġs ha
Ġ en
Ġ very
it e
ou ght
itt le
Ġr o
f ore
Ġt han
Ġd is
Ġab out
an ce
Ġg r
Ġ im
Ġd ay
o ve
ot her
e red
c c
ad e
in k
m ent
Ġl ittle
Ġc h
a p
â Ģ
all y
Ġo ver
Ġse e
Ġb l
Ġha s
p l
is h
w n
u d
ĠM r
a b
c i
Ġto o
Ġn ow
Ġag ain
n g
Ġa d
Ġthe n
Ġha nd
e nd
H e
! "
ing s
o nd
Ġo ur
âĢ Ķ
ar s
i re
Ġs ay
Ġg reat
a ge
Ġup on
Ġon ly
res s
Ġsh ould
Ġf l
er t
f f
i le
re e
if e
Ġof f
Ġd own
at her
ou nt
or d
u e
v es
v ing
ĠA nd
Ġaf ter
Y ou
Ġp er
ic k
Ġth r
Ġm ade
i ed
I t
o y
ĠI t
Ġbe fore
Ġit s
i ous
ar y
u ch
i ld
u ll
Ġp o
Ġp e
ac t
ion s
Ġg ood
p er
Ġtw o
at ed
Ġh ow
f ul
Ġm ust
Ġl ong
Ġst r
Ġp re
Ġw ay
w ard
n ess
Ġf ir
o ll
Ġc ha
l ed
Ġp art
Ġc ame
Ġre m
Ġth ink
Ġs m
Ġu nder
p s
or n
Ġne ver
Ġo ld
Ġb ack
an s
Ġm uch
Ġe y
a ve
Ġe very
e re
ĠB ut
Ġsu ch
f t
Ġcon t
Ġbe c
ac h
Ġc ome
ad y
Ġs pe
Ġs c
Ġwhe re
Ġe ven
Ġm ay
Ġg l
is e
ri ed
o ld
c l
Ġbe t
Ġfir st
Ġm en
Ġo wn
Ġth ought
B ut
Ġy e
Ġ _
is s
Ġd es
Ġl ook
b er
e w
ar k
Ġthe se
Ġo b
he n
Ġre s
w e
t y
Ġwe ll
Ġse em
at h
os s
Ġhim self
ou se
i ly
Ġs l
Ġm ight
ig n
Ġw ent
Ġj ust
an g
Ġthr ough
Ġf a
n e
in t
Ġg et
Ġl ife
Ġhe re
A nd
Ġl et
Ġ K
Ġcom p
Ġim p
an c
Ġbe g
i z
Ġat t
Ġc r
Ġp ass
at er
i p
on s
Ġf ri
Ġa way
Ġin d
Ġm ake
Ġ 1
en ed
Ġbe l
Ġ ke
Ġt urn
Ġc all
or y
ĠS he
Ġsha ll
Ġhe ad
Ġcon s
Ġm ost
Ġey es
l ess
om et
au se
i v
Ġa cc
if f
Ġw r
Ġth ose
a red
Ġwor k
Ġn ight
e ver
Ġl ast
he s
o g
Ġ ent
Ġf ound
ĠS t
Ġw om
h is
Ġwor d
Ġa p
Ġo p
Ġh ouse
Ġc our
Ġ ;
Ġt e
Ġcom m
Ġbe ing
Ġre t
Ġwith out
Ġst ill
Ġp res
ot h
m an
Ġman y
l es
Ġw ant
op le
Ġt ell
as e
or s
Ġt ake
re n
Ġro om
en s
pe ct
Ġa pp
ul t
Ġs er
Ġl oo
Ġr ight
Ġfri end
u b
it ion
a v
Ġd on
Ġha r
i ble
i an
ic t
Ġs omet
i gh
Ġe ar
Ġc ar
Ġyou ng
Ġpl ace
Ġ V
Ġf ace
Ġpe ople
Ġe nd
Ġsa w
Ġhe art
at ter
h y
Ġp ut
Ġl o
Ġs ame
Ġe ver
Ġnot hing
i a
Ġch ild
Ġwh ile
m er
' ll
ak ing
Ġne w
t e
s o
al k
Ġb o
th ing
ow ed
m ed
Ġa c
Ġc o
a w
Ġon ce
Ġloo ked
Ġd ist
Ġf ar
. .
Ġth ings
g g
s w
Ġre p
Ġl ight
Ġm ind
ert ain
Ġm ar
ent ly
l t
in ce
Ġl ove
I n
is hed
Ġsu pp
Ġre c
Ġan other
S he
Ġle ft
Ġ (
ation s
way s
om ent
Ġha pp
Ġm oment
ĠC h
Ġtoo k
ow er
Ġth ough
ĠG od
Ġc ount
Ġs et
Ġas ked
Ġse c
od y
Ġth ing
Ġin st
re t
Ġf ind
en er
i x
s s
j ect
c ed
l ing
Ġy et
Ġwor ld
Ġw a
ain ed
Ġe m
ic al
pp ed
Ġa ct
Ġan sw
Ġp le
o ck
ow s
Ġf oll
se l
Ġg ot
ĠI n
Ġar m
l and
d en
ir l
Ġgo ing
Ġseem ed
an k
Ġth ree
a ir
Ġal ways
Ġsu b
Ġn at
re w
Ġap pe
r u
Ġg i
Ġp ers
The re
t ed
Ġf ather
Ġdo or
Ġre l
g et
Ġd iff
Ġs ur
Ġor d
Ġg ive
Ġkn ew
o pe
u nd
Ġto ld
Ġu nt
Ġye ars
Ġw ar
Ġp oss
Ġc han
c hed
Ġhe ard
Ġ Ġ
Ġ You
Ġg u
a il
Ġagain st
it her
n ing
Ġfe el
n er
Ġ âĢĶ
au ght
Ġcha r
p le
he re
g ed
Ġh ome
Ġg irl
t ing
Ġin f
Ġfe w
ĠMr s
Ġhand s
Ġs w
c ess
W hat
Ġsomet hing
i ver
Ġwom an
Ġe v
Ġfe ll
in ed
Ġs at
i b
Ġk ind
Ġex p
ĠThe y
Ġret urn
u al
it ed
i al
ce pt
oo l
Ġv o
Ġbel ie
i red
Ġre st
Ġw ind
or m
m ost
Ġs ide
Ġcon f
Ġst re
Ġm other
Ġre g
in ess
Ġal so
ent s
Ġbec ause
Ġd one
Ġso on
o b
is ed
i er
a ut
Ġdis c
ro ss
W e
Ġne ar
Ġh our
Ġas s
Ġb re
ou b
Ġs il
a id
Ġse en
Ġ Y
ut h
Ġb oy
Ġen ough
we en
Ġde l
Ġc le
. '
The y
Ġha lf
ull y
Ġe ach
Ġc are
Ġre f
Ġcour se
Ġm in
Ġbet ter
Ġhar d
u ck
Ġqu ite
Ġw ater
Ġcall ed
x t
Ġn ame
Ġre ad
Ġbet ween
Ġturn ed
en se
Ġc ertain
Ġt er
' d
Ġin s
a le
T his
ak en
f ect
Ġm o
Ġo cc
ĠThe re
Ġd r
k s
on t
at ch
Ġm orn
ow ing
The n
Ġ *
ĠW e
Ġh um
Ġke ep
c es
Ġhe l
Ġp ur
ct ion
Ġad d
Ġc he
Ġm atter
, '
as ter
Ġ U
Ġwho le
y ing
Ġt re
as on
Ġday s
Ġad v
os ed
' m
Ġin c
Ġg ave
Ġbeg an
t en
Ġst e
Ġc ur
ut e
Ġs ent
Ġd ra
u p
Ġin ter
or r
Ġpo int
Ġdo es
ĠE ng
a z
Ġmorn ing
Ġm on
i et
H E
Ġfe lt
ul ar
at ing
o c
Ġvo ice
Ġst and
Ġal most
it s
Ġsm all
Ġple as
at es
Ġb oth
at t
ve l
Ġl ar
Ġc a
Ġsu re
u res
Ġe l
Ġwh om
sel ves
Ġto ward
Ġg ener
Ġn or
Ġt ra
ou d
N o
Ġword s
ĠM iss
Ġs k
Ġop en
an ge
Ġf am
n ot
ain t
Ġf ore
in s
' ve
Ġf act
n ed
un g
Ġmy self
ha ps
Ġst ood
Ġb us
Ġd ark
Ġme an
Ġam ong
o ke
Ġex t
ĠT h
Ġl and
Ġe ff
Ġunt il
Ġb u
Ġb est
Ġs ou
ter s
Ġne ed
Ġhe ar
p h
u red
u nt
ent ion
al s
ri b
Ġha ving
I f
Ġv is
Ġr ound
Ġbr ought
Ġany thing
Ġqu est
ate ly
Ġunder st
Ġl ess
Ġb ro
Ġin v
Ġcount ry
Ġbe aut
m b
Ġwh ite
ha r
ĠF r
Ġm et
o ot
er y
e ed
Ġher self
ere st
W hen
T hat
Ġp ower
Ġs le
d u
one y
Ġfor m
Ġpres ent
Ġre pl
Ġu se
Ġc ried
am p
n ce
Ġde ar
Ġh igh
ĠH is
Ġt alk
r ist
Ġpo or
Ġd re
Ġw o
Ġs ince
Ġd et
f ully
Ġhel p
Ġa w
Ġf our
O h
ir d
ain s
ie f
Ġne xt
t on
ur ing
en e
Ġt aken
Ġa ir
Ġr ather
Ġpro p
Ġre al
d den
ĠThe n
Y es
ĠJ o
m e
ie ld
Ġc ol
ab ly
Ġl au
Ġpers on
il ed
Ġde ath
Ġsu n
Ġlook ing
Ġint erest
er ing
s h
Ġc ond
Ġsu ff
Ġd oub
Ġf ull
Ġs im
Ġar t
Ġg one
ce i
e c
Ġpl ay
k en
Ġfe et
Ġs we
Ġhow ever
Ġsu dden
ĠW hat
Ġbe h
Ġf ire
Ġf all
e y
Ġw ife
Ġser v
Ġl ay
Ġto get
Ġtoget her
Ġ es
Ġcont in
Ġf in
it ing
ress ed
Ġst art
us ed
Ġ ide
Ġ 2
Ġr un
Ġg ent
ĠB r
ac hed
Ġb ed
Ġal ong
Ġrepl ied
p r
is on
Ġd ire
Ġt ill
Ġde c
Ġlar ge
ar r
ver s
Ġg ra
ment s
Ġcan not
a im
A s
Ġs n
Ġh ope
Ġl aw
W ell
e e
Ġad m
Ġh or
Ġm oney
it ies
l ic
Ġspe ak
Ġbelie ve
ar ing
et s
Ġansw ered
Ġother s
Ġde f
Ġgi ven
ĠI f
as h
ĠA n
Ġpass ed
ĠM ar
Ġde ad
Ġde p
und red
Ġpr om
Ġbl ack
Ġb ook
Ġp ol
id ent
ĠA s
Ġal one
Ġrem em
ĠT hat
u ed
f ort
ou n
Ġchild ren
Ġh old
t he
Ġde ep
E R
l i
id ed
if ic
ĠT HE
ĠL ord
ud e
ent y
Ġs ound
Ġre ason
o on
Ġstr ong
Ġdiff ere
Ġh undred
u ally
Ġgent le
ĠF or
Ġdoub t
ill ed
Ġthem selves
Ġg re
Ġp ri
ce ed
Ġtr ue
Ġsp ir
ĠCh rist
Ġh on
Ġo pp
Ġm il
o ver
A t
Ġwh y
ant s
u c
' re
Ġwo nder
Ġwho se
ac es
an y
k ing
Ġex pl
Ġc ase
Ġf ur
Ġex c
Ġcl ose
Ġkn own
ĠT his
Ġk ing
Ġsay s
Ġbeh ind
ot t
l ish
ak es
Ġgr ound
Ġye ar
Ġun c
an e
os ition
is ter
F or
h n
iz ed
Ġunderst and
Ġs ing
id es
Ġquest ion
Ġn um
Ġle ave
Ġl ady
ac ed
Ġus ed
Ġth ou
Ġe as
ĠA t
ang er
Ġb ody
er n
Ġpre t
id er
ĠW hen
f ter
Ġord er
Ġre ally
Ġb ur
Ġs ign
u g
Ġb ri
Ġe le
Ġ .
Ġof ten
Ġsh ort
n y
Ġsou l
ĠA r
Ġs y
Ġob s
Ġper haps
anc es
m en
Ġle ast
Ġind eed
Ġs on
re ady
cei ved
Ġf ive
Ġle ar
Ġab ove
Ġar ound
em pt
h o
S o
Ġd ro
ove red
if ul
Ġfe ar
Ġme et
Ġsec ond
Ġaf f
Ġ ill
Ġab s
ir c
b ody
Ġbr other
in es
a ven
Ġs ix
t s
Ġs ir
ĠP r
Ġtim es
Ġcom ing
et h
Ġs ort
Ġre d
Ġear th
Ġhe ld
ou th
im es
H ow
Ġp ap
Ġne cess
Ġli ve
Ġfriend s
ie w
Ġh ur
Ġal ready
Ġex pect
ĠT o
Ġto wn
ut ion
ous and
Ġit self
Ġ !
T h
ot e
g er
ĠS o
Ġm is
al ked
Ġw ood
Ġr a
at i
Ġ ed
Ġt able
Ġle a
Ġde v
Ġse a
Ġsu m
N ow
i ans
Ġel se
Ġqu ick
er c
Ġth ousand
Ġbr ing
Ġwith in
Ġw ish
Ġt en
Ġwom en
Ġw all
ag es
aught er
Ġth y
Ġme ans
e k
u ght
on y
Ġl ost
ĠS ir
Ġl ist
a h
O n
Ġh us
Ġb ig
Ġke pt
Ġdid n
Ġp ast
Ġs ight
ĠA l
Ġc irc
Ġcle ar
ĠJo hn
Ġfa ir
Ġbus iness
ious ly
Ġb ar
Ġeven ing
Ġhum an
u ff
Ġbec ame
Ġnat ure
Ġle ad
Ġsle ep
Ġtr uth
Ġa ble
M y
Ġreturn ed
Ġc old
Ġth us
Ġb it
ĠK ing
Ġper fect
ĠI s
Ġc or
im e
Ġf oot
Ġc ut
Ġb es
b r
Ġas k
Ġm aking
Ġlet ter
Ġobs er
Ġp ub
Ġ ir
er m
Ġob ject
ur d
ĠN o
Ġsub ject
Ġgo ld
Ġm ount
Ġposs ible
h il
at s
Ġhor se
il ity
Ġqu iet
ur ch
Ġoff ic
per i
Ġstr ange
b e
ci ous
Ġt ri
Ġsp r
ĠI nd
Ġw alk
ĠS p
ĠB e
Ġw on
end ed
W hy
Ġro ad
at ive
itt ed
um p
Ġb ad
Ġe ither
Ġc ent
Ġansw er
Ġse ver
Ġwhe ther
Ġcon st
ard s
Ġac ross
ĠEng lish
u se
Ġde m
Ġ ?
Ġm id
ct or
Ġp ain
Ġs ch
Ġl ow
Ġp ar
0 0
Ġst ep
Ġex cl
Ġappe ar
ct ed
Ġapp ro
st er
ing ly
Ġman ner
Ġw atch
T o
Ġst o
Ġfam ily
Ġbec ome
Ġd ri
Ġchar ac
ha m
Ġfor t
pt ain
Ġf ree
ou ble
b and
l s
orr ow
Ġre ady
Ġbeg in
Ġbeaut iful
Ġc ap
Ġm aster
is m
Ġspir it
Ġd uring
o or
Ġtoward s
Ġs it
Ġ est
Ġeff ect
ci al
b ed
Ġarm s
Ġsh ow
Ġsudden ly
us s
Ġthe e
Ġide a
Ġar ri
Ġfoll owed
e f
Ġthere fore
Ġme re
Ġst ory
Ġmon th
b it
Ġevery thing
Ġst ud
Ġm ist
Ġ Q
Ġbl ood
Ġsp oke
Ġt ou
Ġdiff ic
Ġm us
Ġpro f
ut es
Ġw ild
Ġey e
Ġsl ow
Ġdiffere nt
Ġsu cc
ĠU n
Ġ ut
e ad
Ġ :
Ġst ra
Ġsever al
r act
Ġm ove
Ġcon c
Ġl ad
Ġfor g
Ġt em
air s
en g
Ġcomp le
um b
Ġdre am
am es
Ġcons ider
N ot
Ġhus band
Ġc ity
H is
Ġen g
Ġnat ur
ĠH ow
Ġexp ress
Ġpr in
if t
g r
en c
Ġr ose
ne y
Ġposs ess
itt ing
s on
ĠH er
Ġgl ad
b y
ĠA ll
Ġm od
in ation
Ġf ine
Ġpre v
Ġex cept
mer ic
Ġre ached
Ġcomm and
Ġpart ic
Ġre qu
Ġha ir
ow d
ur y
is ing
Ġdo g
un e
ant ly
on es
id ence
Ġd iv
le y
O N
Ġr an
Ġst ay
Ġsur pr
Ġsha d
Ġb reat
Ġwant ed
aim ed
al th
pe nd
Ġse lf
Ġsupp ose
Ġdra w
em ent
s ide
A ll
Ġtw enty
Ġfr ont
Ġres pect
Ġe qu
ĠM y
ĠA meric
ĠD e
g in
ren ch
f e
Ġimp ort
Ġhe av
Ġbre ak
Ġs ense
et y
Ġremem ber
Ġde cl
Ġsucc ess
Ġso ld
Ġpr ay
ter n
is f
Ġtr ans
Ġes c
ĠG r
Ġle g
Ġlong er
Ġgener al
Ġr iver
Ġc al
Ġfa v
Ġp ie
ĠC l
Ġsec ret
o int
Ġwind ow
Ġst ate
Ġcharac ter
ll ed
Ġv iew
Ġocc as
Ġsu s
Ġo ught
us h
ĠN ew
m s
ow ers
Ġpre p
Ġex am
Ġd in
Ġd est
Ġc ross
om p
Ġj ud
Ġpro v
Ġacc ount
Ġl ater
Ġh o
Ġswe et
Ġseem s
d le
f or
Ġfell ow
Ġhour s
om m
a j
a x
Ġc ry
it er
ic es
Ġop ened
Ġcon v
as ed
are nt
Ġappe ared
Ġs qu
Ġp ay
Ġf ig
Ġfor ward
I N
Ġhapp y
Ġpro du
Ġ ve
c hes
Ġsay ing
Ġc oll
Ġso ft
ot s
Ġc orn
Ġde al
_ ,
Ġwor th
? '
Ġc re
Ġc reat
w here
ent ed
Ġf ight
med i
Ġv ar
ag ed
Ġl ine
Ġha st
r ic
Ġt ried
Ġcomm on
Ġh ot
Ġf re
it ude
o es
Ġcar ried
Ġlau gh
g es
Ġpur p
Ġcha ir
Ġex ist
Ġt aking
att le
Ġim ag
if ied
Ġpret ty
ĠO n
u gg
led ge
Ġpro b
ĠC a
Ġcontin ued
Ġre ceived
Ġfeel ing
ĠEng land
Ġbri ght
Ġm ag
Ġdo ing
ot ion
Ġ1 8
Ġen em
us hed
Ġpub lic
Ġl ed
il ing
Ġc ast
Ġ 3
Ġnum ber
Ġreg ard
Ġadd ed
Ġc e
Ġw in
iz e
il t
h ile
Ġd anger
ra id
i ar
Ġfa ith
Ġsch ool
Ġqu ar
p ed
Ġme m
Ġcar ry
Ġd aughter
al ity
th ough
Ġsh ip
Ġs al
Ġan im
Ġsat isf
Ġst ri
Ġj oy
c ul
Ġp ort
Ġp ict
ir t
ver n
Ġw at
ĠF rench
ill i
Ġvis it
m p
Ġpr ot
Ġf if
e v
Ġmin utes
Ġ [
Ġdis p
Ġent ered
pp ing
Ġwh is
at ure
Ġv al
Ġb ene
Ġar r
i ent
Ġyour self
oo f
Ġb ird
Ġsomet imes
ĠS c
Ġac qu
Ġhapp ened
Ġro ck
Ġs ad
d d
ous ly
Ġch ief
Ġpart y
Ġd ut
ri age
Ġim medi
Ġf ast
Ġc ause
Ġr u
ar ch
Ġy es
Ġear ly
ain ing
Ġse nd
Ġcom es
Ġsc ar
Ġf ield
Ġh ill
Ġr id
Ġe ight
Ġre pe
er v
Ġbe y
e x
Ġli ving
Ġfor th
g y
Ġp osition
Ġbey ond
Ġaf raid
Ġv ill
Ġag o
res h
Ġm ine
Ġmil es
O ne
Ġnecess ary
t ered
Ġchan ge
Ġdes c
en ing
ound ed
Ġent ire
ist s
ward s
ĠO F
Ġfur ther
Ġli ved
Ġnear ly
A N
ĠL ady
ĠW ith
Ġpartic ular
Ġoccas ion
Ġm outh
Ġpr ison
Ġdel ight
Ġtr y
Ġpr act
Ġw alked
g ing
Ġsil ence
Ġtre es
Ġset t
ĠN ow
u es
ĠP ar
l er
Ġl ate
in ct
Ġsu gg
Ġan x
Ġl ab
Ġpe ace
ic ally
Ġin qu
Ġsugg est
ĠN or
g hed
Ġnew s
Ġha t
Ġchan ce
Ġa uth
Ġt ree
Ġbl ue
r s
ĠD o
Ġso l
Ġd ress
in ary
w ell
Ġa ge
Ġtr ouble
Ġsm ile
ĠP et
Ġacc ord
sh ip
Ġdire ct
he ad
Ġexcl aimed
Ġcom fort
Ġpl ain
el s
Ġinf l
Ġto p
ĠB l
Ġaf fect
Ġg ard
i o
Ġn one
Ġw it
z e
am ed
Ġm ad
ru pt
W ith
Ġres ult
d ay
re ad
Ġthink ing
Ġli ps
Ġwr ong
Ġh ung
Ġgr and
Ġpl an
ic s
Ġstre ng
Ġfor ce
Ġan g
t o
Ġen c
as k
Ġgentle man
Ġe at
A fter
Ġex peri
ic ked
Ġl eng
Ġsto pped
p ly
Ġhis t
ag er
Ġbu ild
Ġm iss
Ġto r
o red
n a
Ġcertain ly
ri ble
Ġt reat
Ġl aid
Ġbe ar
Ġs ens
Ġan n
i us
E S
O R
i ol
itt en
Ġ ing
Ġd a
b ut
Ġatt empt
Ġdes p
a ld
Ġstart ed
le t
ĠG e
Ġc aught
Ġp al
r om
A R
anc ed
im ent
Ġlau ghed
er r
Ġcomp an
Ġslow ly
Ġhe aven
Ġd rew
Ġcr owd
Ġj o
Ġstand ing
Ġgre en
m y
Ġcl ass
Ġpri v
t hat
Ġd ied
Ġbo at
Ġpurp ose
Ġleng th
Ġsha r
Ġd ie
w hat
Ġpap er
Ġne ither
Ġknow ledge
og n
Ġf ing
ad ed
Ġheav y
Ġf ool
Ġcl ot
ĠC on
Ġnatur al
Ġs ister
Ġgl ass
anc y
Ġme ant
Ġknow s
ri es
Ġwe ek
.. .
ert y
ond on
Ġsl ight
or k
Ġhard ly
Ġauth or
e ks
ĠC har
ĠM ary
Ġre v
Ġstra ight
D o
m ing
E N
Ġb ra
at he
Ġth ir
j oy
u ct
Ġfoll owing
ĠC ol
ĠH ar
Ġdet erm
r on
Ġp en
Ġop in
Ġboy s
Ġcirc um
Ġint ell
ĠL e
Ġatt ention
I I
i ps
Ġprin ci
Ġget ting
ĠO ne
Ġc amp
Ġne igh
Ġgo vern
ce ive
ust om
Ġpleas ure
ĠL ondon
Ġa st
Ġrem ained
Ġl im
Ġrem ark
Ġsp o
e en
ĠC ar
v al
ĠO h
it ions
a pe
il s
am ent
Ġw is
Ġcour t
Ġb urn
b s
ist ed
Ġfl oor
Ġlo ved
Ġstre et
Ġm ed
Ġp ost
ĠO f
Ġdist ance
in ing
Ġsa ve
i ves
Ġbro ken
Ġh op
us ion
! '
Ġg rew
ect ion
Ġneigh b
Ġch urch
Ġpro ceed
Ġstr uck
Ġs ac
ci ally
h ood
Ġdr ink
Ġter r
Ġcomple te
Ġb orn
A n
ĠM ad
Ġac cept
ha nt
Ġtr ust
ci ent
Ġ ^
se qu
Ġb ott
Ġb ound
ĠG er
Ġdin ner
Ġg ri
Ġli e
Ġcomp any
Ġsa fe
Ġcon vers
Ġpl aced
ĠO r
Ġmo ved
ĠW hy
Ġgr ow
Ġwa iting
Ġg un
ix ed
Ġb ank
Ġj our
ive ly
en ces
Ġdes ire
Ġm akes
) ,
Ġa v
Ġdem and
Ġcom pl
S t
Ġm ark
i ers
ĠE d
Ġrel ig
Ġr ich
ce nd
T ER
Ġstreng th
Ġwa it
Ġen joy
Ġwar m
Ġmonth s
Ġf illed
ac y
Ġbel ong
Ġforg ot
a pp
i ke
c o
u it
Ġimp oss
ou red
Ġwe ak
Ġal though
Ġeas y
ac hing
or ge
Ġfor get
Ġp ull
O f
Ġex act
ĠB ar
Ġquick ly
u el
Ġrec ogn
Ġf ood
Ġocc up
Ġin n
ch ing
in a
Ġf le
H A
Ġs itting
d om
ce ly
as es
ve re
Ġh ig
m a
i res
Ġbreat h
Ġw ide
Ġeff ort
Ġthought s
ors es
Ġserv ice
n oon
Ġprob ably
Ġim m
Ġf un
or ies
Ġd en
Ġyou th
Ġsee ing
Ġdiffic ult
Ġte ars
Ġth ick
Ġin cl
l ight
ic ed
Ġgirl s
Ġf ut
ĠW h
y ou
it al
Ġm erc
Ġst one
Ġs in
Ġoff ice
Ġ ver
ĠJ ack
Ã ©
Ġcircum st
ur s
is es
Ġg az
Ġd i
g an
Ġf at
Ġm urd
ill y
Ġdep art
Ġsh out
Ġimmedi ately
Ġh orses
ĠS e
Ġm ention
Ġarm y
k es
Ġn arr
r ation
Ġsh owed
Ġfoll ow
Ġwr itten
Ġbeaut y
Ġbes ide
Ġha ll
ol ute
ĠT om
Ġ 4
ĠN ot
Ġbo x
Ġout side
Ġcont r
Ġt one
p ic
Ġgreat er
o om
Ġinfl u
Ġv iol
Ġdo ctor
h ow
Ġc ra
Ġafter noon
Ġpres ence
ĠD r
Ġu nd
Ġimposs ible
hy s
Ġsil ent
Ġdut y
Ġenem y
ĠD on
Ġs ick
ĠP ro
Ġmar ried
te en
Ġl ord
Ġm or
L et
ĠA d
Ġh id
B e
od e
Ġr ap
Ġbel ow
p ar
Ġc oun
Ġsk y
m on
He re
Ġth ird
Ġgra ve
ect ed
Ġg od
ort ed
Ġcould n
am b
Ġfig ure
Ġinc re
Ġob t
Ġf resh
enc y
Ġk iss
um e
Ġfri ght
Ġgard en
Ġcl oud
our s
est s
ud d
Ġpo ck
pl oy
ang u
Ġsn ow
Ġem b
Ġy ell
re me
_ .
Ġra ised
Ġes pe
Ġob l
Ġbegin ning
Ġsing le
Ġtr ying
al ed
Ġwould n
Ġrem ain
ri pt
Ġc overed
ol og
Ġv ict
Ġarri ved
iv id
Ġbro ke
ound s
Ġgu ard
os p
Ġl atter
qu e
Ġc ab
Ġpro per
o e
id ge
un ity
Ġo ri
Ġ Z
Ġinst ead
ĠCa ptain
Ġmin ute
Ġwhat ever
Ġb attle
Ġus ual
Ġappear ance
Ġst op
Ġmere ly
ĠR e
Ġlear ned
Ġne g
am s
I s
ce ll
Ġem ploy
Ġmo on
Ġres p
Ġl if
as ure
Ġal t
g ar
o ved
Ġopin ion
Ġp ath
Ġcorn er
Ġe ager
is ion
Ġfut ure
Ġimport ant
Ġf ly
c he
Ġtalk ing
i pp
ĠH en
Ġsp ot
Ġmus ic
Ġwr ite
u ke
Ġexpress ion
Ġev il
Ġbo ard
Ġlo c
er haps
Ġne ck
Ġfore st
B y
Ġg all
Ġhist ory
Ġcl osed
Ġsu c
Ġm ess
os es
Ġexpect ed
Ġp ati
Ġlet ters
w ise
Ġpur s
one l
Ġpl aces
Ġcon cl
Ġfor mer
Ġspr ing
Ġsh ot
m n
ci ety
Ġm ill
Ġgu ess
Ġut ter
Ġgi ving
Ġbook s
it ation
Ġs or
o v
pe red
ĠL et
ĠF l
Ġeas ily
un k
ut ed
Ġsh ut
ous es
Ġbl ess
Ġbe ll
Ġple ase
H er
Ġk ill
Ġrap id
Ġf ash
Ġjour ney
a ul
Ġm orrow
Ġse ven
is hing
ra ce
Ġm aid
Ġp op
Ġsm iled
Ġpie ce
Ġpol it
Ġv ol
Ġsh ore
m ber
ib ly
Ġsuff ic
Ġdo ll
Ġcons cious
f orm
Ġp at
Ġdire ction
o ly
t ic
Ġori gin
Ġc ou
ĠGer man
iver s
Ġspe aking
Ġsim ple
Ġlea ving
o x
.. ..
Ġsh ook
at ic
Ġespe cially
Ġwr ote
Ġconvers ation
vel op
Ġcl im
Ġf ro
re nt
z z
pl es
cl ock
Ġact ion
Ġturn ing
Ġent er
Ġstr ugg
Ġha ng
A h
Ġt y
Ġter rible
ro y
Ġpass ion
Ġm ass
c ome
ay s
Ġde g
Ġis n
Ġentire ly
Ġp un
iss ion
Ġref le
ci ence
Ġdre ad
Ġvill age
os ing
Ġl angu
Ġso le
ĠP hil
Ġk illed
ĠM an
ap pe
ll ing
Ġw ished
Ġfash ion
Ġp hys
ĠW ell
Ġrepe ated
ĠR ob
ĠC an
ĠE m
oll y
j o
Ġcond ition
ĠAmeric an
The se
Ġnot e
Ġfam il
Ġdec ided
Ġg en
ul ty
Ġl oud
z en
ener al
ĠFr ance
Ġsuc ceed
Ġrep ly
ere nce
Ġsit u
u ous
Ġres ol
Ġbe at
Ġtr ain
e ch
Ġ ign
Ġsu per
Ġli ves
iet y
Ġcon n
Ġocc ur
Ġrep res
ĠP e
Ġp ale
Ġsum mer
at or
Ġc at
i pped
I S
i od
ĠB y
Ġte nder
i or
Ġper m
Ġre ach
M r
Ġsim ply
Ġinst ant
Ġesc ape
Ġm er
Ġb all
Ġd im
Ġg ro
Ġear n
Ġmar ry
D on
re l
re st
as hed
ide red
Ġexperi ence
Ġstep s
A T
en ess
Ġobser ved
Ġrun ning
Ġm ut
Ġp a
Ġclot hes
Ġwat ched
Ġf urn
Ġpleas ant
Ġp aid
Ġlear n
W here
Ġsurpr ise
Ġf al
Ġth rew
A l
Ġscar cely
ĠGe orge
Ġdark ness
Ġsm o
ac ked
b b
Ġfir m
Ġchan ged
ĠM ay
Ġpict ure
u ly
Ġis land
Ġr ain
Ġgo es
Ġle an
ess ion
Ġunt o
se mb
Ġext ra
ret ched
et her
a ff
h ip
Ġ X
Ġafter wards
u ge
Ġdisc overed
ur m
Ġst ar
Ġall owed
Ġatt ack
Ġp it
Ġ i
Ġbit ter
Ġsor ry
Ġopp ort
Ġc iv
in ite
Ġt ast
Ġc ost
Ġn ation
Ġgra ce
Ġimp ress
Ġb ab
Ġtou ch
Ġl ot
Ġcal m
Ġper iod
Ġest ab
r ay
um ent
st em
ĠE l
Ġpers ons
Ġwin ter
it able
f ast
all ey
Ġhon our
Ġo per
Ġobl ig
ĠH im
ĠĠ Ġ
Ġse par
Ġir on
ap ed
S ome
Ġsome what
Ġh ost
ro du
Ġe ars
as p
u nder
are r
n ow
Ġcon sequ
it ary
Ġaccord ing
ĠJ es
Ġwall s
Ġv irt
Ġgr ass
b ered
Ġdesc rib
Ġlea ves
ag ue
Ġdro pped
Ġmid dle
Ġsh r
Ġl ying
ĠF ather
ĠG re
le nd
Ġh ouses
Ġhe alth
O U
Ġvar ious
it es
Ġg ame
Ġlike ly
Ġtra ve
Ġbec om
Ġp ress
Ġsc ene
Ġst orm
Ġfl owers
ĠA N
Ġbene ath
Ġdecl ared
Ġv an
Ġsa il
Ġt all
or ough
Ġperfect ly
um ed
Ġap art
Ġw ise
Ġ 5
Ġs ong
ĠW as
Ġsw ord
Ġsa nd
ĠBr it
Ġbre ad
Ġcircumst ances
Ġconc er
Ġabs olute
Ġwonder ful
Ġse arch
e an
ĠQ ue
Ġsp ace
Ġapp arent
Ġ id
A L
Ġthir ty
ill e
Ġlook s
Ġsp read
Ġbro ad
Ġno ble
ĠPet er
ĠG eneral
Ġd ry
Ġmar riage
Ġinf orm
aj or
Ġp h
Ġwor se
Ġpleas ed
e ar
Ġm ent
Ġpock et
Ġdeterm ined
Ġh y
ĠT r
Ġinflu ence
ĠE ur
Ġca pt
Ġch o
Ġlad ies
Ġr ing
Ġbelie ved
F rom
ac her
f er
Ġpro s
Ġun less
an ch
Ġfre qu
Ġshar p
Ġm ot
in y
g ress
Ġem pt
Ġsy stem
Ġn ice
Ġnot ice
Ġh unt
Ġdel ic
r al
HA P
Ġunderst ood
act ion
Ġag re
Ġfav our
Ġf ixed
Ġwe ar
er ve
ĠChrist ian
Ġnor th
Ġon es
Ġdis appe
in c
ail s
ish ment
Ġp ure
Ġca ptain
Ġmount ain
Ġgreat est
Ġde velop
ĠSt ates
Ġf aint
Ġst at
Ġhe s
W ho
Ġchar ge
Ġbr own
ĠHe re
s ed
en n
Ġbl ind
Ġspe ech
Ġha bit
Ġche er
c le
Ġfif ty
over n
Ġway s
id ently
Ġcons idered
ict ion
Ġst ro
Ġso ciety
Ġh orr
Ġdra wn
Ġgener ally
Ġfin ished
Ġgl ance
Ġbur st
Ġadv ant
Ġv ain
Ġspe c
Ġwas n
Ġsa ke
Ġsp ent
Ġsy mp
Ġsp ite
Ġpart s
ri ght
Ġhapp iness
Ġm ain
Ġexact ly
Ġadm ir
Ġw and
Ġpr oud
ĠC r
Ġde pend
Ġtem per
Ġm ater
ĠEur ope
Ġcle an
et t
he l
Ġse at
Ġp ra
Ġoff ered
Ġgovern ment
est ed
Ġc and
Ġd om
Ġspo ken
Ġth in
Ġth ro
ĠJ im
Ġprom ise
Ġr ace
st r
Ġcon ce
ĠY ork
Ġast on
w o
Ġfa il
om an
Ġb ow
Ġco ver
Ġfor med
ud ed
an n
en ced
Ġcont ro
Ġdes ert
Ġwa ited
ĠQ u
Ġsur r
Ġpo et
Ġbu ilt
ĠPar is
. ,
i um
h od
ĠP l
Ġl a
Ġpass ing
Ġciv il
Ġte a
Ġstud y
ir th
ĠW here
ĠA fter
Ġdis g
Ġl ines
f ord
Ġhon est
Ġc atch
Ġg ate
y l
ĠFr om
Ġu r
Ġst ir
Ġf it
Ġt ired
Ġser ious
Ġatt end
Ġsold iers
Ġcreat ure
I T
Ġapp re
og ether
her n
Ġwe eks
Ġm urm
Ġserv ant
es sel
ot ed
se t
har d
Ġfall en
ĠS ha
ĠP res
k y
c ha
Ġind ivid
Ġwork ing
Ġar g
Ġbird s
Ġc ustom
Ġstre am
Ġr is
Ġtr oo
Ġsil ver
Ġhar m
Ġprep ared
Ġdraw ing
Ġpriv ate
Ġin j
Ġquiet ly
Ġass ist
ĠG overn
e es
Ġour selves
Ġcom b
Ġmem ory
Ġt ong
Ġha th
ĠL a
y s
el ve
Ġunc le
Ġst ation
Ġcour age
Ġdiffic ulty
Ġall ow
Ġl ower
it ated
li ke
HAP TER
or th
ar ked
ro p
ĠL ou
Ġanx ious
oo se
Ġt alked
Ġst ick
os op
Ġsupp osed
Ġrev ol
g ain
a ly
ĠS ome
Ġshould er
Ġa in
Ġfing ers
Ġp hil
Ġtr oub
Ġsou th
Ġre ve
ent h
Ġacc omp
Ġmeet ing
ad es
Ġpe cul
Ġf ier
Ġmag n
ro ad
ĠC ha
Ġforgot ten
Ġspe cial
Ġgr ou
ab les
Ġshad ow
Ġd ust
anc ing
Ġpecul iar
Ġthan k
ĠHen ry
l ished
ct ions
is c
Ġsa v
Ġv essel
Ġsus pic
Ġm otion
ĠW ho
ĠW ill
ĠA m
Ġsh op
s c
Ġw ond
oun ced
Ġquest ions
Ġb and
Ġyell ow
it ive
Ġdis m
Ġcare fully
Ġl iter
Ġf ol
Ġfort une
Ġhead s
Ġexist ence
Ġwhis pered
Ġspe ed
n ight
Ġwr iting
y n
Ġstr anger
Ġed uc
Ġindivid ual
Ġm ach
ĠD ick
Ġdest roy
Ġremem bered
Ġcomm un
C ome
Ġnarr ow
Ġd am
ĠCh urch
Ġins ide
ĠPr ince
Ġco at
ĠN e
Ġbre ast
Ġext reme
Ġearn est
os ite
oc r
ĠInd ian
Ġshould ers
ĠJes us
Ġ1 7
er able
Ġf ish
Ġsp lend
ĠY es
Ġrep ort
Ġw ine
Ġr ail
Ġt rib
ed s
Ġord ered
Ġang ry
Ġopport unity
Ġr ise
Ġb are
er gy
Ġprom ised
Ġbreak fast
ĠD av
Ġl oss
Ġsur f
pect ed
Ġfin ally
i pe
Ġknow ing
R E
ĠW illi
IN G
Ġre ceive
l in
il es
Ġ 6
Ġcur ious
al es
Ġwit ness
ĠC omm
Ġor gan
n ers
oint ed
ĠQue en
Ġbl ow
ĠH ouse
Ġd ue
re et
Ġintell ig
Ġhold ing
Ġpro ved
Ġex cell
o is
d ing
Ġsitu ation
ĠW est
i k
Ġdisc uss
E very
Ġth reat
Ġr ate
Ġcompan ion
Ġkn ight
Ġoff er
Ġmatter s
w ith
ar ily
Ġb ag
Ġ ice
Ġord ers
o le
I C
Ġatt ract
ib ility
ĠA b
Ġbra ve
Ġperson al
Ġbott om
Ġt est
Ġb od
Ġint rodu
Ġtw elve
Ġed ge
ĠG l
Ġst ock
Ġpro cess
Ġread ing
he st
Ġoffic er
Ġoffic ers
ar m
Ġpass age
Ġleg s
on ed
i ence
Ġst ore
Ġlangu age
ll en
Ġtre mb
Ġd are
Ġsurpr ised
Ġcl aim
Ġmean ing
ac ing
om pl
b ert
Ġalt ogether
il ar
ĠS m
Ġinter rupt
ent ure
Ġwatch ing
ĠS am
Ġnot iced
Ġsac r
ĠS h
Ġag ree
ĠThe se
Ġfal se
o id
Ġdis app
Ġimp ro
mb ers
Ġhur ried
d er
Ġf ancy
if y
ur g
it ch
Ġp ot
Ġm ort
Ġl ose
Ġsc re
ar a
Ġwork s
Ġl uck
Ġpr ince
Ġg ar
Ġwe ather
Ġcr uel
Ġmove ment
Ġd ressed
Ġs orrow
Ġtell ing
Ġopp osite
Ġfav or
are t
L E
Ġanim al
Ġpossess ion
Ġsub st
ter ing
Ġan cient
Ġmater ial
Ġv alley
Ġval ue
le ep
Ġhig her
Ġtou ched
Ġgr own
c her
ing u
Ġf ond
p or
Ġbuild ing
Ġmet hod
Ġexpl ained
Ġj ump
Ġeng aged
Ġli ked
ous in
Ġr ough
Ġca used
Ġun f
Ġpoint ed
Ġhe at
Ġign or
ant ed
h old
ish op
Ġdes cend
Ġto w
Ġf aces
Ġw id
Ġinn oc
Ġsett led
Ġun s
p ir
n own
Ġwood s
Ġwe l
Ġempt y
d e
v ation
Ġhur t
Ġrem arked
pp er
Ġaffect ion
Ġsl a
Ġp ity
G ood
Ġthr own
or a
Ġhapp en
Ġwor ked
Ġprop erty
Ġp et
athe red
Ġc ases
Ġal ive
ĠMad ame
est y
Ġv ast
ru ction
Ġc up
Ġbe ast
Ġpre c
Ġord inary
Ġdiffere nce
Ġr ub
Ġev idence
Ġbe ha
Ġserv ants
Ġte le
Ġdist inct
Ġam ount
Ġro b
Ġgreat ly
Ġfor ced
ic ated
er ved
Ġ ess
Ġcr own
Ġgentle men
fort un
Ġs ides
Ġpr ide
Ġwe alth
Ġdoes n
Ġan t
w ood
Ġun k
gg ed
Ġf ill
Ġmount ains
Ġhe ight
Ġc ow
iv al
Ġr oof
ve y
Ġp ick
Ġex ec
Ġacc ompl
og ra
Ġcond uct
Ġgi ves
Ġhon or
Ġsee k
e er
Ġphil osop
Ġas ide
r ance
re g
Ġwalk ing
Ġconf ess
ĠP aul
oc ked
Ġwind ows
Ġp arent
c hen
Ġdist ur
a f
ĠAmeric a
Ġth orough
I ON
Ġfamil iar
Ġn ine
um n
Ġwe ight
Ġlist en
Ġw est
Ġr ising
d y
Ġh ide
ec ause
Ġa ut
ĠAN D
Ġm ir
Ġquar ter
Ġfor ty
Ġn ames
Ġf ate
Ġyour s
ons ie
Ġha ven
Ġgold en
Ġsymp ath
e al
Ġagre ed
o ard
Ġst airs
are st
us es
Ġinterest ing
) .
Ġ 8
Ġfa ult
Ġpro ve
Ġev idently
Ġsw ift
Ġgr owing
Ġanim als
us hing
Ġjud ge
u x
Ġ err
im ate
Ġrec ord
Ġre jo
ĠInd ians
Ġfeel ings
Ġconf idence
Ġsole mn
Ġr ul
Ġb ull
Ġsuggest ed
Ġno dd
ll y
Ġlist ened
as c
Ġpie ces
ul ation
os ity
Ġadvant age
Ġoblig ed
Ġmy st
Ġlif ted
hen s
Ġplay ed
Ġt akes
it ution
Ġr ode
Ġsh own
m it
Ġsurf ace
Ġstre ets
Ġsupp ort
ke y
Ġcar riage
Ġb ent
Ġheart s
Ġadd ress
ge l
Ġopen ing
Ġdemand ed
Ġmo ving
Ġr ank
ĠCol onel
Ġref used
Ġb old
Ġgr ay
Ġs ought
ep ing
Ġfa iled
Ġjust ice
Ġno ise
Ġdoll ars
Ġgr ad
Ġ" '
Ġp os
Ġlaw s
ust ed
Ġpap ers
ĠWilli am
Ġgl ory
Ġsm oke
Ġsuff er
Ġroom s
Ġequ al
Y et
Ġdist ingu
Ġkeep ing
Ġher o
ĠG ree
a ked
Ġsuffic ient
o f
Ġreg ular
ant ic
Ġe re
Ġtast e
Ġsure ly
Ġrelig ion
Ġp ack
Ġe ld
k er
Ġmight y
Ġk it
Ġc ook
ĠC ount
att ered
ĠG u
un ch
m in
ign ed
Ġprodu ced
ĠE ar
ĠO ld
Ġend e
Ġinter v
Ġw ore
is ters
Ġqu een
cept ion
Ġpres ently
Ġf ully
C HAPTER
Ġb ill
Ġtong ue
ĠNor th
Ġun w
Ġli es
E L
Ġco ast
Ġhill s
Ġint ended
Ġpull ed
Ġdri ve
g o
Ġus ually
Ġt ail
Ġno se
D id
ul ous
Ġru le
Ġte eth
Ġaw are
Ġse ized
ĠJ ew
ĠS w
Ġfore ign
Ġe gg
ĠA p
Ġde b
ĠSp an
am ing
Y our
Ġdeg ree
P erhaps
Ġr are
Ġinst ance
O M
Ġdo zen
ĠS outh
Ġaff airs
ist ic
Ġlaugh ing
ĠE very
ang ed
Ġexam ple
Ġg athered
Ġmention ed
Ġwill ing
Ġbes ides
Ġbr ain
Ġso cial
Ġart ic
id ing
onsie ur
it or
Ġpro gress
ĠJ ames
ter day
Ġcha p
Ġmy ster
Ġlove ly
ro om
Ġsha re
ĠM art
Ġre b
Ġ 7
Ġgr at
Ġd ign
N ever
Ġauthor ity
c han
Ġide as
ĠY et
Ġser ve
g ment
Ġf art
Ġgl oom
Ġsk in
ac le
Ġbus y
Ġo w
âĢĶ "
i ber
Ġneed ed
Ġwant s
i as
a ving
Ġsa ved
Ġex erc
Ġd well
Ġdist ant
end ing
Ġhands ome
Ġc ool
Ġn amed
as ped
Ġsm iling
Ġsatisf ied
e b
Ġdev il
pe l
Ġh ol
A r
Ġsim ilar
ĠBrit ish
Ġse ason
es h
ĠI N
Ġas leep
Ġsc r
Ġkit chen
Ġpol ice
Ġli b
Ġmoment s
ch ief
Ġcross ed
I L
h ost
Ġb irth
Ġtroo ps
less ly
ar ies
Ġst ars
Ġa head
Ġexpl ain
Ġexc it
ul s
Ġprev ent
Ġende av
Ġa unt
Ġl od
Ġfr uit
Ġcab in
Th us
or ious
ĠS und
Ġcr it
ul f
Ġmurd er
Ġ1 6
u zz
Ġform s
Ġbab y
Ġput ting
Ġb le
Ġro y
Ġpa used
Ġact ually
Ġarr ange
Ġfre ed
Ġre ck
Ġsh oot
c ing
Ġcent ury
Ġsh ips
ĠSt ate
Ġha te
Ġfind ing
Ġno body
c on
our t
Ġhur ry
ay ed
Ġa ud
Ġc red
Ġbri ef
Ġl og
T HE
ro se
Ġbu y
Ġterr or
Ġsha me
Ġc it
Ġtw ice
ĠUn ited
in al
r ing
Ġmod ern
Ġinterest ed
A S
Ġinform ation
Ġsupp er
Ġaff ord
Ġworth y
Ġspe ct
Ġ1 9
Ġg le
Ġy ield
ĠChar les
Ġc ell
Ġcon qu
pp y
Ġde ck
Ġfar m
Ġrepres ent
Ġtra vel
Ġcol our
Ġdo ors
Ġter ms
Ġsqu are
Ġdog s
Ġser ved
J ust
Ġrequ ired
Ġacqu aint
Ġimport ance
Ġp air
Ġimag ine
Ġsu it
Ġr ide
Ġaccomp an
Ġconsider able
Ġapparent ly
Ġspe nd
Ġsucceed ed
Ġexcit ement
ĠM c
Ġthr ow
Ġsha pe
E ven
ĠM aster
Ġoccur red
Ġaff air
Ġdisc over
Ġb ore
O L
us ing
so ci
Ġpri est
Ġoccup ied
ug ust
Ġfact s
Ġdro ve
Ġevery body
Ġpict ures
Ġd ull
Ġfright ened
Ġmor al
Ġp ounds
Ġspir its
Ġis s
the less
Ġev ents
Ġlead ing
Ġin ha
Ġce ased
ĠE x
Ġtre m
ard on
. )
Ġne arer
Ġroy al
ĠSt reet
Ġsold ier
Ġt aught
Ġ1 5
h ib
Ġc ousin
Ġme l
peri or
Ġh uge
Ġdesp air
Ġcont ent
Ġexcell ent
tern al
ĠH el
Ġc ult
Ġe ast
Ġintell ect
Ġst age
ĠR uss
Ġpal ace
ir st
Ġfl o
u ce
Ġa id
Ġhear ing
0 1
Ġkn ees
Ġe t
Ġh osp
Ġcontr ary
ĠC al
Ġme asure
as ons
er ry
p et
Ġw ounded
Ġem p
Ġregard ed
i ally
ad ing
ur al
oy al
ĠD an
Ġg ather
Ġam b
i i
Ġ ...
Ġp an
Ġev ent
Ġcomplete ly
Ġnatur ally
Ġbene f
Ġrapid ly
Ġdirect ly
Ġho le
or med
a it
Ġse ated
Ġfart her
Ġme mbers
l ied
ac ious
Ġpoint s
le ct
Ġob ey
Ġmar ked
Ġinst inct
Ġexc ited
ĠHe aven
Ġste pped
Ġco ff
Ġpray er
Ġun e
ĠM on
Ġnodd ed
Ġcha mber
Ġcarry ing
Ġs igh
ĠJ ust
Ġaw ful
ess or
Ġpr oof
iz ation
Ġinqu ired
Ġany body
Ġinqu ir
Ġc op
ĠG ood
Ġfl esh
Ġimp ati
Ġdanger ous
Ġother wise
Ġent ertain
Ġpossess ed
Ġcou ple
Ġper form
Ġfell ows
se c
Ġw ag
ĠG reat
im ents
b ers
Ġfl at
Ġbr illi
Ġshout ed
m as
Ġho ly
Ġextra ord
Ġrel ief
or ing
Ġw icked
Ġam az
Ġpolit ical
l ie
st and
Ġdis s
Ġsett le
au d
Ġcond itions
Ġg ently
Ġjo ined
Ġreg ret
Ġsuff ered
ĠFr ank
Ġdisappe ared
Ġfall ing
V ery
ack s
Ġpower ful
Ġele ct
Ġt ask
Ġn erv
Ġdro p
Ġdes ired
, âĢĶ
Ġsplend id
Ġhid den
Ġpresent ed
Ġo dd
o ff
Ġyes terday
Ġunk nown
Ġabsolute ly
Ġcall ing
oo p
c ked
Ġdiv ine
Ġf em
Ġtr ade
es ides
Ġse v
Ġke en
Ġst ones
Ġda ily
Ġdri ven
res p
Ġparticular ly
Ġst ared
Ġse vere
Ġrelig ious
ĠD or
Ġprison er
Ġt ight
Ġwor st
Ġcr im
Ġm ile
ĠM in
y r
Ġfl ight
k in
Ġpers u
O ur
Ġt empt
ra w
Ġgre y
p ap
Ġgrou p
E D
s y
ĠJ ud
Ġburn ing
Ġfield s
Ġdes per
ĠD uke
le x
c il
Ġs ize
Ġplay ing
ĠW ar
Ġp icked
Ġproceed ed
Ġposs ibly
Ġd ying
ul ated
Ġunder t
aj esty
Ġenem ies
Ġass ured
ĠSund ay
Ġda wn
W hile
i est
Ġpol ic
Ġcontro l
Ġcr ime
Ġsuff ering
Ġres ist
ĠR ic
Ġr ad
Ġacc ident
Ġv ig
Ġadv ance
Ġhop ed
Ġp ressed
Ġp owers
ust ration
qu is
Ġf old
Ġpre fer
Ġfool ish
Ġwat ers
Ġimpress ion
Ġun ha
Ġfight ing
Ġwond ered
b ing
Ġim per
and er
Ġadv anced
Ġste ad
ĠR ed
i ance
Ġsu perior
um ph
Ġcompan ions
Ġappe ars
age ment
Ġ er
Ġcap ital
gy pt
Ġlib erty
Ġvo ices
Ġent h
ript ion
Ġcor re
pe lled
Ġgri ef
w hile
ain ted
Ġrock s
00 0
a pt
Ġthro at
Ġke y
Ġbeg un
Ġmist ake
ig hed
S uch
Ġp ill
Ġclear ly
Ġrel ations
ĠLou is
r ict
Ġadm itted
Ġadv ice
Ġfe at
Ġexpl an
ĠR ome
ĠRob ert
Ġfl ower
. _
Ġmil k
Ġb as
ci p
Ġ 9
Ġdread ful
Ġdo ct
Ġeduc ation
ĠA unt
Ġnat ive
Ġcare ful
per or
Ġc ig
Ġs our
Ġcur t
Ġinst ru
ĠB et
ĠM ont
ĠC ome
Ġw ed
Ġtr ick
Ġfing er
ĠPr in
Ġsoft ly
Ġexp ressed
Ġking dom
ang ers
if le
Ġm aint
Ġb al
Ġy ards
Ġmid st
Ġo h
Ġexp ed
Ġrem ind
el t
ĠA nt
ĠE gypt
Ġd er
Ġmist ress
em ber
Ġstrugg le
Ġsatisf action
Ġspr ang
Ġt end
Ġst y
Ġd ouble
ak er
Ġobt ained
Ġresp ons
Ġbl ank
if ice
n es
Ġbut ter
o pt
re m
Ġcit iz
Ġan ger
ĠMar g
A re
o very
Ġr ushed
Ġrec all
ic ation
Ġste am
v ille
Ġt ion
ren ce
Ġb an
Ġent rance
Ġjud gment
Ġfif teen
Ġst uff
Ġnecess ity
Ġre nd
om s
Ġcast le
Ġkind ly
ĠUn cle
ific ation
Ġpl ant
Ġwor n
Ġaccept ed
ĠA ugust
Ġrem oved
ers on
Ġpr ice
ĠSc ot
ĠDav id
Ġhot el
ock s
om b
ill ing
Ġcount en
ĠM e
ir gin
ĠY our
Ġwel come
ĠI r
ĠGovern ment
Ġbod ies
Ġmil itary
Ġas king
ĠHar ry
ur se
Ġup per
av al
Ġmess age
i en
he t
Ġpl enty
Ġb id
ail ed
Ġrem ains
H ave
Ġm at
Ġw et
Ġinv ol
in ent
Ġenc our
er ous
Ġremark able
im s
Ġfrequ ently
Ġas soci
Ġcol or
Ġt it
L ook
Ġsome where
um ents
Ġst ern
om en
an ny
ens ive
u le
Ġloo se
ive red
Ġhad n
Ġneighb our
Ġshe ll
Ġfam ous
Ġcle ver
n al
ac hes
Ġpop ular
at ors
Ġl one
Ġy ard
Ġt ur
_ _
ure ly
Ġs ons
ĠM other
Ġwe ary
Ġfort un
ĠB en
Ġextraord inary
Ġhorr or
Ġgl anced
ust ri
Ġun able
Ġequ ally
Ġmurm ured
ing ing
Ġwith d
r ant
st airs
ĠJ ane
e pend
Ġun ivers
Ġqu al
er k
Ġmind s
Ġsoon er
iz ing
Ġno b
ons cious
Ġle vel
Ġinst antly
Not hing
ĠM ag
m ond
Ġar ch
Ġ1 0
Ġab and
Ġsympath y
Ġp or
Ġcur i
Ġun fortun
Ġsl ave
Ġb ought
Ġh om
Ġim pl
Ġhig hest
Ġenth us
Ġcloud s
Ġarri val
Ġav oid
Ġend ed
Ġvirt ue
as ant
Ġprinci p
Ġjo in
Ġbur ied
Ġresol ved
Ġme at
Ġlo ck
Ġind ign
Ġhand ed
Ġdes ign
ast ic
u pp
al t
ĠW il
Ġsa f
Ġm ult
Ġinter p
Ġesc aped
Ġfair ly
ou l
Ġbelie f
Ġkn ife
ch ie
ous ed
ĠO ur
ĠThe ir
f l
Ġtr uly
Ġgod s
Ġen v
Ġappro ached
f ield
Ġorigin al
Ġre n
Ġshe ep
Ġfreed om
s es
ĠTh om
re y
Ġimag ination
t is
ĠPhil ip
Ġw ings
Ġadm it
Ġind iff
Ġfle w
ac ity
Ġgre et
Ġl ake
Ġex ceed
Ġport ion
Ġclose ly
Ġlo ver
Ġpro ble
ĠPres ident
Ġprom pt
ĠĠ ĠĠ
Ġtreat ed
Ġinst r
ĠS at
Ġlab or
Ġlar ger
as hing
Ġar rest
Ġint ention
Ġdep th
Ġinterrupt ed
ĠEl iz
Ġsle pt
Ġf et
c y
Ġme as
I nd
Ġuse ful
Ġinv est
Ġabs ence
ut en
Ġman if
ĠS ch
Ġmyst ery
Ġdis pl
Ġsmo oth
Ġf an
Ġad opt
ĠL uc
Ġkiss ed
Ġvis ion
Ġhop es
u f
Ġparent s
es e
Ġgun s
M rs
Ġcomp ar
h ich
Ġj ob
Ġdeep ly
Ġs cience
Ġdescrib ed
ĠJ ul
Ġp ushed
at ory
G o
ĠD id
Ġsu p
Ġl it
N e
On ly
p on
I ll
Ġg host
Ġthr ust
ab ility
Ġnews pap
Ġhelp ed
g l
Ġthorough ly
b id
r ated
ĠEd ward
ck now
Ġcounten ance
Ġev ident
ce an
Ġob st
os en
Ġfriend ly
Ġd ance
Ġthink s
ĠM or
Ġpr int
on n
or ous
t le
Ġret reat
Ġwhis per
Ġwis dom
Ġc aut
Ġf ought
Ġa cknow
z y
ĠC le
Ġfaith ful
Ġshe l
Ġment al
v an
Ġse ll
Ġmerc y
Ġcont em
Ġst ories
Ġex ha
f ather
Ġincre ased
Ġbecom es
al ing
ĠSm ith
Ġwe ap
Ġsing ing
Ġconcer ned
Ġh it
p ort
Ġsupp ly
Ġche st
Ġp in
Ġun ex
Ġl aughter
s he
Ġa rose
it z
Ġeng ine
Ġg ay
ustom ed
em s
Ġfr ag
Ġear l
th ur
Ġmach ine
Ġsh ining
Ġstri ke
Ġ &
Ġprinci ple
Ġh ither
Ġf ac
Ġtra il
Ġqu ant
l o
ell e
Ġbr idge
Ġext ent
Ġj eal
c om
M iss
Ġdream s
Ġm ajor
Ġprof ession
Ġlight s
Ġf o
Ġsound s
Ġw ound
ink ing
Ġc ard
as y
Ġimm ense
Ġche eks
ro g
w as
Ġc ord
Ġfly ing
ĠB ob
Ġestab lished
Ġcuri osity
ĠA h
Ġconscious ness
ĠJo e
Ġdelic ate
i ently
Ġcomfort able
Ġ1 2
Ġp ause
Ġgr im
Ġcirc le
Ġre ward
Ġlist ening
Ġinnoc ent
Ġrec oll
ĠFr anc
ĠR oman
in ced
um ber
Ġpati ent
Ġoffic ial
aw s
Ġem otion
Ġgrad ually
Ġass ert
Ġstand s
Ġcreat ures
ab el
Ġv ent
Ġv ague
Ġpre cious
iv ity
Ġ* *
er ves
Ġpract ice
Ġg ained
Ġemploy ed
Ġl ack
Ġst iff
Ġbe aring
Ġd ar
ĠC or
Ġm our
am m
ĠE ven
omet imes
Ġtremb ling
Ġqu eer
Ġas semb
ill a
han k
anc hes
Ġch oose
Ġprop ort
Ġty pe
Ġprot ect
ĠM ac
The ir
ĠBl ack
Ġthe ory
Ġc ott
as ing
Ġsaf ety
Ġsm ell
Ġphys ical
Ġfeat ures
ĠDo ctor
et te
Ġh oll
Ġha m
ĠF red
i ven
Ġrep ro
Ġevery where
ha l
resp ond
Ġe p
r ate
Ġme al
Ġbe w
ir m
Ġarr anged
Ġst retched
ain e
il ty
ĠChrist mas
Ġsac red
Ġfe ver
ĠH all
Ġsc he
Ġsal t
Ġeffort s
Ġbring ing
oo ked
Ġlight ed
ĠH oly
Ġr ag
umb led
Ġam id
Ġm a
ab eth
ut ation
ch o
a ult
Ġspec ies
Ġe mer
Ġinf ormed
Ġbrother s
Ġj ew
Ġno vel
Ġcont empt
ent ial
Ġmyster ious
ĠRic hard
Ġmis erable
Ġdis h
ĠA lex
y e
Ġkind ness
Ġro lled
es tern
n el
Ġacquaint ance
Ill ustration
Ġen ergy
I R
Ġold er
Ġch osen
Ġunderstand ing
am ma
Ġre cei
ĠC ourt
Ġjeal ous
Ġtri al
am ps
Ġsl ipped
ĠM ark
Ġswe pt
Ġaccompan ied
ĠBr own
Ġl amp
Ġfig ures
Ġany one
Ġfl ed
Ġfriend ship
Ġto t
Ġspirit ual
Ġgen ius
Ġappre ci
ĠM a
Ġd ig
ere r
am ond
Ġt ent
Ġutter ly
Ġre asons
Ġdign ity
Ġpros pect
i qu
Ġinf inite
up id
ĠPrin cess
g s
Ġanx iety
Ġmin ister
Ġre du
b its
" '
ĠP al
ar se
ation al
and y
Ġrel ie
Ġind epend
Ġdis ci
Ġcap able
ha med
Ġunha ppy
Ġwhe el
le cted
Ġwa ves
ĠJ ac
Ġg est
is her
Ġsty le
Ġwr it
Ġc ere
k ins
Ġob v
ad s
Ġa im
n s
Ġro ll
oint ment
Ġprov ided
ul se
Ġexplan ation
Ġth under
au nt
our se
Ġt ale
Ġun b
ic ian
Ġfl ung
Ġmiss ion
Ġc attle
ed ing
Ġg ain
Ġfl ag
y er
Ġrel ation
Ġlone ly
Ġpur cha
ap s
Ġman aged
Ġgaz e
ĠB ill
Ġcor respond
Ġw ra
Ġher s
Ġm ood
Ġsh ock
Ġm al
Ġappro ach
Ġexc han
Ġsh owing
Ġsav age
Ġfor ces
i ation
pl ess
ĠAn n
Ġneed s
Ġte acher
Ġconcer ning
he w
Ġ âĢ
ĠF ort
Ġ" _
Ġcho ice
Ġatt itude
Ġdelight ed
ri e
ub lic
Ġtri umph
Ġnerv ous
ĠP erhaps
Ġcur rent
ld om
t ure
Ġpl ans
Ġobt ain
uten ant
Ġun us
Ġsome how
How ever
ĠGr and
Ġfore head
Ġprison ers
Ġtr ad
Ġcl o
Ġgu ilty
S T
Ġsol id
Ġfe ared
O W
Ġeager ly
Ġvis ible
Ġsurr ounded
Ġbrilli ant
Ġobject s
e ge
re es
Ġb ree
Ġadd ressed
Be fore
Ġe ase
ed er
Ġconsequ ence
E T
Ġdis e
Ġbecom ing
Ġbet ray
A b
ĠTh ou
Ġunc onscious
Ġout l
Ġr om
W ill
ĠB el
Ġse x
Ġf aced
Ġc art
Ġget s
Ġp ardon
ĠP er
Ġcl oth
olog y
Ġte ach
ver se
Ġcent re
Ġinha bit
Ġprep ar
Ġv ic
ur ies
Ġ ident
ĠJ an
ĠA re
Ġsome body
Ġmar ch
I V
Ġas hamed
Ġt iny
am a
A m
Ġyoung er
Ġgu ide
ict ed
Ġd ared
ĠL ittle
g ra
ĠAr thur
Ġcry ing
Ġlo ving
ud den
r ough
Ġsacr ifice
Ġdet ect
Ġbr anches
Ġwho lly
Ġprodu ce
it ure
Ġsign s
Ġgaz ed
Ġp ipe
Ġthrough out
Ġut tered
Ġexc use
Ġas c
Ġc rew
Ġbeh old
Ġslight ly
Ġgl im
Ġadd ition
Ġrecogn ized
Ġreturn ing
Ġp uzz
ĠG o
C an
out hern
Ġsoul s
Ġnot es
ĠE ast
i ant
p se
Ġdisc overy
il ities
Ġn urse
ut ions
Ġsec ure
Ġwh ist
ĠL aw
Ġb owed
le ase
Ġpart ly
Ġbl ame
Ġsuspic ion
ĠS ec
is ions
Ġhung ry
ĠL ove
ĠW hile
ac les
Ġsp l
ĠAn ne
Ġpr im
Ġacc ustomed
Ġcorre ct
Ġdev oted
ol ic
m ore
ose ph
ĠH ave
Ġann ounced
ĠHel en
Ġp red
Ġsk ill
Ġgr ate
a pped
Ġr ang
Ġ z
Ġfin al
Ġmem ber
ĠWh ite
Ind eed
e em
Ġst ret
ing ton
ic ate
Ġpo ison
Ġcons cience
ĠT ur
Ġwor ship
Ġapp ointed
i able
Ġex per
ĠSp ir
ĠP at
Ġsub m
Ġdire cted
EN T
el ess
Ġl est
Ġpro ject
Ġam use
Ġwis hes
ĠH igh
cl es
Ġpl ate
Ġint ense
Ġsp ark
U R
Ġprop osed
li ament
A D
Ġfl our
id s
Ġconsider ation
i ved
Ġru in
ĠWas hing
j ust
ĠS l
Ġthousand s
Ġh int
ertain ly
Ġr age
Ġmagn ific
Ġrequ est
Ġf er
p her
Ġfr ank
ou nce
en ny
Ġreal ity
Ġegg s
Ġplain ly
M ay
Ġex hib
o nder
ha ll
Ġso il
Ġprev ious
Ġcons ult
Ġsh ows
Ġlean ed
Ġhunt ing
Ġconv inced
ĠM ount
ĠCon st
u ing
Ġc hat
Ġimmedi ate
ĠSpan ish
Ġr out
Ġpra ise
Ġdut ies
Ġb ase
A C
r am
Ġcred it
A M
Ġm atch
Ġbre aking
Ġintellig ence
ĠW al
ol s
le br
Ġper ceived
Ġst aring
ogra ph
ri l
ĠV irgin
Ġhigh ly
Ġind ul
Ġquar ters
Ġgu ests
Ġbeg ged
i ot
Ġse ldom
Ġris k
ĠWashing ton
b ar
Ġ1 4
Ġcontin ue
c an
ĠL y
a res
O O
st one
Ġtell s
ĠH ad
ĠP ort
Ġn est
ĠS an
Ġforg ive
Ġconst antly
Ġbless ed
Ġpre ced
udden ly
Ġviol ent
Ġwas te
oth y
Ġmut tered
T wo
f essor
Ġro pe
Ġfle et
Ġhang ing
Ġbo ats
Ġact ive
Ġabs urd
Ġchar ming
Ġpract ical
for med
ĠS im
Ġbott le
Ġ1 1
Ġcoff ee
U n
Ġvict ory
ĠM o
Ġr ow
Ġadv enture
Ġat m
Ġpart ies
Ġo il
n o
Ġal oud
Ġra ise
Ġw retched
Ġfoll ows
Ġstri king
Ġdistingu ished
Ġprincip al
Ġsc orn
Ġs an
Ġcl ub
Ġsing ular
Ġb os
Ġcheer ful
Ġhe ll
Ġen orm
Ġt ied
Ġb ask
Ġsleep ing
Ġs cient
Ġme chan
Ġh ut
Ġre semb
Ġsubject s
p es
Ġnum bers
Ġt ax
st ead
Ġthan ks
Ġg ift
in ate
Ġfier ce
f all
ĠN ever
Ġtroub led
Ġo cean
Ġst upid
er red
ri g
ĠC o
ĠB o
Ġce lebr
Ġhel pless
if ted
Ġhor rible
Ġeld er
Ġestab lish
Ġsuccess ful
Ġdel iber
O r
Ġf are
Ġsent ence
Ġr ust
ĠSpir it
Ġs ank
Ġresult s
Ġassist ance
Ġland s
Ġatm osp
Ġli br
Ġinterest s
Ġr ush
Ġcond em
it ate
G od
Ġb ay
ĠM ars
Ġshad e
Ġv oy
ĠD el
Ġconst ant
ĠGre en
Ġdestroy ed
0 2
Ġamong st
Ġthr one
ĠB illy
ĠM ajor
Ġend s
Ġv en
Ġdet ails
Ġsurr ound
Ġh un
Ġcommand ed
Ġincl ined
Ġbl az
Ġnum erous
Ġter m
u able
ĠOn ly
ati ves
Ġinter f
Ġs ighed
Ġal arm
ĠS T
Ġfl ame
Ġconn ected
ĠTh us
Ġl ux
ĠThom as
Ġhouse hold
ĠIs land
Ġsp are
ĠMar ch
Ġha lt
Ġread er
Ġw ave
Ġdes k
Ġr ig
Ġsh oes
ort hern
k a
Ġdist ress
Ġsil k
t hen
ur ity
Ġn ations
Ġunex pected
Ġsp ort
Ġuse less
Ġdef e
ens ion
Ġre ar
Ġconn ection
Ġfr ame
is p
Ġr ange
Ġa ver
Ġcom pelled
Ġdepart ure
ra b
Ġqu ality
se y
Ġd w
Ġact ual
ĠEliz abeth
Ġref use
at ched
Ġbe nd
Ġconf usion
ĠA f
Ġrequ ire
Ġdiv ided
ĠIr ish
b ury
Ġse es
Ġat e
Ġshad ows
w in
Ġextreme ly
e ff
Ġmerc hant
Ġpain ted
ĠN ature
S ir
Ġrid ing
Ġ Â
ĠM onsieur
est ic
ri er
Ġcomm itted
Ġprinci ples
Ġe ating
ĠB ur
Ġvis ited
Ġkn ock
Ġfe ast
os al
Ġstay ed
Ġadmir ation
ĠM al
Ġre ven
Ġreal ized
Ġhast ily
Ġburn ed
Ġfour th
ĠJ oseph
Ġinvest ig
B ecause
Ġann oy
Ġm ix
Ġmount ed
Ġ1 3
l or
ar n
Ġsla ves
Ġkind s
Ġun p
Ġmark et
Ġc ro
Ġr um
Ġcom r
Ġdel ay
Ġexerc ise
ub b
Ġcont ained
Ġdem on
Ġpr on
b oard
Ġp il
St ill
Ġappro aching
Ġsu gar
Ġrest r
ĠC ath
u its
Ġbr ide
Ġche ek
Ġnight s
ĠW in
Ġloc ked
Ġar med
es c
ative ly
Ġinterv iew
Ġtr ack
Ġst ates
Ġgr in
Ġset ting
Ġh orn
Ġt al
Ġl ing
M any
il st
M ore
om in
Ġp ist
Ġwhen ever
ud ing
omet hing
ĠC ast
is hes
ut ch
Ġ' '
I G
Ġjump ed
Ġhes itated
b urg
Ġfe ather
ag n
ep s
our ing
' ,
Ġsw all
II I
Ġab rupt
um es
c er
Ġcall s
Ġwar ning
ell a
Ġste ady
m other
Ġcoll ect
Ġn in
Ġunfortun ate
ĠS y
ir ty
Ġprin cess
Ġperm itted
Ġconcl usion
Ġprof ound
os er
Ġbe ard
Ġb ones
Ã ¦
ur ance
ad a
ĠT w
ĠFranc is
if ts
Ġhast e
Ġshe d
ul ate
Ġdoct r
ĠC he
Ġcons ent
in ity
Ġun l
Ġtri p
ĠR iver
ha s
ie ce
Ġright s
Ġdist rict
un ning
Ġgl orious
Ġcott age
Ġweak ness
Ġstr ict
Ġabs or
ak s
E x
Ġre ign
Ġcal cul
Ġhe nce
Ġdesc ription
ĠP ark
Ġmis ery
ord er
Ġph r
Ġp age
Ġsha king
Ġdef inite
ed y
Ġins isted
ge on
Ġcomp osed
Ġinv ited
ol ution
Ġbelong ed
b on
Ġsound ed
Ġproport ion
Ġfl ood
Ġprot ection
Ġenjoy ed
ĠO l
ĠP ol
Ġwonder ing
Ġche ck
Ġv ac
Ġcomp re
Ġto ss
g on
ar med
ĠMarg aret
Ġab road
ĠIt al
Ġwh ilst
ad d
h ouse
Ġste ep
* *
ĠF air
Ġatmosp here
Ġaw a
Ġf ix
Ġmid night
Ġf ulf
Ġcont ract
ĠS on
Ġvan ished
aint s
ĠSt r
Ġe cho
Ġwood en
a is
e g
Ġsh one
Ġe ternal
ĠC om
Ġgood s
ĠJ ean
Ġbos om
p ent
Ġm ud
Ġst air
ere nt
ol n
Ġc ries
Ġconc ern
Ġany where
Ġsent iment
up on
Ġ vers
Ġpun ishment
Q u
Ġtem ple
a i
Ġinhabit ants
Ġlo ves
Ġret ired
ct s
Ġacqu ainted
Ġli qu
Ġsuffic iently
a wn
Ġha unt
Ġmill ion
Ġintrodu ced
Ġexcept ion
id ay
Ġlear ning
ĠV en
ĠJ une
Ġf ired
Ġim age
en es
anch oly
Ġshar ply
Ġproble m
he ld
Ġrec overed
S ee
Ġcl ock
ĠM ore
ĠP h
he nd
Ġst ated
l ers
Ġas pect
e el
stand ing
Ġtroub les
ĠPro fessor
ac on
Ġm ing
en ger
Ġconcl uded
Ġet c
. ]
O nce
o qu
Ġbr ow
N or
ĠEm peror
Ġcon ven
Ġman ners
Ġa x
Ġaw ake
Ġmist aken
ĠC omp
own ed
ĠJ er
Ġtit le
Ġs isters
Ġrid ic
Ġte ar
Ġfore ver
ĠT wo
Ġlead er
ĠGree k
Ġrend ered
or se
Ġn urs
ĠS qu
Ġstart led
r im
Ġstat ement
Th ose
Ġignor ant
ĠC ity
Ġappe al
Ġsign ific
Ġarg ument
Ġcrowd ed
Ġaffect ed
Ġhy p
he red
ud es
Ġpati ence
Ġfat al
Ġsim pl
ĠL ong
Ġs ang
Ġb ade
Ġcoun sel
Ġpriv ile
l est
Ġneighb or
Ġfl ash
ĠH ol
Ġc ared
Ġpl at
Ġins ult
S h
Ġcoun ter
Ġmel ancholy
Ġd u
Ġsens es
Ġstrong er
Ġrest ed
Ġur ged
Ġd ate
ker chief
ĠT hy
Ġdes ir
ĠH am
Ġcult iv
ĠA g
D uring
Ġwid ow
Ġfor bid
ons ense
ĠG race
ĠSt ep
Ġnation al
st on
Ġincre ase
ot ted
C h
Ġart ist
Ġbo ots
Ġgi ant
Ġser ies
Ġdr unk
ĠS us
Ġc ities
Ġlibr ary
Ġsix ty
ĠAl ice
Ġdesper ate
Ġmag ic
Ġfirm ly
Ġcr ack
Ġmer ry
T ell
ick s
Ġsha ke
d o
ĠW ood
ĠI m
if orm
Ġaston ishment
Ġgener ous
Ġlea f
Ġele ven
Ġs ore
Ġste el
ĠR ep
Ġsepar ate
Ġval uable
Ġby e
Ġhist or
Ġp oured
Ġatt ached
Ġir r
Ġsc attered
ick en
ĠB ert
Ġtre asure
Ġp ier
u gh
ar l
A gain
Ġres umed
Ġw ard
Ġheav ily
Ġcol umn
Ġwa ist
Ġhand kerchief
Ġun m
Ġprec ise
Ġl in
Ġlo ft
m es
Ġt ables
Ġdi amond
Ġh ind
ĠL ook
W as
Ġas cend
Ġmove ments
Ġcitiz ens
Ġl ately
ĠT O
Ġexam ined
Ġatt ended
t here
Ġve get
Ġobser ve
Ġsw ell
Ġtor n
Ġenorm ous
ĠM ic
Ġco ach
Ġw ing
Ġshel ter
Ġquant ity
Ġdelight ful
A ny
Ġstra w
ĠT e
Ġide al
Ġp ound
Ġaccompl ished
Ġl at
Ġinc ident
Ġin ner
Ġholl ow
ĠSp ain
Ġchar m
Ġbel oved
Ġp ig
Ġpl ants
l ot
T ake
Ġb en
Ġb ark
k i
Ġre nder
; "
ĠL u
ĠGerman y
Ġres c
Ġpros per
Ġr ib
ĠS il
b or
Ġwar ri
ĠIt aly
Ġobs c
Ġha ted
Ġcontem pl
Ġso vere
l ong
Ġcha in
ri ved
Ġlean ing
An other
Ġhum ble
Ġpain ful
Ġmanif est
Ġdin ing
Ġser iously
Ġgu est
Ġg own
A Y
l ies
r ous
ab bit
Ġthe at
Ġgr asp
ra ham
Ġd ancing
Ġearl ier
Ġper pet
Ġaston ished
Ġp ink
Ġdef end
Ġfe e
Ġdest ruction
Ã ¨
Ġan ge
ĠS ee
Ġab st
inc oln
Ġey ed
if ying
Ġloc al
ĠF ar
Ġno on
Ġint ent
Ġwr iter
ag ger
Ġcons ist
i pping
Ġslight est
Ġdepart ed
Ġsour ce
Ġal ike
ur a
Ġadm in
k ind
Ġpl un
Ġdel ivered
Ġkn ocked
Ġne arest
Ġgro an
s ing
Ġme lt
Ġan gel
Ġut most
Ġcond u
Ġqual ities
l ow
j ud
Ġimpro ve
Ġwed ding
Ġdifficult ies
Ġag es
Ġcon vey
pt ion
Ġt ones
Ġheart ed
Ġb ul
Ġcl iff
Ġtra ce
Ġdevelop ment
Ġob ed
Ġsus pect
con om
he ther
Ġsum mon
Ġcare er
Ġbad ly
Ġo d
Ġm ild
Ġlab our
Ġexped ition
Ġconst it
Ġfol ks
ĠR ose
Ġsuggest ion
Ġdec ision
ĠM il
um s
Ġca uses
Ġt ide
Ġproper ly
ass ed
ĠE v
Ġsh udd
u ary
Ġdel iver
Ġpro c
Ġstrong ly
Ġor n
ĠR o
Ġr ic
Ġturn s
aster n
Ġc ot
ĠS uch
l iness
sh ine
Ġsw im
Ġsmall er
amp ed
Ġpap a
Ġapp lied
Ġbank s
Ġha bits
Ġwhen ce
Ġst out
Ġre nt
Ġcreat ed
umb ling
Ġact s
Ġab und
Ġr ude
ĠB ab
ĠJ ones
Ġadv ent
Ġo x
Ġrec omm
Ġcand le
Ġdra gged
Ġsort s
ĠM ajesty
Ġdoubt less
Ġsign al
Ġunus ual
Ġw re
g ly
Ġne at
Ġren ew
Ġf il
Ġsc ra
Ġfe ars
Ġsad dle
Ġeffect s
Ġth read
ĠI re
ĠAf ric
Ġte aching
ĠE s
Ġg as
z ed
Ġchan ges
ri ot
Ġfail ure
Ġbur den
ful ness
Ġp up
Ġlaw yer
Ġg ates
Ġtown s
Ġl an
ian a
Ġstead ily
Ġt in
Ġs ne
Ġmaid en
Ġsur re
H ad
Ġun iform
Ġover t
Ġo ath
U S
Ġcrit ic
Ġfem ale
Ġact ed
re r
Ġest ate
Ġp owd
Ġhor iz
Ġsche me
Ġcont rib
Ġborn e
Ġb ond
Ġinc hes
Ġelect ric
Ġint im
Ġk ings
J o
Ġb ishop
T hank
aught ers
Ġimp r
b our
Ġliter ature
Ġreg ion
Ġhead ed
ĠC orn
ore s
ĠH ill
Ġown er
Ġsw ung
Ġcomm er
ĠR og
Ġth ine
Ġa chie
Ġan tic
Ġin ex
ul a
Ġviol ence
ĠP olly
Ġwor ry
Ġclim bed
is l
Ġre aching
ĠM ed
Ġimag ined
Ġcre pt
Ġt ick
Ġdar ling
Ġext ended
ri ly
Ġdri ving
d on
ĠL ike
Ġour s
Ġvoy age
Ġcount ries
Ġsee king
Ġland l
Ġdrink ing
Ġoccasion ally
Ġlight ly
Ġpurs ued
Ġserv ices
Ġ ,
Ġbeat en
Ġtow er
Ġex ert
Ġcl ergy
Ġher d
Ġshould n
Ġnot ion
Ġm ixed
Ġass umed
Ġb uck
Ġafter ward
ag ing
Ġview s
on ies
ĠH al
Ġn ut
Ġdesert ed
ĠB ible
Ġdescend ed
Ġdr ank
ar ry
Ġapart ment
Ġc her
ke ep
Ġignor ance
Ġmagnific ent
ĠV al
Ġinf ant
Ġch im
Ġemb arr
Ġgood ness
ias m
Ġmed ic
ap ing
ĠJac ob
eng ers
Th ough
Ġsepar ated
Ġpart ed
Ġgrow th
ĠC at
ĠJ ap
Ġsun shine
Ġ2 0
Ġpen et
Ġbask et
n at
Ġvisit or
Ġswift ly
ĠF in
Ġmort al
Ġen s
ĠL incoln
Ġass ure
Ġman age
Ġclass es
r ow
Ġu gly
ĠBet ty
Ġins p
ĠB er
Ġcra ft
E C
ean while
Ġli ber
ic ity
Ġdef ence
he m
ĠS en
Ġc oo
Ġele ment
Ġchief ly
Ġc as
ex ic
Ġagree able
ha d
Ã Ħ
Ġin ch
^ ^
Ġconce aled
Ġobser vation
Ġnever theless
R e
Ġconce al
i ving
Ġpol ite
a ver
Ġcomm ission
it ating
Ġinstr ument
Ġl ap
Ġcomp ass
Ġg e
Ġche ap
Ġfurn ished
Ġrep utation
c ast
s m
Ġe conom
Ġbr anch
ĠK e
Ġwind s
Ġrem aining
Ġobser v
g u
Ġattempt ed
ĠItal ian
Ġunc ertain
ĠL at
ot es
Ġpro cl
Ġph ot
v est
ĠC ong
Ġpri ests
m et
Ġimp ulse
Ġsafe ly
Ġunivers al
Ġthr owing
w orth
Ġantic ip
Ġfamil ies
Ġl un
ĠMart in
Ġc aval
om ed
Ġcl erk
Ġgaz ing
Ġ ze
Ġvict im
ĠV an
Ġden y
Ġvessel s
Ġhuman ity
Ġcol ored
er al
ie l
Ġtem por
Ġfurn iture
Ġfree ly
x ed
ĠW ould
ĠDor othy
Ġsus pected
ĠV er
Ġread ily
Ġpub lished
uf act
Ġdisp osed
ĠD un
ĠR ev
Ġc ave
Ġdeg rees
ĠT em
Ġpoint ing
Ġrepres ented
Ġn on
Ġdise ase
Ġport ra
Ã ¢
Ġdistur bed
Ġaud ience
ac he
Ġenthus iasm
g est
Ġsl ip
Ġeat en
Ġresp ond
n on
Ġpolic y
Ġartic le
Ġpoet ry
ĠM exic
Ġpray ers
ĠD iv
ĠB ell
Ġspe ll
Ġrefle cted
Ġd aughters
Ġst ol
Ġreck on
e ve
Ġdevelop ed
ĠO ct
op es
Ġp aint
Ġconv iction
gg y
Ġpur ple
Ġch ose
Ġgr anted
Ġacknow led
Ġintellect ual
ol ation
Ġquar rel
et er
Ġus ing
as m
Ġland ed
H aving
Ġf ires
re p
in ction
ĠF irst
ĠNot hing
Ġreve aled
Ġf ame
ĠSt ill
Ġp ant
Ġfl ashed
Ġbe ings
ĠS ar
Ġdress ing
ra el
Ġnot ed
Ġoccas ions
Ġphilosop hy
gr ound
Ġf asc
Ġl ift
c est
Ġent ering
Ġhosp ital
Ġdistur b
Ġbed room
Ġgrat itude
Ġgrate ful
in ated
Ġw ire
Ġstr angers
T r
W ould
d a
Ġfol k
Ġr ifle
Ġcontr ast
R O
ig g
Ġexec ution
Ġsubst ance
Ġcra w
Ġex cess
Ġstr ain
Ġm amma
Ġsur v
Ġexam ination
Ġless on
Ġan ch
Ġvol ume
Ġlike wise
Ġme ad
l ict
a ign
Ġn aked
Ġh oney
Ġout er
Ġfind s
Ġfair y
Ġcom ment
m at
Ġman kind
Ġde ed
ag o
hes s
Ġess ential
ĠC am
Ġle aped
Ġbew ild
Ġp ace
Ġman ufact
Ġscient ific
P oor
ĠInd ia
Ġoper ation
ĠM el
Ġcle ared
Ġgrand father
ĠE r
Ġrec over
Ġbenef it
ĠJew s
Ġmiss ed
Ġto mb
ĠJ uly
ĠS al
ĠR om
l eness
ĠN ap
e ur
ol a
Ġspe cul
Ġcl oser
Ġch in
Ġup stairs
There fore
' '
Ġmark s
w ick
ĠR os
itt ee
u ced
Ġrel ated
i our
Ġshe et
Ġcons id
Ġse ed
p ri
om fort
qu et
Ġsh ield
Ġg a
Ġmay be
Ġle is
Ġtreat ment
an a
Ġ /
Ġfear ful
Ġw ake
Ġ vel
ĠR al
Ġrec on
ĠFl ore
ĠN at
Ġartic les
ĠW or
and s
ĠP ier
Ġexperi enced
b ur
w hich
ĠI I
Ġwas h
os ure
Ġins pect
ĠUn ion
Ġroad s
M ar
hen omen
Ġthreat ened
Ġb ath
ver t
rib ly
r id
Ġhapp ens
ĠE n
Ġclo ak
Ġnat ives
ck s
Ab out
ĠR uth
Ġin ev
ĠEar th
Ġcontin ually
Ġthir st
Ġtrans l
Ġdirect ions
Ġrepe at
Ġcomple x
U T
Ġhast ened
Ġfrequ ent
iven ess
ĠS her
e ous
Ġfall s
b ow
Ġdism iss
Ġgr ant
Ġpuzz led
gr am
ĠH oll
Ġgest ure
Ġinc red
Ġbl ock
v ol
Ġfin ish
Ġgl ow
ĠPar liament
Ġdeep er
or ation
Ġprot est
Ġsend ing
I D
ĠRuss ian
Ġs illy
Ġneg ro
cc ord
Ġexha usted
Ġenter pr
Ġswe ar
Ġvar iety
Ġbe ating
g ent
Ġd az
' "
ĠN ed
Ġl ion
ĠB esides
li est
Ġbl oom
ĠM ir
Ġso ot
Ġdisp osition
Ġf und
Ġa ven
Ġgovern or
Ġwr ath
ĠT ell
athe tic
Ġtrave ll
i ated
i que
Ġconf ident
Ġadopt ed
ha w
Ġas h
ir ing
1 1
Ġsec ured
Ġend ure
Ġa pt
iver se
C ertainly
Ġj ack
Ġbr ings
Ġaband oned
Ġtri ump
Ġposs ibility
Ġhid ing
Ġact ions
Ġstart ing
Ġsa iled
Ġshort ly
Ġtrem end
it ory
Ġd irty
Ġid le
Ġle ct
Ġplat form
Ġsovere ign
Ġmet al
Ġrep orted
Ġun re
less ness
Ġd art
Ġs ins
se e
Ġd il
Ġover w
Ġc orr
ge ant
Ġindiff erent
em an
Ġheaven s
T is
Ġint r
Ġsome one
l a
ĠBe fore
Ġnewspap er
iz z
Ġrefle ction
Ġreal ize
Ġstud ied
Ġvol unt
Ġstir red
Ġro ar
Ġcow ard
Ġfar mer
Ġt un
Ġin se
pr ing
ĠC han
Ġm ock
end s
Ġhither to
Ġcoll ege
Ġpurp oses
Ġhundred s
Ġself ish
ĠJap an
Ġsil ently
b re
Ġreg iment
Ġcomp et
ol ate
Ġco al
Ġdom estic
ro s
Ġun ple
ĠM id
Ġf ed
Ġfun ny
Ġbree ze
Ġfur y
Ġbeg ins
Ġfl ow
Ġground s
ab led
ĠSe pt
L e
ĠO nce
Ġag ony
ĠL ife
le ts
a e
Ġdoor way
Ġdev otion
ĠAp ril
ĠScot land
Ġp henomen
ac hel
Ġkn ee
Ġno is
Ġbo ast
Ġv enture
Ġtim id
Ġwe aring
ress ion
Ġperm it
Ġprof ess
Ġdistinct ly
ha el
Ġdisapp ointed
Ġbr id
Ġgen u
Ġpop ulation
Ġcop y
ĠK ate
Ġdescrib e
Ġacc ur
Ġcent uries
ol t
Ġbeast s
Ġb att
Ġchap ter
Ġover come
ĠCon f
bb ing
ĠS er
Ġprob able
Ġmajor ity
Ġpr ud
Ġmar ched
ab b
ĠBar on
Ġg ifts
Ġs way
Ġro lling
Ġcomp ared
Ġper formed
o h
u ish
Ġbe ach
re ls
ĠH on
Ġpo ver
Ġexp ense
Ġdis ag
ĠM ill
pl ace
Ġbus hes
Ġdec ide
Ġabs ent
Ġb at
Ġsu st
Ġj oke
Ġ18 6
Ġper il
ĠGr ant
Ġmill ions
Ġ2 5
Ġabrupt ly
Ġpover ty
Ġs en
Ġadm ire
Ġt ub
Ġst uck
Ġfoot st
Ġdo c
Ġexceed ingly
Ġsup reme
Ġdepth s
ars on
Ġland ing
ĠIs rael
ar i
Ġinf er
Ġsm art
Ġdiscuss ion
Ġhom es
Ġatt acked
Ġpress ure
Ġdet ail
Ġrul es
Ġsub s
ree k
ell y
ri et
a fter
Ġins ist
Ġatt rib
Ġapp lic
Ġcol oured
Ġd at
Ġact ivity
Ġrest ing
Ġcut ting
Ar t
Ġdisc har
Ġsha lt
Ġsens ible
Ġfast ened
ĠC ap
Ġresol ution
ĠB ay
Ġav ail
p hy
Ġredu ced
Ġliter ary
Ġmir r
Ġrefle ct
Ġin her
Ġsince re
Ġaut umn
Ġto ler
Ġmind ed
ak ened
Ġopin ions
Ġcalm ly
the y
Ġcircumst ance
it a
ĠL ake
l ar
ĠTh ough
Ġfoll y
Ġappre hens
Ġra ising
Ġchar ged
f a
Ġmot ive
Ġcr u
Ġchair s
ĠD en
B esides
Ġbe held
Ġp ages
Ġe h
Ġearnest ly
Ġday light
Ġgloom y
Ġhat red
ĠT H
Ġwas hed
Ġm ast
urd ay
ĠS aint
pher d
Ġgrave ly
Ġdetect ive
D e
Ġmar ble
k ward
Ġm ate
Ġexper iment
Ġadmin ist
ĠR em
g en
ĠC oll
ank s
Ġwag on
Ġlim bs
ĠB ishop
Ġv ivid
Ġsmo king
I F
Ġbuild ings
Ġar d
ĠComp any
Ġinquir y
Ġag ent
Ġrun s
Ġpre jud
Ġtele ph
X X
ĠCath olic
Ġl oyal
ĠThere fore
Ġwand ered
Ġcomple ted
Ġhe ap
w ork
rib ed
C H
all ed
Ġf ence
Ġze al
Ġel oqu
Ġopp osition
Ġle ather
Ġact ing
Ġapp et
Ġstr ing
Ġun ion
ĠO ff
b bed
Ġref erence
Ġsacr ific
Ġsum m
Ġfe ed
ĠWh ich
Ġu lt
id ents
Ġtremb led
Ġobv ious
o lf
Ġremark s
Ġhand le
Ġse as
ĠS av
Ġtr unk
Ġclim b
Ġbl oss
Ġacqu ired
ĠD uc
E AR
Ġpurs uit
Ġconst itution
ĠGovern or
Ġref uge
Ġgra v
ook s
Ġent reat
Ġp sy
Ġamb ition
Ġl unch
ĠL ie
Ġp ine
Ġsy m
Ġb atter
ĠIt s
Ġgenu ine
Ġmethod s
Ġmoon light
ot ions
Ġinv ent
ÃĦ Ã
Ġbreat hing
th is
Ġaw kward
ĠDe ath
L ike
Ġatt ent
Ġdom in
Ġr ival
Ġst aff
o ber
ĠPro v
is k
Ġprof it
ĠA gain
Ġm art
m ony
Ġc ards
Ġrelie ved
Ġn av
Ġcont act
am ation
Ġdecl are
or ter
as ion
Ġmar ve
ha nd
Ġper ple
ĠP en
Ġdisg race
ĠD es
Ġhar sh
C on
ĠB ra
Ġgather ing
oub ted
is ible
Ġbitter ly
Ġbelong s
S E
Ġab ility
Ġprop he
Ġr ot
Ġsh ru
quis ite
Ġow ing
_ "
Ġconst ru
Ġf itted
with standing
Ġre ject
oo ped
ract ed
Ġdisg u
as per
Ġr oses
Ġdoctr ine
Ġan cest
le ton
Ġpist ol
Ġdist inction
Ġcross ing
ĠG old
Ġm ale
Ġble w
Ġl ust
Ġs ink
orm al
Ġsch ol
itt y
Ġhe els
ĠB oy
Ġexp osed
Ġange ls
Ġt on
Ġcharac ters
Th ou
Ġtou ching
U pon
Ġt um
Ġbus h
Ġcomm enced
Ġrec ent
Ġf id
i am
ĠLuc y
ul gar
Ġdisapp ointment
at o
Ġsh irt
ian o
Ġun like
Ġcamp aign
Ġrevol ution
pir ation
Ġsad ly
se en
Ġcoun cil
Ġn erves
Ġ iv
Ġwant ing
Ġbless ing
Ġstrange ly
us k
ic a
ac c
Ġaccord ingly
out s
Ġal tern
Ġing en
Ġrest ored
ĠA rab
Ġsens ation
Ġkeep s
Ġpres erved
Ġweap on
Ġw ives
ĠS ol
ĠIre land
Ġam used
Ġwand ering
Ġind ust
Ġlead ers
Ġde arest
Ġconf used
Ġperm ission
p ers
Ġhe ed
ĠK at
Ġp ark
Ġre vel
ro d
Ġun ited
u ously
Ġgo ver
S ince
Ġpract ically
Ġf ox
Ġsc enes
Ġreason able
Ġfavour ite
ĠR oyal
Ġhung er
Ġfl ut
Ġlight ning
1 0
Ġfee ble
Ġsail or
Ġdim in
Ġper man
Ġdream ed
Ġwild er
act ory
ĠAn y
Ġwhere ver
Ġgall op
Ġiss ue
ĠRal ph
ang led
S ometimes
S e
ĠS u
ĠG al
ie u
Ġmaster s
Ġsto le
orn e
p ing
Ġscar ce
Ġele v
Ġp ains
ĠV ict
Ġapp ly
Ġde eds
Ġp ile
ĠT ake
ĠE le
Ġto b
ĠG erm
ĠE llen
ĠB ost
Ġpre cip
ĠM en
Ġinter ior
u er
ac co
Ġinstru ctions
Ġex quisite
Ġintellig ent
Ġfl ushed
Ġwo lf
pl ed
C E
keep er
om ach
Ġru ined
Ġspeak s
ĠCong ress
on a
Ġfan ci
âĢ ĵ
Ġper ceive
Am ong
Ġf est
ĠVirgin ia
ĠSec ret
Ġve il
ĠTh ose
Ġwe pt
Ġad j
Ġche m
Ġres our
Ġwra pped
Ġrepro ach
se ll
Ġn onsense
Ġfat ig
Ġb er
Ġphilosop her
Ġint imate
or able
us c
Ġm ant
ĠF ox
Ġch uck
Ġvent ured
AN D
Ġd uke
O T
Ġsle nder
Ġeng agement
Ġpre f
Ġb und
ale m
ĠL ee
Ġknight s
Ġtre as
Ġele g
Ġfortun ate
Ġdri ver
fort une
Ġag ed
Ġgall ant
st ers
Ġobey ed
ĠSat urday
Ġ2 4
ĠD utch
Ġwe eping
Ġcont ents
Ġinc on
D ear
ic ient
Ġdead ly
ĠT re
Ġremind ed
ĠSept ember
B et
Ġsc ore
L ord
Ġdeb t
Ġany way
Ġhoriz on
Ġsla very
ĠD ar
Ġfeel s
Ġp ool
ri an
Ġhum our
Ġperfect ion
Ġcoll ected
st e
Ġmod er
Ġinterp ret
Ġarri ve
Ġarrange ment
ĠH aw
Ġstr uct
Ġchar ity
ic ing
ob ody
1 2
Ġele ments
Ġcere mony
c ase
ĠO b
Ġtremend ous
Ġrecei ving
ĠTh or
Ġbr ush
Ġbed s
Ġimm ort
Ġo ak
Ġhe d
Ġtra ged
Ġdes ires
Ġg ang
Ġfet ch
1 5
Ġglass es
ĠD ay
Ġinv itation
Ġp ond
Ġprev ented
Ġindepend ent
ĠL and
.' "
ĠC oun
Ġobject ion
Ġbe ars
ĠE ve
Ġhold s
Ġ2 2
ĠD em
Ġest eem
Ġpri ze
Ġdiv ision
Ġtra p
Ġmon arch
Ġeight een
om er
Ġthen ce
Ġn orthern
ĠH ugh
Ġte xt
ĠM any
Ġp atter
Ġl osing
Ġp ed
Ġcrim inal
Ġt ap
ĠC H
Ġsl ain
ĠHow ever
Ġstol en
ia h
OR D
ir k
Ġming led
Ġris en
Ġres ent
Ġconf lict
Ġprep are
if ully
Ġarrest ed
Ġc unning
Ġne p
or us
Ġbell s
Ġlay ing
Ġprompt ly
Ġ2 3
ĠWal ter
Ġsong s
Ġphr ase
Ġprov isions
uck y
Ġce ase
w ho
Ġcapt ured
Ġsh y
Jo hn
Ġisland s
ir med
Ġst omach
Ġchim ney
or g
ĠLat in
Ġper f
in ations
Ġrem ove
Ġfold ed
Ġindign ation
Ġcig aret
C l
ĠP ri
b o
Ġrespect able
Ġm ars
Ġdep os
ĠR od
Ġde em
Ġclot hing
Ġrail way
Ġmis fortune
1 8
Ġw estern
Ġpass es
Ġanx iously
Ġcelebr ated
Ġcharacter istic
ap h
ĠEar l
ĠOct ober
Ġfanci ed
ist en
Ġnep hew
Ġunple asant
Ġgo in
Ġr ays
e enth
Ġelse where
Ġbelong ing
Ġresist ance
nat ural
Ġmod e
Ġvisit ors
ul es
Ġcont aining
ĠP ers
Ġtrib e
olog ical
ĠSe a
Ġpsy ch
Ġattract ed
Ġlo ad
Ġbar bar
Ġint end
Ġmedic ine
Ġg asped
Ġlim it
Ġmult itude
Ġfare well
Ġcommun ication
Ġsupp orted
Ġcondu cted
ĠF R
Ġcontr ad
t t
Ġsol itary
Ġmot or
Ġrail road
ll a
Ġconc ent
Ġref orm
Ġf og
Ġf aded
ove mber
Ġj u
Ġpock ets
Ġst ag
Ġincre asing
ri ve
M ad
Ġinterv als
us ions
Ġeas ier
ay ing
Ġfro st
Ġem br
Ġmurd ered
Ġerr or
ol as
upp ose
Å Į
Ġcomr ades
Ġmeas ures
Ġwa ved
Ġ x
Ġdisag ree
Ġoverw hel
a ire
Ġwar ned
te enth
ĠCast le
Ġtr aining
ĠF er
Ġexam ine
Ġcre am
Ġd ashed
Ġaw oke
Ġpray ed
__ __
P res
Ġs ed
ĠS ax
Ġal armed
ĠA c
Ġmotion less
ĠâĢ ¢
Ġbl ast
Ġneighbour hood
Ġcot ton
Ġt id
ĠE mp
ĠW all
it an
ĠS n
Ġto re
ag on
ing er
Ä Ĩ
Ġexist ed
Ġf ain
ÅĮ ÄĨ
Ġdisappe ar
ĠA v
Ġcount y
Ġguess ed
a us
Ġreven ge
ĠMar ie
Ġprefer red
a ves
as hes
Ġout ward
Ġlong ing
Ġimp ressed
Ġpowd er
Ġwr ought
ĠSha ll
Ġc ure
ru ce
iver ing
Ġr oused
Ġleg al
us ive
Ġauthor ities
Ġregard ing
ĠPr ot
ab or
ĠE ls
Ġamuse ment
w ing
Ġpl ot
Ġbri g
Ġtender ness
Ġd aring
ir ts
Ġb arr
Ġformer ly
Ġmis chief
ĠSc ott
ĠStep hen
Ġconf ined
ines e
ve t
Ġiss ued
Ġconsequ ences
Ġassemb led
Ġhe ir
Ġy onder
el ia
ver ted
Ġgener ation
Ġprecise ly
Ġbur nt
Ġpres ents
Ġy er
Ġre le
ĠK ent
br idge
Ġamaz ement
Ġven ge
ĠDe v
Ġind icated
Ġsev enty
Ġfashion ed
Ġden ied
Ġoff ering
ĠInd eed
Ġtob acco
Ġo we
Ġrem ote
Ġsuper st
Ġdist rib
Ġj est
P ro
Ġstro ke
h in
Ġrel uct
P e
an qu
Ġshoot ing
Ġmod est
Ġcap acity
Ġtest im
oon ful
Ġloft y
ĠSpan i
ois elle
it ute
g ate
ct ive
Ġso lic
Ġwh ir
n ie
ĠA ust
Ġcomm unity
a ith
Ġ {
Ġw ha
Ġmess enger
Ġ( _
ĠY e
z ing
ĠA ng
Ġconsid ering
Ġpers ist
Ġany how
m aster
ĠT ra
Ġbl ows
Ġaut om
Ġalt ar
Ġmaint ain
Ġsc ale
Ġasc ertain
Ġgr ows
Ġevery one
Ġpay ing
Ġphys ician
Ġdro ps
Ġap olog
Ġde ce
Ġlive ly
Ġvirt ues
Ġsupp lied
Ġsto pping
Ġtr ained
Ġcount ed
Ġquestion ed
Ġhum b
Ġaver age
Ġv ine
ĠG ar
Ġm ajesty
ge nd
Ġfl ames
Ġdisg ust
b ack
ĠC ross
ĠFlore nce
Ġrecogn ize
r is
Ġbu ff
Ġhol es
ĠN ight
if ting
Ġm ob
Ġcorr id
Ġsl ope
... ."
Ġlan tern
Ġabsor bed
ĠChrist ians
p hant
Ġpolit ics
Ġpass ions
Ġm ap
Ġl az
Ġrec ently
ĠBar b
Ġal ter
ĠCh ief
in o
Ġd umb
ĠJim my
Ġret orted
Ġf ount
Ġpre y
Ġpersu aded
a ur
Ġsk et
ĠCar ol
Ġm as
Ġmirr or
Ġup ward
ĠCh inese
ild a
ĠAnd rew
Ġst able
ĠJohn son
Ġill ness
em ents
Ġr av
Ġpos itive
Ġd oth
Ġ ?"
Ġtrave lling
Ġdwell ing
ĠBost on
Ġtrust ed
Ġt ar
Ġplun ged
Ġill um
Ġsummon ed
Ġrare ly
em oiselle
Ġcaval ry
G r
ang le
en a
Ġro ot
Ġglim pse
ce l
U L
Ġchild hood
arr ison
AT ION
Ġso ber
Ġp ir
Ġsecond s
Ġprep aring
Ġheart ily
Ġref erred
ĠS un
um ps
Ġgar ments
Ġcoll ar
Ġnecess arily
Ġappro pri
es ter
Ġpron ounced
Ġw ip
Ġen cl
Ġridic ulous
Ġrespons ible
h ire
er o
ĠJud ge
Ġconf ession
Ġr ushing
Ġgr acious
Ġro ots
Ġsign ed
ĠC ur
Ġshout ing
ress es
oubted ly
i ate
Ġd ried
Ġwar n
em on
Ġp iano
il ight
Ġfather s
Ġexchan ge
Ġfin est
gr at
Ġbeha v
ic y
T H
Ġd amp
Ġdec or
ĠM oses
Ġlead s
and al
Ġchan ging
Ġto ps
a pping
Ġ2 6
Ġfr own
Ġpass engers
Ġhosp it
ĠM ur
Ġcent er
ĠN ovember
Ġmour n
ĠAr ch
Ġin ward
enc ies
ĠP o
S uddenly
Ġleg isl
Ġb one
Ġle nd
Ġreb ell
Ġde er
agn an
udd y
um ption
Ġs outhern
Ġdeterm ination
n ces
Ġli kes
and a
Ġportra it
Ġcry st
IS T
Ġcig ar
Ġrecoll ect
Ġmag ist
Ġbreat hed
Ġben ch
l ance
Ġsun set
Ġwilder ness
Ġless ons
Ġweap ons
ic i
Ġconqu er
Ġaband on
Ġlet ting
Ġem otions
Ġsatisf y
Ġrep ent
r ick
ĠN ich
Ġsub sequ
Ġse lected
Ġver se
Ġill ust
Ġper sec
U N
G ive
Ġmass es
1 4
Ġmeant ime
U nder
ĠG ur
Ġaw akened
Ġconfess ed
Art agnan
u a
Ġpret ended
pt on
Ġgl it
Ġp uff
Ġste al
Ġmaint ained
Ġprocess ion
om ing
Ġmore over
Ġstrugg ling
Ġsail ors
Ġlim ited
Ġk id
c r
ĠE st
Ġapp le
co at
Y e
Ġv ulgar
Ġtrans p
Ġgard ens
M ost
Ġd uck
N ay
Ġover l
Ġinv isible
R A
ĠPier re
Ġcont ain
Ġ3 0
t es
Ġdr am
ĠAt l
Ġen abled
Ġse ar
Ġinvol ved
Ġcondem ned
Ġth ief
ĠM at
Ġfound ed
Ġrel ative
Ġcon grat
Ġtrib es
ens es
ĠEurope an
Ġco ck
Ġjew els
Ġsu itable
Ġcont ented
Ġcompre hend
ill s
ĠO N
ES S
Ġcha se
v in
Ġhope less
Ġmed ical
pe ak
Ġw ret
ĠH ard
um m
Ġexpect ing
ĠEnglish man
Ġspec im
Ġopp osed
Ne xt
th ren
ut her
omm y
it ively
Ġcurt ain
Ġbr ass
ĠM er
Ġ $
ĠTh ree
ER S
Ġindust ry
ĠP ope
Ġmar vel
Ġpal m
Ġfootst eps
Ġwhe els
Ġriver s
ĠG il
Ġtele gra
Ġenc oun
Ġas hes
Ġcor rupt
Ġgrand mother
Ġchan ces
ocr atic
Ġrank s
ĠC ham
Ġdepend s
Ġdoubt ful
ĠRog er
ra ge
I M
Ġw ilt
Ġcivil ization
ugg ed
ĠJ eff
Ġneg lect
Ġfavor ite
Ġst im
Ġlo aded
Ġrecall ed
Ġfl atter
Ġinsp ired
ic able
on se
ĠAd am
ĠRuss ia
Ġgrace ful
Ġth ither
ha st
E M
Ġun iverse
Ġobed ience
ro ll
Ġclaim s
ĠU nder
i ge
Ġgr ain
Ġgu ilt
Ġdisci pl
Ġimpr ison
Ġfun eral
Ġsy mb
ri gg
Ġcur iously
Ġrespond ed
ĠAfric a
Ġres idence
Ġre se
Ġcan oe
Ġpe ar
os y
Ġt ie
land s
Ġmo ist
io let
Ġacc used
art s
r ust
Ġinfer ior
Ġso fa
Ġcl am
ĠVict or
Ġluck y
Ġprev iously
Ġsha ped
Ġcha mp
Ġhas n
un ce
ĠGr ay
E ach
Ġrest less
Ġteleph one
w ill
Ġret ire
Ġlarge ly
ĠE ach
erc y
Ġimpati ent
Ġbetray ed
Ġindiff erence
ul ations
Ġtheat re
er ick
Ġvenge ance
Ġune asy
ĠM ond
us hes
Ġstand ard
Ġb ind
ut ing
Ġn et
Ġde ceived
Ġd ed
Ġsecret ary
Ġshe pherd
Ġmurd erer
Ġsun k
Ġbal ance
ud ge
Ġdra g
Ġrespons ibility
Ġrout e
um an
Ġlong ed
ink s
Ġmiss ing
1 3
Ġpress ing
it udes
ĠP oor
Ġenjoy ment
Ġe cc
Ġtr if
Ġconsequ ently
F irst
Ġsur vey
ĠM ass
um ing
Ġcol onel
Ġschool s
Ġrejo ined
ic ial
Ġup right
Ġsun light
Ġsearch ing
Ġprepar ations
Ġapp ar
oop ing
Ġcan v
Ġsteam er
ink led
w hen
Ġstud ent
Ġprov in
Ġviol ently
Ġadm ired
ib ilities
Ġent it
Ġstre ams
Ġse ction
Ġtriump hant
' .
Ġind uced
Ġaccount s
Ġpassion ate
Ġr od
ĠD i
Ġt our
Ġwithd raw
m ir
Ġsan ct
Ġtw ilight
Ġune as
ur ches
h ic
ĠK en
Ġhop ing
Ġthr ong
Ġtor ment
Ġkill ing
os h
Ġcrim son
Ġprint ed
ĠC ont
Ġcon ception
Ġmurm ur
us alem
Ġf ishing
Ġbo il
Ġbull et
og ue
Ġw ages
Ġprot ested
ĠD ig
Ġadv ised
Ġad apt
Ġpres erve
L ady
Ġbr ut
Ġbr ood
Ġgu ards
Ġloud ly
Ġk ick
Ġrecogn ised
Ġcare less
1 6
ĠW ind
Ġsuccess ion
ĠCh ic
ever al
Ġan aly
Ġtraged y
Ġcl osing
Ġlin en
Ġto il
Ġlast ed
ĠAmeric ans
Ġfro zen
Ġpart ing
Ġind ic
Th ree
Ġco arse
S ay
Ġare n
Ġmer it
Ġsec urity
Ġen er
Ġp our
Ġphot ograph
Ġhide ous
Ġsa le
in ous
O ut
Ġhum or
Ġcar pet
Ġcur se
ĠO s
Ġlie utenant
ĠB oth
u ity
an im
ĠRep ublic
Ġmo an
ĠF ore
Ġpre m
ĠC ons
Ġcoll ection
Ġbox es
Ġc ir
Ġspe ar
A B
Ġcommand er
Ġ* '
Ġoccup ation
Ġfeather s
ce mber
Ġca res
Ġfur ious
Ġwe ep
if orn
Ġ2 7
ĠLie utenant
Ġ Ã
ĠF anny
Ġd anced
ĠM ess
Ġaccomp any
d in
Ġgl o
Ġsurre nder
Ġcl asped
Ġn igh
Ġsp in
âĢ ļ
Ġs ie
Ġtr ump
Ġcover ing
ĠH or
Ġdis cl
Ġsol ution
ĠA bb
ĠO ut
Ġcent ral
o ch
s aid
Ġmon ster
ĠV ery
Ġnewspap ers
Ġbr ick
Ġforest s
it ious
ather ine
Ġgreet ed
Ġfound ation
b oy
Ġcl ad
O ther
ig er
Ġcon ceived
Ġplan et
Ġsev ent
Ġc ake
Ġarm ies
Ġcand id
ĠT im
Ġflo ating
ĠB ecause
Ġperform ance
Ġpe asant
With out
uc ked
ant e
Ġde w
Ġfif th
n ut
Ġbel t
Ġcol ours
ĠMic hael
Ġwrit ers
op h
Ġright eous
Ġwh ip
Ġla wn
ĠF our
Ġwarm th
Ġtot al
Ġb ust
pend ed
ist ry
Ġcl ay
Ġru ins
Ġtestim ony
Ġv ote
Ġass ume
Ġatt ain
Ġhes itation
Ġm ould
Ġst ove
Ġtre acher
Ġpl ed
Ġr att
Ġcont ains
Ġarrange ments
ĠA ustri
Ġtr ifle
Ġneg lected
Ġinqu ire
Ġprin ces
Ġincl uding
Ġpit ch
Ġli p
Ġswe ep
Ġre ception
Ġexpl os
ĠC ent
Ġ^ ^
" ;
Ġbre thren
Ġoper ations
Ġj ury
Ġar ist
Ġlandl ord
Ġen able
Ġt ales
it ors
anc he
Ġpat ron
Ġpull ing
Ġvan ity
Ġcl aimed
u k
Ġar oused
Ġcl ut
Ġass urance
ĠB a
Ġenterpr ise
Ġf oe
ĠD ep
Ġrevol ver
Ġwre ck
am ents
Ġemp has
ĠJer usalem
Ġbe er
Ġpret end
Ġshell s
ĠO x
Ġmin or
Ġcons isted
Ġestablish ment
Ġcr ushed
Ġdec ent
Ġleis ure
ĠI van
Ġsn apped
ul ating
os pel
Ġsimpl icity
W h
Ġreport s
Ġfour teen
ĠTem ple
Ġtoss ed
Ġinev itable
Ġtw isted
Ġunc omfort
ru p
Ġprov ide
IL L
Ġf isher
Ġmost ly
Ġheaven ly
Ġpleas ures
Ġash ore
ill es
ĠS outhern
Ġj olly
Ġcre ation
Ġto day
Ġfr anc
ink le
Ġpeace ful
ole on
Ġman s
Ġenc hant
Ġ !"
ĠB ern
Ġaccompl ish
ĠCal iforn
Ġappet ite
pe are
Ġgrou ps
g reg
Ġcr ou
Ġp ush
ail ing
ĠC re
Ġpor ch
Ġsix teen
in n
Ġbar n
Ġar ise
Ġdefe at
1 7
Ġprop ose
Ġ2 8
3 0
Ġrem o
v a
Ġtrans port
Ġp enc
Ġapp l
ĠB on
Ġadvent ures
Ġtrad ition
Ġcons ists
Ġpar l
Ġg oss
Ġir res
Ġwithd rew
Ġha y
Ġse ats
Ġme nd
ins on
Ġresc ue
Ġcaut ion
ĠTh rough
Ġp all
ĠCan ada
ĠAr t
G E
Ġlad der
Ġsol itude
Ġbut t
it ect
ĠJo an
B r
ĠAr my
ĠW ord
Ġplan ned
Ġgl owing
ĠS yl
ĠM att
Ġdr owned
Ġann ounce
ul p
Ġglad ly
Ġtend ency
Ġs ke
Ġdisagree able
Ġinj ury
Ġwand er
Ġlow ered
Ġrel ax
Ġsu l
h ol
Ġfaint ly
B oth
Ġw ounds
Ġcertain ty
ĠBrit ain
ber y
Ġstrugg led
Ġprivile ge
ly n
ul ars
Ġmad am
ur ther
Ġthere by
ĠS ometimes
Ġconv ict
Ġfl ies
Ġsupp lies
Pres ently
Ġang uish
ad ise
Ġthan ked
Ġhalt ed
Ġn aught
Ġin it
ard ed
Ġown ed
Ġdis ple
ur red
Ġsub tle
Ġrom antic
Ġwis hing
ag le
Ġstreng then
Ġaff l
ob e
Ġche cked
Ġwarri ors
Ġembarr ass
Ġd ug
Ġsa ving
ĠSecret ary
ĠMond ay
ort on
Ġimp art
Ġenthus i
Ġg ig
Ġcl ung
Ġacknowled ged
Ġform ing
ĠGerm ans
Ġpurcha se
Ġpl anted
ens ity
d ed
ĠF el
Ġbl own
ĠE ll
Ġd ict
Ġoccasion al
M eanwhile
ĠYou ng
Ġab oard
It s
Ġpar ish
Ġmus ical
Ġext rem
Ġv est
Ġgle am
/ '
O ld
ach ment
ar f
Th rough
Ġal as
ĠWor ld
ĠM ax
Ġprov ince
B l
S oon
Ġtr anqu
Ġlo vers
ro l
Ġsatisf actory
Ġhun ter
Ġele phant
Ġn ormal
ill ery
Ġang rily
Ġcompar ison
Ġj un
Ġdown stairs
Ġqu it
Ġnot withstanding
ĠLa ura
ic ians
ĠW ild
Ġkn eel
Ġinst it
Ġyield ed
Ġecho ed
Ġd ivers
Ġpart ner
Ġdes erve
Ġd un
Ġreg ards
Ġcan non
at us
Ġtor t
ĠAn other
o ir
ĠDe cember
Ġw ars
Ġstruct ure
Ġp acked
Ġcorn ers
ar ation
Ġwhe at
Ġdispl ayed
ĠT ill
Ġa we
Ġm ail
Ġmod el
P r
Ġn ess
Ġreg ions
est ion
ĠT ime
Ġwo e
ĠJ erry
S hall
g le
Ġmad ness
Ġele ction
Ġpill ow
Ġdelic ious
Ġanch or
Ġstore s
Ġemploy ment
Ġinnoc ence
Ġrequ ires
Ġal tered
ind er
Ġest im
Ġcitiz en
Ġjealous y
Ġc u
Ġpe as
Ġpos itively
Ġdemand s
in ence
Ġde af
ĠT ar
for ce
ĠB uck
Ġw i
ĠC amp
Ġpo em
Ġplay s
Ġwr ites
Ġsettle ment
Ġl ur
Ġad orn
Ġdoll ar
Ġbeha lf
Ġsecret s
Ġstret ch
Ġto m
Ġr hy
Ġsha ken
ES T
Ġhapp ily
ne cess
Ġfort night
Ġsal vation
OR Y
er ies
Ġeduc ated
Ġansw ering
Ġneighb ors
Ġere ct
Ġj oint
Ġtr ous
Ġpl ains
ĠT ommy
Ġn iece
ĠPe ople
Ġen qu
Ġend less
all s
Ġresp onse
Ġadvant ages
ĠI II
ĠC ould
y ard
Ġtor ture
Ġattempt s
v ia
ĠF le
omm on
Ġle ap
han ks
Ġtr im
Ġcra zy
Ġbl owing
r ane
r ical
Ġcha pel
Ġvill ages
Ġentit led
Ġwe igh
Ġcourt es
ber g
w r
Ġbreat he
Ġle gend
ĠJan uary
Ġbo iling
ĠA ss
Ġter ribly
Ġst are
Ġinj ured
ĠJack son
u ated
ic ious
Ġwhere as
Ġcapt ure
Ġdro pping
Ġachie ve
ad o
Ġres ign
Ġvis its
ocr acy
Ġb ord
Ġfir ing
y m
Ġcou ch
s p
s ome
ps on
Ġinstr uments
Ġpre l
ĠGur u
Ġbut ton
Ġhum il
D oes
Ġfl ock
Ġha w
gg ing
Ġvel vet
orth y
ĠS ince
Ġemp ire
Ġsens itive
Ġinc ome
Ġex agger
Ġscar let
Ġmot ives
ĠCoun cil
Ġf aster
ĠW olf
ĠNich olas
Ġtim ber
Ġwa ving
v ag
Ġimpati ently
Ġneighbor hood
Ġg orge
Ġcomb at
ĠH as
Ġund oubtedly
Ġtrave lled
Ġrig id
Ġconven ient
Ġup set
Ġarch itect
Ġprofession al
Ġass ault
Ġfr uits
el ie
p ter
Ġinc ap
Ġlar gest
Ġch urches
Never theless
Ġha z
Ġadd ing
g ie
Ġcha llen
ĠSt e
ĠF eb
Ġsl ipp
Ġmix ture
Ġho arse
Ġrom ance
al o
Ġbr isk
Ġdisc our
ĠSo ciety
z a
in ating
ĠB al
ĠProt est
Ġbe e
ĠR ay
Ġeld est
Ġstud ies
Ġcell ar
Ġoff ence
ĠI nt
ĠN an
Ġback ward
Ġart ific
Ġinterf ere
Ġde fect
Ġdistingu ish
Ġprop osition
ĠMar ia
Ġmarve ll
in ery
Ġmut ual
Ġcol ony
Ġdispl ay
Ġl ots
Ġsum mit
Ġs inking
Ġhorr id
ĠO ther
ci a
Ġart s
Ġwas ted
Ġd ense
ru ary
ol ph
Ġb ars
Ġfoll owers
Ġhealth y
Ġcomb ined
Ġcurt ains
Ġch ill
Ġwit ch
ast ing
Ġadv ancing
ol k
Ġsolemn ly
. âĢĶ
Ġpun ish
Ġwalk s
ĠW estern
Ġdoubt s
Ġform al
Ġf anc
Ġnat ured
Ġres erve
Ġthought fully
ĠG ard
Ġdest ined
Ġind uce
Ġsear ched
l ock
ĠG all
ĠP ut
ĠJohn ny
Ġf erv
ĠAr m
Ġabst ract
Ġrespect s
Ġwa x
ĠHim self
M e
Ġinc omp
all el
ou ch
Ġam using
ĠL ight
O S
d ess
Ġem peror
Ġw oke
Ġstay ing
Ġbe es
Ġapplic ation
Ġp ha
Ġmean while
C T
Ġsha ft
Ġrecoll ection
Ġwild ly
Ġc ents
Ġp ip
Ġinquir ies
er a
Ġmust n
Ġearth ly
Ġre in
Ġins ol
Ġc ars
Ġth resh
Ġb red
Ġmus k
b an
Ġe astern
Ġdish on
Ġsh ine
Ġt ing
Ġansw ers
ĠEm ily
ĠSus an
Ġdw elt
Ġmem ories
Ġpur se
ad dy
Ġd iver
Ġrenew ed
ĠM orr
Ġindividual s
at oes
ur re
Ġun necess
ĠD own
Ġconv ention
t a
art ment
Ġsu llen
Ġin k
ĠP an
ĠP ap
ri a
ĠM os
Ġgall ery
G et
ĠG ive
um ble
Ġhear th
Ġbold ly
Ġf acing
un ken
Ġb other
err ing
Ġsc ent
Ġimpati ence
kes peare
Ġinter val
Ġr ings
ĠCh ina
Ġce iling
Ġnarr ative
ag ues
ĠCa pe
Ġeight y
Ġlim its
ĠM ost
Ġel bow
Ġeng age
Ġl ic
More over
S omething
ount ed
H T
Ġstair case
Ġoffic es
Ġder ived
ent al
Ġguard ed
Ġsub mit
Ġbas is
Ġmon ot
Ġthought ful
Ġrub bed
Ġsh rew
Ġty r
A V
ly ing
Ġpat riot
Ġscre amed
Ġbr ute
Ġl ane
Ġland sc
Ġd angers
Ġag itation
ĠU pon
Ġcorrid or
Ġsa iling
Ġc y
Ġdis aster
Ġexperi ences
Ġv ice
Ġind ustri
Ġexist s
Ġprec aut
Ġcompar atively
Ġb onn
Â «
ĠNap oleon
Ġbend ing
Ġf oul
ĠD ale
Ġapp ointment
Ġextra vag
Ġcigaret te
Ġbr ains
Ġ2 9
Ġtempt ation
Ġstr icken
int s
Ġco pper
Ġfe ature
ust er
Ġun just
ĠT urn
ur ious
Ġrep ose
Ġsw ore
uff led
c hard
Ġl ace
Ġpo le
ĠF OR
Ġsc andal
ĠS uddenly
Ġneighb ours
Ġpain ting
Ġseem ing
Ġentertain ed
Ġret ain
Ġsick ness
Ġdiscuss ed
Ġd ru
Ġbelie ving
Ġaffection ate
Ġcre st
A ccord
Ġb its
Ġput s
ĠD ou
ĠJ u
Ġsh o
Ġwor ried
Ġsp ared
Ġel abor
Ġare a
Ġcatch ing
Ġo m
Ġlear nt
vel ope
n old
ap sed
Ġsecret ly
Ġspeak er
Ġbar gain
ut ter
Ġse m
Ġfranc s
Ġt act
Ġmother s
Ġenv y
Ġl ament
Ġyour selves
Ġacc ess
Ġmir acle
I A
Ġc ash
ĠWil son
ĠM olly
Ġback s
Ġam bit
Ġsevere ly
Ġbow l
Ġnin et
Ġfier cely
id a
ĠW ater
Ġproceed ing
Ġr ay
iz es
Ġgri ev
Ġshru gged
Ġcon ceive
ol ved
Ġav o
ad el
Ġn erve
Ġwh ither
Ġwhist le
Ġt une
Ġthresh old
ight ed
Ġwitness es
Ġwh it
Ġprepar ation
ĠK night
al m
ar c
Ġsm iles
ĠGre g
el ine
Ġcons pir
Ġcompass ion
2 0
Ġhard er
ber ry
Ġs aint
ing ham
Ġcheer fully
b by
ĠD ra
ĠDiv ine
ĠCaliforn ia
Ġopen ly
Ġcol ors
Ġgl ancing
Ġcon j
ĠR ock
ĠRob in
Ġpolic eman
Ġpleas ing
Ġaddress ing
Ġcol on
Ġattract ive
ĠB as
Ġn ic
ch n
Ġperman ent
at isf
Ġcons ented
Ġscre en
Ġj ail
Ġprosper ity
Ġman ager
on er
Ġrid ge
Ġwhere in
Ġsitu ated
b ably
Ġa h
Ġname ly
Ġpro long
ĠPet ers
Ġtempt ed
for th
c ent
EL L
Ġbund le
Ġterr itory
Ġpreced ing
Ġpen ny
Ġb order
F ather
Ġdiscipl ine
is ation
Ġb ite
ight y
Ġha ught
Ġharm ony
Ġdisci ples
Ġ18 5
omm od
au x
Ġhurried ly
Ġpersu ade
ĠF re
Ġconf irmed
gr im
Ġha ired
Ġre ass
Ġparl our
Ġcr is
Ġse ize
Ġse al
Ġcor pse
here nt
Ġins c
Ġacknow ledge
Ġconn ect
Ġdiamond s
d ig
Ġs aints
or al
Ġavo ided
Ġpl ane
ĠCol umb
Ġm oss
Ġshe er
Ġd ine
Ġdepart ment
Ġrele ased
Ġn ay
Ġstick s
Ġe tern
Ġshore s
s is
ad or
ĠL amb
Ġencour aged
Ġtrans fer
Ġsurround ing
so ever
Ġkeep er
orn ey
Ġlif ting
Ġtemper ature
Ġex ternal
Ġbewild ered
Al though
ĠK n
ar ian
Ġinv al
ow l
L ittle
Ġde gr
ĠD ur
ĠAn gel
ĠLe on
Ġcommon ly
Ġir re
c ourse
ig s
Ġpass ages
sh ips
Ġaw hile
1 9
ĠR ich
Ġcompl ain
ĠM abel
Ġjust ified
Ġchild ish
Ġsuspic ious
Ġsou p
Ġen velope
Ġdis hes
Ġlux ury
Ġf ant
Ġamaz ed
Ġfright ful
Ġmaterial s
Ġtheir s
Ġbare ly
in th
g ers
ĠSc ript
Ġed itor
ur st
re ne
ĠA sh
Ġhaunt ed
Ġconqu ered
H ence
Ġcritic ism
Ġdeliber ately
ĠR abbit
Ġread ers
Ġpl ac
w l
Ġof t
ĠFeb ruary
Ġp ave
Ġnew ly
Ġswall owed
ri end
Ġadmir able
Ġdismiss ed
ĠC art
reg ular
Ġl av
Ġprom ises
in er
Ġab ode
Ġte am
D r
W hich
Ġatt ained
Ġdoub ted
Ġhelp ing
Ġfl owing
ĠI V
ĠX X
ĠB re
Ġscre am
Ġr at
Ġse am
ĠSch ool
Ġarr ow
Ã ±
Ġy o
Ġ18 4
Ġg amb
Ġr ows
Ġbe ef
un s
ĠH arr
ĠEd ith
Ġlord ship
ri ages
Ġd usk
Ġset s
Ġvig or
un ks
â ĸ
Ġsa uce
b l
Ġliqu id
Ġf ug
Ġrecomm end
Ġfrank ly
che on
Ġse lect
Ġsh ri
Ġdaz z
ĠR E
ĠAlex ander
Ġgr asped
Ġpot atoes
Ġfor s
Ġdes erved
Ġremem br
Ġbitter ness
Ġvers es
ab ri
Ġinst ances
ĠL o
A IN
ount ered
Ġac id
Ġrest ore
ĠS id
Ġprodu ction
Ġemb race
M en
Ġvig orous
Ġjud ged
Ġdream ing
Ġstir ring
ĠEmp ire
ĠS ant
Ġ18 7
Ġm onsieur
Ġas ks
Ġwill ingly
cei ving
Ġuncomfort able
Ġtr amp
Ġreve rence
Ġenc ountered
Ġp ony
in i
Ġcruel ty
Ġha ul
ĠSar ah
Ġra pt
Ġprop riet
O D
ens ions
Ġsub du
Ġimper fect
Ġbr ows
Ġcor ps
ĠSim on
ament al
ĠConf eder
ĠEls ie
Ġj er
Ġind ef
Ġneed le
ress ing
Ġdre ary
m ie
Ġs ack
ĠV alley
P l
v y
ac ific
ung le
qu ar
Ġoff ended
ĠC y
Ġaw fully
Ġear liest
Ġdemon str
Ġbo iled
A y
Ġth umb
T w
ĠD uring
Ġen light
Ġadv ise
Ġencoun ter
Ġdecl ined
Ġdis like
Ġro ared
Ġfle e
Ġbe f
ĠJapan ese
Ġv ital
Ġproceed ings
Ġfill ing
Ġimp uls
Ġrecogn ition
Ġcour ts
Ġsignific ance
ec il
ĠC HAPTER
Ġconc ert
Ġmach inery
Ġhost ile
ĠSha kespeare
F r
ĠScot ch
Ġcanv as
Ġche ese
Ġsa ils
_ ;
ĠSpani ards
Ġblood y
Ġst amp
Ġconv ent
Ã ´
OU R
he art
Ġver d
Ġbr ook
g ic
Ġcompl iment
Ġam ple
Ġcommand s
ĠDig it
Ġbo ot
Ġcomm it
ec hes
Ġres olute
Ġafford ed
Ġr aw
ial s
rib e
Ġshrew d
ĠB u
C ould
C har
Ġacc um
Ġcrit ical
Ġsn ake
Ġspo il
Ġmelt ed
ĠB urn
Ġjud ges
ĠT y
Ġbr and
Ġwel com
Ġexist ing
Ġoccup y
C a
Ġc ub
Ġkn elt
Ġspect acle
S c
A d
Ġtr acks
A K
er ving
Ġprop osal
ĠD ave
Ġneed n
Ġtem p
ad em
Ġ \
ĠH y
ĠThe e
Ġrob bed
Ġb ough
ĠChristian ity
Ġhol iday
_ ."
Ġpers isted
Ġclim ate
Ġlect ure
Ġincl uded
Ġspeed ily
Ġpo ets
Ġstrict ly
ĠL ev
ÅĮÄĨ Ã
Ġvo c
e ers
Ġbar on
Ġterr ified
Ġfrag ments
Ġv ib
E n
S id
Ġtum ult
Ġpl acing
Ġcont est
Ġstud ents
ogra phy
Ġheart y
z es
Ġgrav ity
ĠC ON
f old
k ers
Ġdra ught
ane ous
z an
in ine
Ġpun ished
al ty
Ġeager ness
ol ves
Ġresour ces
âĸ ł
Ġobserv ations
um mer
Ġexchan ged
ge red
Ġown ers
ĠGe org
Ġsword s
Ġtempor ary
cher s
Ġcons pic
Ġpurs ue
Ġshop s
ĠAn na
ĠBr other
Ġg n
Ġpe ep
Ġsu ited
Ġtrous ers
ĠA T
Ġexp ert
ĠIs abel
r ating
ĠC ard
pl ain
Ġir regular
Ġtender ly
ĠMin ister
Ġsk ies
Ġb orr
Ġsp here
ĠN ick
A P
Ġfier y
y es
Ġvar ied
Ġf ert
es ar
Ġring ing
ĠCl ara
AN T
is er
Ġpres ident
Ġf itting
S urely
ĠS and
ĠO ri
Ġarg uments
Ġp atch
Ġlad s
ĠO ver
i ations
f are
Ġb unch
Ġw oo
os itions
a ired
Ġe c
Ġchief s
I E
ĠH ans
Ġfortun es
Ġw ool
bre ak
Ġfurn ish
ha ble
us al
Ġcaut iously
g a
u v
Ġcommer cial
Ġremain der
ĠMexic o
Ġcomm ittee
Ġflo ated
il ess
ĠRom ans
ĠD E
Ġmead ow
Ġm ak
ass es
M ary
Ġshr ill
all ing
Ġobv iously
Ġwret ch
Ġgoss ip
O V
Ġnow here
Ġprot ected
Ġsha red
Ġunc on
Ġprof essor
Ġr abbit
Ġcustom s
r ates
ĠS ay
Ġpain ter
Ġham mer
Ġimmort al
Ġv ault
Ġser geant
Ġmeas ured
ĠHer bert
Ġmed ium
Ġpro sec
Ġw ont
Ġenjoy ing
Ġm athe
Ġpure ly
Ġbr on
Ġt a
op s
Ġbill s
ĠSt an
Ġdoct ors
ĠChar lie
ĠS pring
Ġemb ro
ĠGree ks
ere rs
Ġnob les
Ġsent iments
Ġsuspic ions
Ġprev ailed
Ġsurpr ising
Ġl amps
ĠW hether
G reat
Ġs orr
Ġhurry ing
Ġpenc il
ĠHen ri
ag an
ne ath
ĠB ig
Ġball s
Ġro be
Ġexec uted
Ġlandsc ape
ĠSw ed
Ġcult ure
Ġtal ent
Ġp ious
Ġgri p
ĠCount ess
Ġclergy man
ett le
Ġc age
at a
F in
Ġind isp
ĠA L
ĠP art
Ġsym pt
Ġre lease
ĠChic ago
ĠW y
Ġcere mon
Ġme ek
ĠMir iam
Ġr aces
Ġsurround ings
ert on
ut or
Ġv ener
ire ct
ĠF e
Ġple aded
Ġdesp ite
0 3
e qu
Ġinv ention
ĠS pe
g ro
Ġt ip
ĠS k
ĠH ot
Ġstat ue
Ġappreci ate
Ġs her
Ġrecord s
ĠC ro
Ġess ence
Ġex ult
w art
Ġperpet ual
ĠL ion
Ġal ert
Ġspr ings
hed ral
Ġpret t
ell ow
usc ript
Ġform id
ĠE ug
Every thing
Ġacc ommod
Ġsub l
Ġmag az
O P
ĠG ib
Ġpil ot
Ġfount ain
Ġunw illing
Ġsp ots
Ġper ish
ĠUn ivers
Ġj ar
Ġmarvell ous
Ġf ul
it ations
ĠP ur
ĠA pp
Ġb apt
Ġdism ay
Ġcur sed
Ġr ises
Ġhy mn
ĠAb raham
Ġb ol
h or
Ġv ap
Ġwh irl
Ġintrodu ction
Ġcalcul ated
Ġacc us
Ġsw inging
r ained
Ġv ary
ĠD iana
Ġindepend ence
Ġcris is
Ġtreas ures
ĠR ef
Ġjour nal
Ġconsider ably
asp ing
Ġprop het
m aid
Ġannoy ed
Ġawa iting
Ġfatig ue
ĠS ally
Ġw an
Ġsh ill
Ġunnecess ary
ĠDigit ized
Ġfl u
Ġst ately
Ġglo ves
ur able
Ġapprehens ion
r ons
b urn
ĠB ull
ĠDuc hess
ĠOx ford
r ice
le ction
Ġg ames
Ġqu aint
sm ith
w hy
Ġthank ful
ĠC arr
Ġgrow led
Ġmin isters
Ġvill ain
Ġpro dig
Ġbig ger
d ale
Ġtight ly
qu es
Ġwealth y
Qu ite
Ġc ush
Ġerr and
Ġcold ly
ĠH a
Ġsubst ant
Ġfun ction
o k
Ġdisc ont
Ġsur geon
ĠCl ub
g age
Ġprim itive
Ġve ins
e z
Ġinvol unt
Ġpor ter
Ġw ist
Ġsc ared
N one
Ġtr am
Ġint ol
Ġinter course
Ġqu art
Ġperson ally
Ġg arrison
Ġsmall est
ĠM ist
Ġconst ruction
pl om
ĠC ow
Ġthreat ening
ĠP re
Ġvis iting
Ġgener ations
ĠX V
IT H
Ġover head
ĠGre y
K e
Ġtreat y
Ġd irt
Ġsuffer ings
Ġexha ust
u h
Ġunc ommon
Ġobsc ure
Ġst ained
Ġpictures que
Ġtelegra ph
d ie
Ġdesir able
Ġmus cles
Ġformid able
Ġor ange
Ġlod ge
Ġman uscript
Ġart illery
Ġc ove
Al as
ari ably
OU N
Ġc am
Ġh ired
ĠS el
ĠN av
Ġmanufact ure
un ities
Ġrel atives
ĠC ra
lf red
Ġrem orse
Ġperple x
Ġsc ant
Ġhast y
Ġid ol
Ġtr aces
Ġdest iny
Ġsweet ness
U M
Ġperson ality
Ġcook ing
Ġcourtes y
Ġpre acher
Ġbest owed
int end
Ġbod ily
Ġglit tering
Ġwas hing
Ġeleg ant
I AN
g ings
ie nd
Ġrock y
Ġtrick s
Ġwor sh
Ġs ire
Ġdr unken
Ġinvestig ation
Ġinher it
W ait
ink ling
ĠBarb ara
Ġrep air
r ain
ĠD am
Ġstud ying
Ġcomb ination
Ġsp y
H as
Ġdeal ing
ĠAtl antic
Ġimpro ved
ind a
ut ive
we et
an or
cept ible
Ġres erved
Ġeye br
Ġgroan ed
ĠProv idence
Ġdeem ed
Ġback ground
Ġagre ement
Ġli ken
h ind
Ġcultiv ated
Ġp ushing
Ġcha ins
ĠMid dle
! âĢĶ
Ġam iable
Ġins piration
Ġjack et
Ġdisp ute
Ġgrin ned
Ġshe ets
Ġcr imes
g n
m ble
ĠL ORD
Ġher oes
Ġdisgu ise
Ġawa ited
Ġeffect ive
w ater
Ġr asc
ĠAd mir
O C
Ġorgan ization
Ġconvey ed
Ġwind ing
ific ations
ĠB art
Ġsh ocked
* '
S ure
Ġdo st
Ġspe cially
Ġprom inent
Ġb ased
Ġass ass
m ark
Ġter min
Ġpar allel
Ġke ys
Ġric hes
Ġjew el
Ġremembr ance
Ġinst ruction
Ġcre ep
Ne ither
Ġsn atched
Ġc ows
Ġap ost
Ġliber al
Ġdeterm ine
ĠWith out
Ġs its
Ġst ooped
b orough
le g
ĠI S
Ġliter ally
ĠM AR
Ġhapp ier
ĠJ on
Ġcons olation
Ġinv ariably
ind le
Ġno d
Ġinv ented
Ġobser ving
Ġgri e
ret ion
Ġdre aded
Ġpol ished
Ġtw ist
Ġyouth ful
Ġsav ages
ĠR achel
urre ction
Ġloud er
ĠH ay
ri pp
Ġfin an
Ġdesc ent
Ġstr ained
Ġvict ims
P lease
Ġdr ift
Ġhed ge
Ġm ask
Ġsh rie
Ġbr andy
Ġsw ing
Ġrem edy
Ġbrief ly
Ġtor rent
Ġere cted
Ġy awn
Ġag itated
Ġtem ples
ĠAlex and
Ġpl ates
ĠCan ad
Ġs han
Ġf ist
Ġmon str
i ary
f it
Ġlod ging
i ac
Ġundert ake
og y
b all
Ġdes olate
Ġcommer ce
Ġcomp osition
Ġl ined
I X
l ings
ĠSat an
Ġincred ible
erv ation
Ġcor por
M other
ĠRev olution
Ġc ens
Ġdis d
Ġincap able
Ġcle aring
he ard
ell o
Ġcomplex ion
Ġbre ed
ĠS omething
Ġret ained
ha b
Ġcand les
Ġpup ils
Ġexpect ation
ĠT own
ĠP enny
ld er
Ġse eds
Ġsqu ad
Ġwitness ed
Ġbl ade
ĠSax on
ĠCh ild
ot ing
ĠG et
Ġgreat ness
Ġl ent
ĠM em
Ġshill ings
Ġgig antic
Ġopp on
quar ters
Ġvague ly
ĠSqu are
o ked
Ġcr ash
oc he
f oot
Ġdiv ide
ob b
Ġdress es
Ġcon ject
Ġaw aken
Ġintrodu ce
ĠT ay
Ġrecord ed
Ġhero ic
udd ing
Ġofficial s
ĠConst itution
Ġdis order
ĠLou ise
Ġancest ors
Ġpath s
u ation
ĠN ational
Ġremember ing
Ġh oof
O ver
har ine
Ġen lar
Ġpick ing
oo s
be ar
v ial
Ġcont rived
.. ."
Ġpatter n
ir on
Ġtre ad
az ar
Ġforbid den
Ġth ie
Ġarr ows
ĠG en
ĠK itty
Ġdw arf
Ġshout s
ul ously
ĠP ass
Ġchar ms
Ġreve al
Ġimprove ment
Ġtravell er
Ġun seen
Ġbehav iour
Ġsubdu ed
Ġl y
ĠAnt on
Ġcar ved
Ġadminist ration
Ġgr an
Ġmoder ate
ic it
Ġexam ining
Ġs hat
in et
Ġstrong est
Ġclim bing
ĠÂ £
ĠA mb
Ġcolumn s
Ġt ions
ĠTur k
Ġwho les
Ġstill ness
Ġright ly
Ġfl av
Ġtom orrow
d ened
Ġdi plom
o cc
ke ys
Ġcrown ed
Ġrag ged
Ġsur m
Ġinj ust
ĠW ere
Ġwip ed
Ġstart ling
Ġang le
ĠH art
ron ic
ro v
Ġwork ers
ĠM oon
Ġca vern
Ġincl ination
Ġcl er
Ġlord s
Ġband s
Ġw its
ĠB ook
ĠM Y
Ġthere in
T om
Ġdam ned
Ġth orn
Ġexcl amation
ĠDe ar
ĠDou gl
Ġhe m
Ġhes itate
Ġco in
Ġdr own
th ony
Ġser ving
en ote
ast y
Ġec st
Ġl am
Ġbl iss
i pl
Ġsun ny
Ġgl ances
iet ies
Ġsus pended
Ġclot hed
ĠS ur
What ever
Ġdisc ourse
ĠP acific
Ġthr ill
Ġm un
Ġele cted
ĠB ruce
ĠJ e
ĠA ct
ĠJul ia
Ġrev iew
che ster
Ġfault s
Ġteacher s
Ġpar lor
v ant
Ġthy self
Ġesc ort
le m
Ġapp les
Ġforget ting
Ġpr ime
Ġmad ame
Ġr osy
ĠG w
Sid enote
Ġd ash
Ġbeha ved
Ġengine er
Ġt ents
Ġgl ac
G e
ĠMad emoiselle
Ġo l
om on
ĠH ur
ĠC OM
Ġax e
Ġlat est
Ġimpress ions
Ġhistor ical
Ġhunt ed
Ġliqu or
I P
Ġdeal t
ĠG ra
Ġbeg gar
Ġinfinite ly
Ġwonder fully
IF E
Ġsus p
Ġc ats
ĠFr iday
Ġaddition al
Ġbatt les
Ġtele gram
Ġref er
Ġpartic ulars
ang ing
Ġcost ume
Ġprov ision
Ġmour ning
Ġemer ged
Ġve x
ĠPres ently
Ġcommand ing
Ġda res
Ġp ad
Ġaffect ions
Ġhe ars
ĠF itz
Ġsh oe
Ġdep rived
Ġthir teen
Ġgod dess
Ġblank et
Ġgro ve
ĠD u
ĠC hat
ist ics
ĠJ oy
ĠCar l
Ġincon ven
Ġbeaut ifully
ĠComm ission
ĠAd ams
Ġyoung est
Ġus es
Ġha ts
Ġpleas antly
Ġcommun ic
ĠHoll and
Ġc ooked
ic ide
Ġgreet ing
ĠC ecil
Ġexc iting
Ġrequ ested
Ġmans ion
Ġm irth
Ġch orus
Ġpres ume
Ġ18 9
Ġtrem ble
Ġident ity
Ġliken ess
Ġcorrespond ence
iet h
Ġ18 8
ĠT ad
Ġinc ons
ĠEgypt ian
Ġbar rel
ĠIs a
ĠAust ral
Ġfulf il
Ġreason ing
Ġassoci ated
Ġrelie ve
th y
Ġfl owed
ers ed
Ġrep ublic
ĠFrancis co
Ġequ ip
E d
Ġwar rant
atch ing
Ġwarri or
Ġinjust ice
Ġv it
en ched
ell ed
Ġhe n
lot te
Ġcour te
Ġpra ir
Ġdam n
Ġorigin ally
Ġhar vest
Ġirres ist
Ġpan ic
Ġpurcha sed
Ġamid st
it o
ĠThe od
Ġpe op
ĠB ess
Ġintent ions
ipp er
if ies
Ġcomr ade
Ġartific ial
Ġm ule
ĠBe at
Ġunw orthy
ĠN ancy
Ġsqu ee
Ġconstru cted
ut able
ĠA st
Ġsu ng
ĠW ard
Ġc el
Ġun ity
ci le
Ġinst itution
re c
Ġhorn s
Ġcomm ence
Ġabund ance
ĠG ent
Ġphenomen a
Ġj ungle
Ġve hic
Ġp ouring
Ġro aring
r an
ĠAs ia
ĠD oes
Ġsl umber
Ġass isted
Ġwond ers
Ġg hast
l ves
Ġsie ge
it ably
ĠE ver
Ġmechan ical
mb re
Ġfool s
Ġdil ig
Ġsc old
Ġsk ull
J ack
Ġbe am
Ġre vere
Ġcondem n
L D
Ġdoc ument
Ġte chn
R em
Ġst amped
ĠEm ma
Ġin cess
ult ies
I m
Ġdart ed
ĠH ope
Ġsymb ol
ĠP enn
Ġgu ided
Ġto ols
ord on
Ġt lie
Ġdepend ed
Ġant iqu
Ġswe eping
Fin ally
ĠAb out
Ġassert ed
ĠJ ove
Ġpe pper
ane ously
AR D
Ġstr ife
Ġhar bour
ĠE p
ĠL es
ĠE nd
ou st
Ġguard ian
Tr ue
ĠG raham
Ġhospit ality
il ful
Ġthere of
Ġwa iter
Ġinse cts
Ġb ud
Ġcompre hens
Ġrevel ation
, )
Ġfront ier
Ġshr ub
Ġcontin ent
Ġreturn s
Ġr ice
U p
ĠW ed
Ġvalley s
Ġdefe ated
Ġgr unt
ĠS urely
ĠSt ar
Ġpati ently
Ġbag s
in ement
Ġart istic
Ġbar ren
Ġproble ms
Ġt rop
ĠB E
Ġcons ol
ĠFred erick
Ġspread ing
Ġendeav our
Ġeyebr ows
ĠCa esar
ĠP R
Ġresemb lance
Ġmonstr ous
H al
ar ly
Ġlow est
ound ing
ĠCl are
Ġcu ps
Ġchan nel
ain ty
Ġexp enses
Ġinstit utions
c us
Ġlun cheon
ĠU p
Ġsk ins
Ġdef ense
Ġad vers
ĠH ome
ĠNor man
ick er
Ġbid ding
Ġdign ified
Ġneg ot
M an
Ġsqu ire
Ġexpress ions
ĠN orthern
Ġp hant
Ġcon greg
ici ency
2 5
Ġme als
Ġtid ings
May be
ck er
Ġcomfort ably
Ġg oose
Ġsepar ation
Ġlad en
ost er
Ġendeav oured
Ġblaz ing
w ed
Ġp i
Ġv ag
Ġgl are
Ġfac ulty
Ġf ret
Ġacc ent
Ġpres c
Ġworld ly
Ġdiff er
Ġexhib ited
Ġext ensive
Ġd uc
ason able
Ġg ale
Ġdr um
ey ond
j ac
Ġext ract
Ġcompl aint
Ġow ed
Ġfem inine
Ġindign ant
Ġun in
Ġp iled
Ġling ered
Ġp ump
Ġl emon
ĠHar old
Ġde ceive
OO K
Ġmar ching
ĠIn st
Ġsle eve
Ġimp ert
ann ah
ag ne
Ġspl it
E W
ĠSt u
im ately
g ency
Ġexper iments
Ġn our
ĠBl ue
Ġbr u
ĠI ll
Ġlaz y
Ġcomp rom
Ġwide ly
Ġfl ashing
Ġpear ls
Ġhouse keeper
Ġass igned
ĠMart ha
Ġassemb ly
Ġg ross
Ġran ch
l ace
p en
Ġghast ly
Ġp arson
Ġbonn et
Ġhun ters
ĠMar quis
ĠL ew
oy d
Ġser mon
Ġjoy ous
u cc
Ġauth ors
ci ble
Ġbott les
Ġb ows
et ic
Ġwere n
ĠL ib
Ġcryst al
Ġcliff s
Ġhe el
Ġro ast
Ġpave ment
c a
Ġad jo
Ġcal am
Ġpup il
Ġser pent
Ġmin es
Ġrepl aced
m ar
Ġcord ial
Ca ptain
ĠHe ad
HA T
Ġgl or
Ġsc ul
Ġcho ked
Ġrejo ice
oun cing
ĠBern ard
Ġste ward
g ence
Ġr ug
Ġab ol
Ġmeet ings
Ġfashion able
Ġdram atic
Ġsevent een
on str
ĠC ab
Ġappe aled
Ġrepresent ative
Ġdr ifted
ĠF aith
Ġbe ck
Ġst ake
Ġcare lessly
ĠAl m
ĠW H
Ġpr ow
Ġfe eding
ĠSyl via
ĠĠĠĠ ĠĠĠĠ
Ġwarm ly
Ġrul ed
ĠFrench man
ĠV ic
Ġbul k
d id
Ġc ough
Ġconv uls
Ġblaz e
Ġcl inging
Al so
Ġabund ant
Ġscul pt
hing s
Ġprob ability
ha ve
Ġp aces
Ġpo ems
ind ing
Ġrad iant
b el
Ġl il
ur t
Ġappro val
Ġnav ig
ĠBe aut
Ġper ception
Ġd ies
ur ally
Ġse aled
ĠPl ace
Ġr ash
Ġc ul
ĠS erv
Ġear ned
Ġregular ly
as se
st ri
ĠE N
ĠMorr is
nt il
ĠS oon
Ġper se
Ġsl ay
AS T
Ġind icate
g one
Ġl ung
Ġspe eches
Ġsp ake
urn ed
Ġey el
ĠBr and
ĠConst ant
_ ,"
r idge
Ġdo om
ON D
Ġp int
Ġgle aming
Ġmagist rate
Ġconspic uous
Ġb omb
Ġb acked
Ġbene vol
Ġgrim ly
Ġfulf illed
t ime
Ġdes igned
Ġeven ings
od d
Ġf oes
Ġstern ly
ĠMor gan
Ġsl im
Ġvac ant
W ere
Ġju ice
ĠWh it
Ġsw orn
ĠBel g
um erable
Ġconv ince
Ġmouth s
ish ly
Ġfl ush
Ġm ol
Ġrespect ed
ur ation
r ot
il ton
b ot
Ġpay ment
s pect
ĠM AN
Ġk in
Ġsur p
ĠAl though
ĠE li
urs day
o ft
Ġgl obe
Ġeffect ed
Ġopport unities
C ha
Ġcompl ained
ĠSam uel
ri ety
n est
Ġst alk
Ġc reek
Ġj aw
s ar
Ġbreath less
, _
W hether
Ġt ren
Ġt i
om y
Ġmyster ies
Ġshall ow
ret t
Ġdecided ly
Ġdeep est
ipp i
ĠR a
or ks
ĠH ell
AL L
ĠL ow
ov itch
Ġtrans m
ra h
ast e
iv ities
Ġbond s
Ġt ack
am in
Ġcrowd s
Ġt u
Ġquar re
ĠB udd
Ġreject ed
Ġsignific ant
Ġtravell ers
Ġmem or
arr ow
Ġw reat
ra ft
Ġascend ed
Ġdra gon
ĠH an
Ġch oo
Ġhorse back
Ġappe aring
ic o
Ġim ages
ĠR oss
Ġmis under
Ġeloqu ence
ist ory
ine as
Ġor chard
Ġres ort
Ġblank ets
Ġhy ster
Ġp ert
Ġh ood
ĠBar n
Ġw olves
Ġexcl aim
Ġso b
Ġhand ful
Ġste aling
Ġcol onies
Ġch icken
Ġpre ach
Ġwe ighed
Ġtong ues
Ġtow ers
Ġsa ith
Ġun acc
ar ming
Ġr uff
ra wn
Ġtot ally
Ġdism al
Ġf uss
Ġh ook
Ġend ured
u z
Ġlim b
ĠP ot
p han
Ġprovin ces
Ġcoff in
IG HT
ĠG host
and ed
ĠP oint
ĠSt and
Ġdesper ately
Ġmerchant s
Ġbr im
Ġhonour able
b ec
Ġproc ure
ĠM ah
Ġsh ower
Ġcre ate
r ise
Ġjust ly
Ġsymp athetic
Ġentertain ment
Ġresent ment
r ations
ĠJew ish
Ġshudd ered
Ġswall ow
Ġfac ulties
g ot
R Y
Ġtr act
Th ink
i age
ph ia
Ġhang ed
O G
Ġrepe ating
ra g
Ġbab ies
Ġcar ries
Ġhost ess
Ġg it
Ġstret ching
Ġcontrad ict
Ġwelcom ed
âĢĶ âĢĶ"
ĠU N
Ġc akes
Ġent r
Ġchan ced
ey s
Ġdef in
Ġembr aced
ĠPr ay
on i
Ġspr ung
Ġinfant ry
it ched
itt ered
Ġrem onstr
Ġkn ot
Ġvol umes
ĠAnn ie
ĠEvery thing
ĠHe b
an ke
Ġv ow
Ġtra gic
Ġwin ning
Ġsubsequ ent
Ġstr ings
Ġwork men
Ġmon key
Ġread iness
Ġdown ward
Pe ople
Ġfact ory
r as
ĠAm ong
ĠH ug
Ġelabor ate
Ġast ron
Ġdam age
Ġreal ised
ĠB right
lf are
Ġoutl ine
ĠGreg ory
Ġref resh
Ġpur ity
ĠAg nes
ĠHot el
am med
ĠAn thony
Ġv on
Ġprejud ice
L isten
Ġins ens
Ġdesp ised
ett a
il ian
Ġex ting
Ġappro ved
Ġassoci ation
_ )
Ġqu ivering
Ġrel ate
Ġad ver
ĠD is
Ġconsult ed
Ġo ars
Ġswim ming
Ġman agement
ĠR ow
Ġshudd er
ĠRich mond
Ġr ack
ff ic
Ġrejo iced
Ġexerc ised
y our
ert ed
Ġse qu
Ġbe fall
Ġever l
Ġattend ant
, [
ĠT est
Ġsn iff
ĠProtest ant
Ġo ven
av ia
ĠAl bert
Ġcre eping
Ġpo nder
Ġchar ges
Ġprodu cing
Ġw rest
Ġfr ing
Ġrough ly
Ġex al
Ġcas ual
ĠPet e
Ġinn umerable
ĠA M
Ġbrave ly
Ġd ainty
Ġr ipp
Ġreck less
Ġcir cles
b ishop
Ġj aws
ĠPr uss
un ci
Ġfa iling
Ġapart ments
are rs
Ġrebell ion
is ons
ĠN obody
Ġsl id
g re
Ġv ale
ĠNe ither
Â »
Ġsad ness
Ġr ational
ĠMc C
Ġform ation
Ġag ents
Ġ18 3
Ġy ach
Ġsubm itted
Ġswe at
ĠHor ace
Ġoper a
Â ¬
Ġtemp est
A G
Ġl amb
ĠL l
Ġsleep y
Ġjoy s
ĠA my
Ġk icked
Ġso ci
vers ed
Ġunconscious ly
ĠRo ad
Ġshe lf
ĠT ower
Ġcha nt
Ġbo red
Ġard ent
ĠD al
Ġ2 1
Ġv ile
Ġpray ing
Ġvol can
Ġheight s
Ġf ab
Ġbrut al
Ġw aking
Ġcoll e
C ol
Ġst amm
Ġobject ed
Ġe jac
Ġwe lfare
Ġint ently
Ġstag gered
Ġbut ler
Ġbas in
Ġattack s
Ġid iot
Ġdraw er
Ġconqu est
Ġfavour able
Ġpos itions
ĠS ign
Ġscr ut
Ġdr ama
Ġwis er
use um
Ġwr ist
ĠChar lotte
ĠSol omon
Ġdust y
Ġ' *
ĠE astern
app y
ĠO t
is ive
Ġhyp ocr
G l
" _
Ġa u
ĠC ook
Ġghost s
Ġb oss
Ġsix th
Ġdev ils
Ġspect acles
Ġadv oc
ĠJ un
Ġdam sel
Ġse rene
f rom
Ġimp et
Ġstri kes
Ġsket ch
2 3
Ġcell s
b ell
s man
Ġm aj
am ble
ĠBe ar
Ġamb ass
ĠB ol
Ġp ulp
ile y
Ġins ign
Ġnot ions
ues day
e gr
Ġoff ers
2 4
Ġp add
el a
Ġass ented
Ġlady ship
Ġhonest ly
Ġdischar ge
lt on
Ġhur led
i ating
Ġmon k
Ġn ails
Ġtr aced
Ġmo ves
Ġend ing
Ġproud ly
Ġprom ising
Ġref res
Ġmarry ing
Ġhapp ening
Ġor g
Ġmach ines
Ġple ad
Ġburst ing
ĠOl iver
Ġetern ity
Ġexpl ore
Ġs am
Ġclose t
ĠM et
Ġsupp osing
Ġgar ment
Ġant agon
Ġsuccess fully
Ġappropri ate
qu er
Ġspark ling
Ġob li
Ġpar aly
Ġbelie ves
Ġaston ishing
ĠT or
Ġsc ound
Ġcon verted
Ġfo am
Ġunfortun ately
w ich
id ences
ĠA ven
. [
ĠT rist
Ġco inc
o il
Ġwrit ings
p ool
Ġdear ly
Ġpract ised
Ġwho ever
ĠMag gie
Ġimag in
ĠGree ce
Ġalong side
Ġout rage
Ġtr unks
Ġold est
Ġsupp ressed
L ong
ĠOff ice
Ġcon sec
Ġen velop
g us
ĠNe xt
ĠUnivers ity
Ġprud ent
Ġsh ots
Ġconf irm
ĠA th
Ġr ider
Ġfe aring
ro ken
Ġcast ing
Ġup wards
Ġkeen ly
im a
Ġpart ial
ang s
Ġcapt ive
S p
Ġst ab
ag ged
Ġem inent
Ġhigh way
ĠDe an
ĠT ro
Ġresol ve
Ġbirth day
Ġcivil ized
Ġtrave ling
Ġvic inity
Ġpeas ants
Ġassist ant
w en
ĠG ordon
ĠPort ug
I nt
S everal
m ont
Ġcomp ens
Ġst umbled
xt on
ag ers
Ġcompan ies
Ġsorr ows
Ġbl ush
Ġarri ving
pent er
Ġstamm ered
ĠF eder
ĠR es
us ively
Ġdid st
a ved
ĠMiss iss
Ġaccord ance
Ġnerv ously
ĠM us
ĠR ue
ĠS ix
Ġexam ples
Ġsuperior ity
ĠFair y
Ġhar ness
Ġlod gings
ĠOb j
Ã ¼
ener y
Ġrespect ing
ĠPal ace
Ġter race
ĠB ow
ig an
Ġd ined
ĠP ick
Ġexc urs
bur gh
i y
Ġacqu ire
ĠSav iour
ot hes
Ġac ute
Ġwhisper ing
ĠC ass
F ort
Ġdef iance
Ġchallen ge
Ġconf ron
Ġsqu ir
ĠDougl as
f ly
ĠW ay
Ġhead quarters
Ġbright ly
Ġborr owed
ĠGer ald
Ġqu oth
Ġto ast
Ġinc idents
Ġelder ly
Ġst em
Ġsha pes
Ġrep rodu
Ġstro de
ens ed
im er
ol ated
el p
Ġm ouse
Ġdiffere nces
ĠLy d
Ġdim ly
Ġper ished
Ġmain ly
S uppose
Ġre action
ĠA ra
ll e
Ġvirt uous
ĠTh ink
ĠOr le
Ġr ab
Ġpost s
Ġli able
Ġanticip ated
ĠE X
Ġadjo ining
Ġtr ot
ĠColl ege
m outh
ĠH aving
Ġfur iously
oub t
Ġdepend ent
Ġmathe mat
Ġev ils
Ġex ter
Ġexp ensive
ĠComm ittee
Ġrob es
Ġst ool
b es
Ġunk ind
Ġsust ained
ĠNe gro
P hil
Ġappar atus
Ġgo at
Ġopp ress
ĠT al
ĠAr nold
ĠBe ing
ĠSec ond
Ġtal ents
cept ions
Ġn ap
Ġlog s
ĠBl ake
ĠBr idge
Ġambit ious
Ġm os
Ġn a
Ġso bbed
Ġqu oted
Ġe man
ĠC atherine
Ġinv ite
Ġrub bing
THE R
v ous
Ġemp hat
ĠVen us
ĠVen ice
Ġbo ards
Ġsad d
Ġpra ised
Ġemphas is
Ġfa ire
g ive
Ġlock s
Ġstri p
Ġdesp ise
Ġnob ility
Ġorgan ized
ĠC raw
adel phia
o a
w ould
Ġpossess ions
Ġtemper ament
Ġjust ify
Ġposs ibilities
Ġsmo ked
Ġpub l
Ġpet ition
ĠH ence
Ġco ats
2 6
Ġdisc ern
ol and
Ġdist ressed
Ġty p
Ġcoo lly
Ġthie ves
P ut
EN D
Ġspo iled
Ġinter nal
e lf
Ġcontem por
ript ions
Ġal ien
Ġtrif ling
Ġfr owned
ĠL IFE
ĠMississ ippi
r ange
Ġp oo
l ine
Ġunder neath
Ġ <
Ġb ot
Ġpit ched
Mad ame
I ES
Ġa ught
Ġun qu
ĠO z
Ġest imate
Ġappl ause
Ġp ic
Ġfant astic
urd y
Ġun natural
ent ially
Ġinstru cted
Ġk ins
Ġdra gging
Ġr ipe
Ġsoot hing
ĠTh ursday
b ly
an o
Ġnin ety
Ġinha b
Ġharm less
Ġround ed
R ep
Ġd yn
Ġl id
Ġpar liament
Ġvig il
ĠL uke
Ġdisapp ro
Ġr opes
ĠC all
o ons
Ġst ubb
Ġsc rew
Ġfarm ers
Ġloo s
Ġmoment ary
Ġcustom ary
Ġaff irm
Ġtast es
ĠEst her
Ġve xed
y ers
ĠA R
ha ra
Ġext end
! ...
Ġag ric
ct ic
Ġse lling
Ġto oth
Ġres igned
les i
Ġli king
Ġsher iff
ĠJ asper
it he
Ġatt orney
Ġarm our
Ġt iger
R ob
Ġtr ades
Ġvis ions
Ġbreak s
ĠT ed
ĠMad am
ĠM ack
ĠW el
Ġsympt oms
ol is
5 0
w h
Ġpl uck
Ġimp osed
Ġmass ive
as ked
ĠB urg
Ġpun ct
Ġpet ty
Ġavail able
Ġenthusi astic
Ġtast ed
Ġattend ing
Ġdis li
Ġover th
im p
ĠB ry
Ġcl ue
Ġint ensity
E l
Ġc ert
Ġnut s
Ġembarrass ment
og s
ĠT ex
nes day
Ġbloss oms
Ġembarr assed
Ġdark ened
ĠWin ter
Ġtr ains
Ġsc ru
Ġqu er
Ġdelic acy
ĠFin ally
Ġlight er
Ġp omp
Ġstro ve
Ġt umbled
ĠB all
Ġcan e
id ly
Ġp athetic
Ġr aid
ĠG oo
Ġagric ult
Ġm ax
Ġbag gage
Ġsumm ons
Ġsp ed
Ġun int
Ġap ron
Ġbound s
Ġall owing
Ġt ro
" ,
int ed
Ġmaid s
Ġinterp osed
Ġl um
Ġanim ated
Ġe agle
Ġac res
Ġquant ities
id ity
oy s
l ig
al a
Ġpro hib
Ġcha mbers
Ġphenomen on
T e
ĠT en
ĠSh ould
i ents
ĠC reek
ps y
Ġdesir ous
Ġtick et
Ġnois y
ĠH erm
Ġrecomm ended
Ġhar mon
ĠD ora
Ġbl ocks
Ġpe ered
Ġfire place
Ġm are
Ġdisd ain
ĠDep artment
an i
rane an
ĠB ed
Ġf iend
Ġpant ing
Ġn aval
Ġg ird
Ġmer its
Ġref ined
ĠM eanwhile
Ġsal ary
ĠOrle ans
Ġout s
Ġshr ank
Ġsuper intend
ĠRe g
Ġult imate
Ġdec re
Ġg au
ĠPe ggy
l ay
Ġl onel
Ġcount ing
Ġphilosop h
Ġton ight
Ġm ute
un ately
Ġcontin uous
w est
Ġreal m
ĠBe au
Ġshad es
Ġattend ants
id dy
Ġin eff
Ġfavor able
ĠF urther
ĠPhil adelphia
Ġfr ail
Ġunf old
Ġman hood
Ġtra itor
ĠFr ances
in arily
Ġdef ined
ĠSqu ire
Ġprocl aimed
ĠCr ow
Ġrul er
ĠJ O
Ġarg ued
un ned
ĠIn stead
Ġw har
ub ert
ul ent
Ġr if
ĠFl or
ĠHol mes
ud ence
Ġdesign s
Ġman ly
Ġpati ents
O b
Ġb on
Ġr iot
ĠR am
Ġattempt ing
Ġspend ing
Ġhar bor
Ġext ending
ick ing
Ġexal ted
Ġprolong ed
ick ens
ĠF if
Ġcommun icate
Ġencour agement
c ol
Ġtrib ute
Ġtalk s
Ġsal oon
Ġdeliber ate
Ġre ver
Ġsa ge
Ġcr ust
Ġsev enth
Ġuneas iness
Ġmor ality
ĠChar ley
ick et
Ġcraw led
Ġu mbre
Ġprud ence
Ġd uly
Ġobt aining
Ġt ed
vers ion
el ity
Ġsent ences
ĠDan iel
ĠM erc
Ġrefle ctions
at hed
Ġpolite ly
z o
ĠP il
Ġinflu ences
Ġadapt ed
w oman
Ġb aff
ĠW ITH
Ġimp ass
t was
Ġwe ird
Ġterr ific
ste in
ĠCanad ian
Ġthe ories
Ġass ent
Ġf ren
Ġveget ables
ĠGold en
N ew
Ġhum ility
Ġcommun icated
Ġstock ings
Ġwear iness
ed ed
Ġab use
Ġsub ord
ĠAp ost
Ġrest aur
Ġrec ess
IN E
D own
Ġhere after
Ġwor m
Ġbur y
Ġan k
Ġfe eb
Ġste pping
b a
Ġport ions
Ġsu its
Ġtren ches
ĠN ay
ĠS oph
Ġun gr
Ġhel met
Ġsle e
ĠG abri
m und
Ġall iance
ant on
Ġneighbour ing
ic ular
Ġcour ty
t r
ĠS P
Ġbe ams
Ġbu zz
Ġmy th
Ã ¡
: âĢĶ
Ġchuck led
az e
Ġstubb orn
Ġt ies
Ġdiv or
Ġsw amp
Ġadver tis
Ġcr ad
Ġsubl ime
Ġh ounds
Ġintol erable
Ġsin cer
Ġprosper ous
Ġso bbing
ĠLaw rence
er ity
Ġdel ayed
on ia
ĠS abb
Ġtub e
Ġschol ars
Ġtrans form
Ġhaught y
ĠCl ay
ĠHal f
Ġdecl ine
Ġexplos ion
Ġsc out
ĠF ive
Ġsy ll
Ġbread th
Ġencour age
Ġcard inal
Ġpier ced
Ġsincer ity
Ġopp ressed
ĠF ield
Ġinto x
Ġdis reg
Ġdescend ing
Ġmission ary
Ġv iz
Ġbull ets
ĠB ird
Ġworld s
Be ing
Ġsw am
ĠComm ons
ĠGl en
ul us
Ġle aping
Ġacquaint ances
Ġga ily
ing ale
Ġsch oon
Ġspect ators
ra ph
H a
ra ged
Ġf iction
Ġt enth
Ġdread fully
Ġne ut
ĠO R
Ġproc ured
p ence
sh ire
Ġsend s
Ġn om
Ġover fl
Ġcomp are
Ġdecl aration
U E
Ġr im
Ġlog ical
Ġsh ove
Ġb olt
Ġdet ected
ĠIn n
Ġforg iven
Ġtun nel
Ġpro ves
Ġte aring
Ġeverl asting
Ġlo af
Ġpeculiar ly
Ġknock ing
Ġgrie ved
p ress
Ġs arc
Ġtr ay
Ġgener osity
Ġheat hen
Ġbeha ve
ĠR oy
ous ins
act or
p oonful
Ġor phan
Ġto es
Ġo mn
Ġto ken
Ġwest ward
v ent
Ġdisc retion
Ġshadow y
Ã ª
L ove
Ġundert aking
Ġsk irt
Ġra ft
Ġwha le
r ich
Ġ |
Ġdec ay
Ġsoft ened
Ġconcl ude
an th
Ġtroo p
Ġon ward
ĠD in
Ġst u
Ġfaith fully
Ġb i
Ġhes itating
ou g
Ġcons umed
ĠMatt hew
Ġshat tered
Ġbatter y
ĠBen j
Ġcur led
Ġsl ack
Ġtra ffic
Ġb ald
uls ion
und ered
ac r
Ġref usal
Ġmal ice
Ġsu icide
ĠT uesday
Ġpip es
Ġassert ion
Ġbr ushed
en ch
Ġint rig
Ġgo al
Ġimper ial
ĠIm per
ut t
ĠG irl
in qu
ĠSt one
Ġfalse hood
Ġneg ative
ĠGil bert
ic ism
m ates
Ġsm ote
Ġamaz ing
Ġcompl icated
ĠT err
! )
Ġener get
Ġsusp ense
Ġre el
ĠSen ate
Ġeloqu ent
Ġaven ue
Ġfanc ies
Ġcountry men
T S
Ġc rop
ĠH unt
Ġfore s
Ġdisp osal
cc a
Ġevent ually
Ġex ile
Ġtor ch
ustri ous
ĠHeb rew
Ġo y
Ġmead ows
S m
em en
Ġsl opes
Ġad vert
ĠFore st
Ġa er
ĠY anke
le igh
ur bed
ĠGl ad
Ġaw ait
Ġl ass
Ġlonel iness
Ġpl ough
ft en
ĠSo cial
ĠJim mie
ĠL is
Ġim itation
Ġdist rust
g ood
ren ched
Ġst if
Ġrib bon
Ġthe r
ĠH o
Ġstr ang
Ġl ump
iz ard
ĠV ol
Ġrag s
ĠI da
ĠA rist
Ġthem e
Ġhusband s
ĠLe g
Ġt ips
F l
ĠF ire
Ġdischar ged
urn ing
ĠLu ci
Ġart ists
Ġed ges
Ġyell ed
Ġsour ces
Ġrecei pt
Ġcar riages
Ġrecogn ise
ĠI ng
Ġcontin ual
Ġcap s
Ġs ly
Ġattract ion
Ġre nown
b ecause
Ġpl ague
lt ered
Ġwise ly
ĠL ily
pp ers
ab outs
ci ences
Ġappre hend
Ġquestion ing
Ġinqu is
U RE
Ġcaut ious
ĠB less
Ġgener als
Ġirresist ible
ĠC as
Ġstorm s
Ġautom ob
Ġdis ob
Ġbl ushed
Ġfinan cial
ad ays
Ġbl unt
ĠM ake
Ġkiss ing
Ġinspect ion
Ġab ide
Ġunexpected ly
Ġc ured
Ġk ettle
Ġwag ons
ĠV I
Ġex asper
Ġreb el
Ġkneel ing
Ġcommon place
Ġc ousins
Ġpl um
Ġapp oint
ov na
Ġnegro es
Ġm ic
Ġfort ress
L ast
Ġc ad
Ġste alth
Ġsole ly
Ġhar p
Ġpen it
Ġachie ved
Ġha il
Ġspecim en
omb re
ĠL ane
Ġre cl
Ġa pe
ĠR us
Ġ âĸł
Ġloyal ty
Ġl ame
Ġpr ices
Ġc able
Ġpe arl
Ġcr acked
Ġpain fully
Ġled ge
Ġt ails
Ġcur ve
Ġre appe
ĠCon n
p in
Ġdo omed
Ġhonest y
Ġfin er
Ġkiss es
! _
Ġbough s
G u
Ġsha bby
Ġsl aughter
Ġaccur ate
se x
Ġro bb
Ġgl ist
oth s
Ġprivile ges
v is
ĠAt t
ter y
Ġfol iage
L Y
Ġlung s
Ġt ough
Ġcr ooked
on ly
ĠC ousin
Ġpart ners
Ġappro ve
Ġann ual
Ġappreci ation
set t
ĠSabb ath
ĠE ric
âĢĶ âĢĶ
Ġarg ue
Ġnois eless
le ment
Ġrequ is
ĠK ings
Ġbright ness
udd led
Ġd ing
Ġutter ance
Ġlandl ady
Ġad just
Ġm ules
Ġunus ually
Ġwicked ness
ĠS E
Ġmis er
ĠR ad
Ġur ge
a way
ru ly
Ġintense ly
Ġpro gram
ĠMar ian
ĠMist ress
man n
Ġoccur rence
ĠKe ep
ĠAustri a
ĠU t
Ġhy d
le men
Ġsc enery
am an
Ġh ue
Ġnurs ery
Ġprel im
ĠM me
Ġcourty ard
Ġpig s
Ġn u
Ġprodu ct
Ġr ip
Ġcl aws
Ġinter ven
Ġsim ult
Ġpil grim
Ġingen ious
ĠN i
Ġpartic ip
Ġbron ze
ĠM ason
ĠA ccord
2 7
Ġdecl aring
on ge
Ġsubstant ial
ut y
Ġexpress ing
ĠL ang
ĠAdmir al
Ġdef ended
Ġdepos ited
Ġpro str
ĠPro p
ĠStu art
off rey
t ical
ĠIsland s
ĠH ud
Ġent ry
Ġeconom y
Ġno stri
ĠMar ion
Ġsha wl
au de
Ġremark ably
Ġorg ans
Ġqu itted
ass ing
Ġseem ingly
Ã ¶
Ġjump ing
Ġroof s
Ġwithd rawn
Ġverd ict
b ation
Ġwhere upon
Ġproof s
ar ious
Ġb ounded
Ġse lection
ile t
Ġup ro
Ġbright er
ĠC our
Ġinf am
oc ity
Ġop ens
Ġsc atter
Ġprodu ces
Ġsens ations
Ġw ider
ir s
Ġbra ce
Ġinval id
Ġb isc
ĠH ind
Ġfun ctions
Ġfal tered
Ġfold s
Ġre igned
ĠV inc
Ġsacrific ed
H N
Ġpre aching
Ġbu ying
ĠB Y
Ġy on
Ġdes erves
Ġbest ow
Ġstri pped
Ġad equ
Ġins ane
r ad
Ġunm ist
ĠB our
Ġreck oned
ve red
Ġinsign ific
pir ing
ĠF ord
izz ie
Ġinc or
Ġaf ar
Ġnostri ls
ĠP lease
Ġpit iful
Ġtreacher y
ĠSc ar
Ġattend ance
Ġover p
Ġpassion ately
Ġess entially
ĠP ost
ĠJan et
Hal f
ĠW alk
Ġgorge ous
Ġslee ves
Â £
enn es
Ġscr amb
Ġhe ated
Ġbeg ging
Ġsentiment al
Ġoff ensive
Ġgover ned
L a
Ġorn ament
ri v
Ġall eg
ĠAl b
Ġg y
n els
N obody
Ġsu nd
Ġpe er
P ray
Ġb om
ĠPar adise
Ġneat ly
_ !
Ġr iv
Ġse asons
Ġadm ission
Ġfright en
Ġar bit
Ġgot ten
Ġsk irts
Ġannounce ment
Ġrobb ers
ir a
Ġdiscuss ing
Ġecc lesi
Ġstorm y
ĠSil ver
Ġf i
ens on
Ġexc ite
Ġconcent rated
Ġtrump et
ĠM all
Ġmon ument
Ġpri or
ac iously
un ction
ĠN ell
Ġsc or
Ġ4 0
Ġsem i
Ġsp ur
go ing
ĠW ales
ĠN one
r ude
U D
Ġev olution
Ġbuff alo
Ġhel m
Ġeng ra
Ġattrib uted
Ġdest ination
id d
r ary
Ġinstinct ively
b orne
Ġbar rier
Ġrid den
Ġerr ors
worth y
Ġschol ar
Ġmon ks
Ġfore most
2 8
Ġle agues
ĠMexic an
Ġill ustrious
Ġtri vial
it imate
Ġperiod s
Ġoverwhel med
M uch
Ġb lend
Ġextrem ity
or ic
Ġexpl o
Ġphr ases
Ġprair ie
Ġexpl aining
ĠOh io
Ġsand y
ĠJust ice
Ġcher ished
Ġf uel
ĠA lfred
ĠSer geant
ĠSant a
Ġre aches
Ġcomp act
Ġfe ud
Ġtri als
el son
ĠN ik
Ġrapid ity
ĠR and
ĠAt hen
ĠB road
Ġsub sc
Ġwit hered
Sh ould
Ġl akes
Ġstud io
Ġsh ivered
Ġwhere by
Ġperple xed
p o
Ġg ospel
Ġspec ific
ĠP a
Ġcl enched
ent ric
In stead
âĢ ¢
Ġpen alty
Ġlaw yers
Ġrot ten
Ġl ugg
Ġveget able
ĠPe ace
ĠRem ember
ou ri
St op
Ġban quet
Ke ep
at ically
Ġhand led
Ġtransfer red
Ġl ou
Ġall ies
au gh
AC E
Ġre ins
Ġsever ity
Ġpled ge
Ġdev ote
Ch rist
d al
Ġham m
Ġspecim ens
b ons
m un
un ny
h s
ĠF ra
Ġannoy ance
Ġj ur
ĠT R
Ġl ions
ĠS ub
Ġf its
Ġfund amental
ĠH E
ĠT er
C ar
ĠWed nesday
ot ic
Ġchem ical
Ġfr antic
Ġnav y
Ġwh im
ro ft
ar ant
Ġal oft
ned y
T was
Ġco vers
T hanks
Ġout fit
.' '
Ġlight ing
Ġm oust
Ġse lves
Ġpre ached
m ans
ĠTay lor
Ġiv ory
Ġmourn ful
occ up
Ġobst inate
Ġwhir led
Ġrestr aint
ĠH un
Ġv ind
Ġcha l
v oc
Ġf t
ĠT ha
Ġst ing
Ġplun ge
Ġmant le
Ġbut cher
Ġpl aint
Ġspring ing
Ġshe ltered
ott o
ĠJu an
E m
th m
ĠAll ah
) ;
ĠD ub
iv able
Ġconf ounded
ĠWilli ams
Ġp iety
Ġconcern s
ĠB ad
Ġappear ances
Ġto y
Ġse izing
Ġintim acy
Ġt ame
Ġs cept
ut s
Ġso ap
Ġearnest ness
ĠF en
for ced
y on
Ġexting u
F our
Ġsuperst ition
Ġl umber
Ġnovel s
Ġyach t
ĠIsa ac
ĠJ ess
Ġch ronic
ĠFrank lin
f rey
ĠR ight
ĠNever theless
Ġback wards
Ġrec overy
Ġcat hedral
Re ally
Ġest ates
Ġrestr ain
Ġinhab ited
nt y
R ight
ĠSt ra
L ater
ĠAth os
Ġr aven
r at
Ġ 0
st ra
Ġd itch
ĠDav is
p oint
Ġdo d
Ġocc urs
Ġse cl
ord s
Ġcontempl ation
ĠCent ral
st ration
ĠR el
Ġadorn ed
ĠJ enn
Ġinf ern
Ġse wing
Ġvain ly
Ġgr otes
Ġwar fare
re hens
Ġbefore hand
Ġl ain
ne x
Ġmon aster
ĠS ister
Ġrest s
am is
Ġs ombre
um sy
You ng
ĠIn f
Ġtrave led
c raft
Ġt ense
ĠLew is
ĠD er
Ġfro ck
Ġc ripp
ject ion
yr am
Ġcabin et
in als
Ġgu id
fortun es
Ġunmist ak
Ġconf orm
Ġdig ging
mer ing
Ġdaz ed
ĠDev il
ĠAven ue
2 9
Ġt rench
Ġconf erence
Ġboard ing
ĠWhat ever
ĠâĢ ļ
Ġg ulf
P H
Ġemer gency
Ġsplend our
Ġinherit ance
ĠT hank
Ġtruth s
um er
Ġass ail
IT Y
Ġs ite
Ġha re
Ġch ival
Ġprev ail
Ġsuper natural
ĠCle m
Ġre ct
ro c
ogra pher
ĠS i
Ġble eding
ĠTest ament
Ġwaist coat
Ġstri ving
Ġhe aps
Ġdr ows
ĠFel ix
ĠGoo gle
Ġcon verse
Ġcharacter istics
Ġstro lled
Ġdisturb ance
Â °
ĠR h
u ate
ĠGod s
Ġur gent
at ches
Ġcha st
sw orth
ĠFar mer
Ġdistrict s
ĠB R
Ġj e
Ġrejo icing
l orn
Ġrep et
Ġpreced ed
Ġconsist ing
Ġdeb ts
Ġt ended
Ġflo at
ĠI d
Ġhast en
Ġcrou ched
Ġe ve
Ġinstinct s
r ants
Ġre verse
Ġsu lt
Ġgrand eur
Ġap ology
Ġred eem
Ġtransp arent
AR T
Ġshri ek
oll en
g iving
Ġg ild
Ġtables poonful
ic he
Ġwe ars
Ġling ering
4 0
ĠB ank
J im
u i
ĠJ em
Ġcr ush
Ġsubject ed
Ġsal uted
Ġstat ements
re rs
Ġfr aud
ĠRob inson
Ġoblig ation
Ġtem pered
ĠMon te
Ġsubm ar
ot he
Ġkn ives
Ġatt achment
ĠM ow
ĠTr uth
Ġt ab
Ġresemb led
Ġphilosopher s
Ġretreat ed
Ġorn aments
t ies
Ġbl uff
ĠT ri
ĠV iolet
Ġwhist ling
Ġrevol t
ĠImper ial
at on
Ġgard ener
Ġe th
Ġfortun ately
T ime
Ġt el
ĠTr ue
Ġst ain
Ġbes ie
Ġcontro lled
ĠJ en
Ġvener able
Ġat h
ĠP y
Ġlack ing
Ġpropriet or
Ġschoon er
Ġc ed
es cend
" âĢĶ
od ge
Ġcontin ues
Ġforg iveness
Ġpart ially
Ġbes ee
Ġcomfort ed
P ER
ion ed
ir y
Ġpro ver
Ġem ig
Ġca using
v o
Ġrep aired
Ġconcl usions
Ġsand s
B ER
Ġsy n
Ġproceed s
ĠS ing
Ġs ession
Ġty pes
Ġp ulse
Ġg ust
Ġmist akes
Ġobst in
Ġpenet rated
N at
Ġmusk et
Ġobst acle
th ought
Ġhus h
Ã «
Ġun aw
Ġcl umsy
Ġdo ings
Ġbre ach
Ġfasc inating
Ġmart yr
Ġp ines
ert ies
Ġd iet
Ġcirc ular
Ġpossess es
Ġforth with
Ġg aining
Ġorder ly
ĠAlm ighty
Ġd ial
ump ed
ĠHigh ness
Ġfl ank
Ġla un
Ġaf ore
Ġpurs uing
b ird
Ġt ire
Ġprospect s
U ST
h uman
Ġent ers
Ġdi am
Ġtail or
Ġbutt ons
ĠHud son
e au
Ġreal ise
Ġact or
Ġeng ines
Ġcost ly
P er
w a
Ġpass enger
Ġsound ing
ĠAll an
Ġreb u
adem y
Ġso bs
Ġrem n
Ġball oon
Ġdr ifting
Ġcha riot
Ġinterrupt ion
Ġg al
ure au
Ġscre aming
Ġ ]
os a
ĠCl ar
Ġsh ift
Ġadd s
Ġref using
art e
Ġgu arant
Ġdistrib uted
ĠCard inal
ag raph
Ġopp ose
w all
Ġwh ipped
H old
Ġpre cept
Ġsl op
Ġuncertain ty
Ġmonot on
medi ately
Ġsin ister
p an
ĠW he
Ġpl under
Ġhon oured
Ġrighteous ness
ot ha
up iter
Ġbloss om
Ġf ath
asm uch
HE R
Ġallow ance
b age
ĠP ercy
Ġrel ating
Ġmis fortunes
ĠC e
Ġa ug
Ġpolit eness
Ġp aw
it ches
Ġwhere fore
ret ty
Ġpleas es
Is n
Ġecc entric
re ll
Ġth o
Ġdisappear ance
Ġhonor able
Ġn ail
Ġviol in
Ġgen ial
Ġbrid le
Ġcl ust
Ġcr umb
Ġscr ub
ĠBab yl
Ġprecaut ion
Ġinfl icted
F ar
Ġhorr ors
Ġmir acles
ĠR ou
ĠBr ook
Ġgover ness
Ġanaly sis
c ar
ĠCh ris
ĠEle anor
Ġwe eds
Ġab omin
Ġdoctr ines
Ġtre ason
Ġrev ived
Ġmer rily
Ġgra vel
Ġi i
Ġde y
ĠT oo
Ġel apsed
Ġequ ality
Ġadmir ing
ĠS andy
Ġcan al
Ġhoof s
Ġindef inite
ĠK irk
Ġr ugged
Ġhome ward
Ġbur gl
use t
Ġregret ted
y ss
Ġmult ipl
Ġrelax ed
Ġsat in
Ġsp aces
Ġo min
is en
Ġsingular ly
Ġspe ars
Ġdraw s
Ġ icy
Ġsincere ly
ud ent
ĠAl as
Ġdece ased
ĠS em
ĠA lt
Ġcount ess
ix t
Ġsuggest ions
ĠWh ose
Ġmic ro
Ġconfron ted
ĠP E
ign ant
mun ition
Ġv irgin
Ġsweet ly
nd y
min ster
Ġpeop les
Ġimprison ed
it ia
ĠB rig
Ġsubm ission
Ġrif les
Ġf ile
ĠM aid
ĠT rent
Ġenv iron
Ġvic ious
ĠH ast
Ġcoach man
Ġs ledge
Ġpol es
illi am
With in
Ġbless ings
din and
Ġobser ver
Ġclut ched
yl van
Ġreward ed
Ġcompl ac
Ġunt r
ac re
Ġen l
Ġmod esty
Ġm aker
as ha
ĠR aven
Ġlim p
Ġcontrib uted
Ġsche mes
Ġa le
Ġox en
Ġnow adays
Ġvehic le
Ġcongreg ation
Ġcr uc
Ġdel ir
ism s
Ġver b
Ġgle amed
Ġr attle
Ġw ig
Ġcompl iments
Ġshr oud
ĠMay be
Ġend owed
Ġencl osed
Ġsacrific es
Ġtou ches
Ġdazz ling
Ġelev ated
ĠVictor ia
N ear
l it
im ble
oc ation
Ġrob bery
G eneral
Ġshrie ked
Ġfor lorn
ĠF ate
Ġsorrow ful
Ġcr ow
Ġnice ly
Ġtravel s
Ġeconom ic
ĠN ic
N E
Ġsl ipping
Ġdiscover ies
Ġoff end
Ġpe ering
AC K
Ġdefinite ly
ĠM E
Ġfl aming
Ġel b
r um
Ġhut s
Ġtransl ated
" .
Ġpl ent
ĠJ enny
ĠT roy
Ġdev ice
Ġinterf erence
os m
Ġyield ing
Ġex h
Ġdares ay
Ġcl atter
Ġtrans formed
act ly
Bet ter
Ġcar go
Ġre ared
Ġcomm od
ke red
ĠA le
Ġwond rous
ar on
f ig
w s
ell s
Ġexcess ive
Ġis olated
Ġcup board
Ġdiss ip
Ġnoble man
u y
ĠS a
ĠR ick
Ġoccasion ed
Ġnodd ing
Ġgle e
ry ing
ĠM ade
Ġsh ivering
Ġpier cing
ĠR oche
ĠA ch
H en
omet er
ĠBr un
Ġcorrespond ing
Ġresign ation
ĠY ear
ĠAfric an
Ġo st
Ġam munition
Ġ17 9
Ġwh ites
our n
up in
Ġimag inary
Ġundert aken
Ġbre eding
Ġjoy ful
Ġbrisk ly
o at
Ġ `
cess ion
Ġsight ed
ĠCar ly
Ġdec isive
Ġr amp
Ã¨ re
Ġbe et
Ġproport ions
Ġh ound
OO D
Ġrespect ful
Ġ5 0
Ġappreci ated
or ia
og ical
L ife
ĠC ertainly
Ġill usion
2 1
Ġf ishes
Ġdifferent ly
ĠC reat
Ġpir ates
Ġsn uff
D ick
Ġsh illing
Ã© e
Ġrest rict
V I
Ġprocl aim
Ġninet een
ĠP in
Ġindul gence
oll o
Ġlif et
pl ing
Ġg erm
Ġpat ent
Ġhence forth
ĠWall ace
Ġrich ly
Ġsin ner
Ġimpress ive
Ġfet ched
Ġs ion
Ġmagaz ine
au g
ĠJ os
Ġcur ls
Ġ =
ĠR at
Ġimprison ment
ab out
Ġli v
Ġhumb ly
x ter
Ġpar agraph
Ġgrotes que
Ġf ern
Ġprophe cy
ĠCecil ia
ou lt
Ġhe red
Ġlabor atory
Ġrestr ained
ĠGe offrey
b ie
Ġinher ited
Ġtyr anny
ob s
in ently
ir ch
Ġv iv
Ġmanif ested
Ġbord ers
orth os
Ġprocess es
ĠKen nedy
ĠFr an
ĠAll en
ĠR oland
Ġ3 5
Ġpost ed
Ġp ite
os is
Ġv iolet
Ġlog ic
Ġpret ence
Ġearth qu
Ġident ical
Ġsa uc
Ġconsider ations
Ġcontro vers
Ġresc ued
ĠM err
Ġan al
Ġpre te
ĠB at
Ġrob ber
' *
Ġmaid ens
Ġpack et
Ġ' ^
Ġst ages
ĠC her
Ġcr ude
ĠMar j
Ġwheel ed
ak ers
Ġumbre lla
ĠC are
Rem ember
Ġha iled
Ġfr amed
Ġindul ge
Ġexagger ated
Ġpret ending
Ġlab ours
sequ ently
ĠPark er
Ġc ust
Ġpar cel
Ġst ations
Ġdoc uments
] .
ĠEnglish men
Ġc yn
Ġve he
OM E
ĠL izzie
Ġp est
Ġdri pping
Ġsett lers
ll ow
enc ing
Ġmor als
Ġwear ily
Ġsha m
ĠCarly le
Ġb orrow
Ġsun rise
Ġhorse men
ĠB eth
ud ley
Ġlangu ages
her s
Ġindisp ens
Ġsu ck
ine a
ĠCount y
Ġdiv isions
sel s
Ġmerc iful
Ġsec re
Ġrub ber
aunt ed
ĠP all
ĠAr k
ĠMay or
ĠQu ix
Ġjer ked
Ã ¤
Ġhor ribly
Ġ17 7
Ġhint ed
Ġbed side
Ġcourte ous
Ġqu e
Ġprop erties
Ġlifet ime
ac ies
ist ered
Ġperf ume
Ġsouth ward
____ ____
Ġhind er
t ically
OL D
Ġsex ual
T oo
Ġsle w
Ġnorth ward
Ġconfident ial
Ġind isc
ĠJo el
Ġed ition
Ġfor k
Ġrec ru
Ġ 00
en et
Ġexhib ition
ou ched
ĠSw ift
Ġextravag ant
Ġmo or
Ġmel ody
ĠBenj amin
r d
ĠH istory
rop he
ĠA ld
Ġep is
ere nces
b led
ab y
Ġb achel
Ġh ire
Ġtri es
Ġthick ly
Ġsm oot
ern on
anch o
ĠM ort
Ġaim ed
ject ed
Ġbig gest
Ġsweet est
ĠM is
Ġshr ink
Ġdise ases
ĠS uppose
ell ig
Ġ17 8
Ġwhist led
ĠM eth
ĠS har
Ġarm or
Ġspir ited
che t
Ġlod ged
Ġwholes ome
ĠN ev
ra ble
i hil
it ous
Ġc ate
an ned
Ġstar ved
ĠP ont
ĠBr ad
] ,
Ġon to
Ġinv asion
Ġthick et
Ġempt ied
ĠL uther
Ġdis int
Ġcirc us
Ġb ount
ĠW oman
Ġfund s
Ġspecul ation
on c
ĠM ust
ĠCr own
f olk
ĠT han
ĠG ert
Ġscound rel
ĠTrist ram
ĠP ower
ĠEvery body
Ġod or
Ġref rain
Ġsett ling
Ġinterpret ation
sc ar
ĠCarol ine
Ġfert ile
r un
Ġsh ifted
ylvan ia
Ġfest ival
Ġsh orter
Ġden ial
Ġdisapp oint
Ġstrengthen ed
Ġsuccess or
Ġs ings
Ġdist racted
Ġ3 3
Al most
ĠMount ain
w er
ĠB ald
Ġp udding
ĠZ e
Ġexerc ises
Ġprofess ed
Ġg aunt
Ġty rant
Ġbeaut ies
F ive
Ġinf irm
ĠM ead
Ġrag ing
Ġta vern
ri ers
m atic
Ġindul ged
ĠScript ure
Ġm uddy
Ġkind red
Ġsurre nd
Ġoverl ook
ĠTex as
Ġl ull
Ġag gress
Ġfoot ing
ĠMa ur
Accord ingly
Ġcat ast
me an
Ġrecei ves
m ons
Ġadv is
Ġens ued
ĠEug ene
Ġs led
ĠS in
ĠLa unce
Ġlugg age
M ake
ĠJ upiter
the l
Ġfair ies
Ġexcell ence
ĠEr nest
Ġlast ing
ĠLl oyd
Ġcrad le
Ġhall s
Ġtrad itions
Ġt as
Ġha gg
Ġpe aks
Ġdark er
Ġb ubb
ĠBert ram
ĠB indle
Ġsub ur
Ġherd s
are n
not e
Ġcomment ed
Ġex pend
Ġresult ed
Ġsupport ing
Ġt ons
ĠA dd
Ġfl ocks
an ity
ĠA D
Ġvict orious
Ġstri ve
Ġinspect or
Ġd ow
Ġle v
Ġmar gin
Ġfre ight
Ġemploy er
ĠPers ian
Ġecclesi ast
Ġvehe ment
ap se
Ġst er
Ġ ."
Ġsa g
Ġblack ness
ocr ates
Ġesc aping
Ġcro ps
Ġconstit uted
ĠKat harine
? âĢĶ
ard ly
uset ts
Ġcontract ed
i os
ĠY OU
Ġcons erv
Ġpoison ed
AT E
Ġdec ree
Ġgra ves
Ġneighb oring
Ġd agger
Ġtur f
Ġst ew
Ġste er
ĠHe nd
Ġpist ols
Ġvo id
Ġm and
Ġaltern ative
ĠP op
ĠV III
Ġreg iments
wr iting
it ching
Ġst ump
ĠB enn
Ġconspir acy
Ġal co
IS H
Ġtyp ical
Ġeyel ids
Ġnot hin
Ġde pl
Ġfab ric
Ġwhat soever
Ġprop riety
ĠG ospel
Ġan te
Bet ween
Ġdo ck
Ġpl ump
Ġplan ning
Ġdecor ated
le v
ĠL ind
Ġcons cient
Ġco ax
Ġd ome
st ru
ber ries
ul ch
Ġthreat s
Ġcalam ity
Ġtel esc
ĠM R
j i
Ġst all
Ġthirst y
Ġr ans
Ġwar med
Ġall y
Ge orge
OU S
Ġfrag rant
ar ms
ĠMiss ouri
Ġsuff ice
ĠB ou
ĠL arry
Ġtroubles ome
Ġre ly
Ġtort ured
ans as
Ġcond escend
ĠC L
Ġsk ilful
Ġpal ms
ÃĦÃ º
Ġuneas ily
Ġcler ks
Ġc ant
ĠSh ort
ĠEx cell
Ġstr ay
ĠTw ain
Ġout st
Ġoverwhel ming
M onsieur
Ġune qu
Ġaffl icted
ur ous
Ġall e
Ġr ud
Ġp ion
cast le
Ġrasc al
Ġgrat ified
Ġexert ion
Ġan ew
Ġill ustration
fortun ately
Ġsubs ist
Ġhaz ard
b ro
Ġsn ap
Ġener g
Ġcar bon
Ġmel od
ĠH ung
pt uous
_ !"
Ġb owing
ol ics
Ġhom age
Ġindign antly
Ġvic ar
Ġascertain ed
com ing
ĠFeder al
Ġban ished
Ġunb roken
Ġsubst itute
Ġfever ish
ĠD ad
Ġstream ing
Ġguid ance
Ġdist ract
Ġmon op
Ġsucceed ing
Ġvigor ously
ĠL ad
Ġgl ided
ach usetts
Ġaccount ed
ĠLyd ia
int on
Ġst urdy
Ġbar red
Ġno ises
2 2
P aul
Ġpro se
ĠBut ler
Ġb ou
Ġdis ad
ĠN orm
Ġsum s
urs ed
Ġaud ible
Ġremo val
Ġday break
Ġmess ages
Ġpra ises
b od
Ġdiscover ing
Ġpref erence
Ġceremon ies
Ġperplex ity
b able
Ġste ed
Ġmechan ically
Ġted ious
h i
ĠA y
Ġgran ite
ĠAustral ia
Ġher mit
Ġide als
Ġmir ac
c ony
Ġdisc reet
Ġvary ing
Ġgri pped
ĠTurk ish
Ġindispens able
s pring
Ġl ink
Ġsplend or
ĠHe ctor
Ġsway ed
Ġd y
Ġpill ars
Ġindustri al
Ġspr ay
Ġe cl
Ġsubsequ ently
Ġm used
Ġexceed ing
e a
Ġpat ches
Ġremo ving
n ings
Ġchar med
c ular
Ġobl iv
ip h
ĠIs n
Ġup l
Ġres isted
Ġcrown s
Ġfa ils
Ġstrugg les
ĠSen ator
land ers
Ġins uff
Ġcre ed
b ster
ar ia
Ġutter ing
d ney
ĠB alt
Ġgl owed
Ġcount less
Ġworth less
S im
Ġv ir
Ġperson age
Ġperil ous
Ġreluct antly
ĠU rs
Ġstar ving
B less
Ġsh iver
Ġconst able
Ġlab ors
Ġa is
Ġele vation
Ġve iled
Ġdrink s
Ġejac ulated
g ue
ro ying
Ġarr ay
Ġcompanions hip
Ġher ald
Ġdet ached
ĠConfeder ate
Ġal ight
Ġsore ly
Ġp ots
ĠS up
Ġper v
for ward
ĠM un
Ġdimin ished
ĠV II
Ġdep ression
Ġ1 00
Ġinfern al
Ġmonoton ous
Ġw are
Ġsent in
Ġult imately
Ġplay er
ist le
Ġcl apped
Ġlab ou
Ġbal cony
Ġthreat en
ir am
ĠF ig
Ġsp oon
Ġdev out
ĠO ak
ĠBob by
Ġmoist ure
' ;
Ġequip ment
Ġexpress ive
g room
Ġb acon
Ġf ib
P eter
Ġtrib un
Ġd ub
Ġpar as
on ing
Ġm uffled
Ġbe ads
Ġcor oner
Ġpublic ation
Ġtop ic
Ġrepresent ing
ĠS weet
Ġfasc inated
Ġtax es
Ġv i
spect or
Ġple ading
ĠR osal
Ġrib s
Ġtr uck
Ġglad ness
Ġheav ier
Ġmat ches
ĠFin n
act ions
Ġinter rog
Ġt ank
Ġre ef
Ġpen n
Ġur ging
Ġveget ation
Ġrestaur ant
ĠP orthos
Ġinse ct
S il
Ġs om
Ġsee ks
Ġdiss atisf
Ġfid elity
it us
Ġcan oes
ON G
ug s
ĠCont inent
ĠAbb ey
Ġang les
ĠKent ucky
Ġover heard
Ġpast ure
Ġhate ful
Ġecst asy
b ra
Ġf res
Ġn asty
ĠC irc
Ġun ite
Ġodd s
Ġfl attered
s ylvania
Ġsp ont
Ġr ats
Ġsqu e
ĠJul ian
Ġdisad vant
ĠAugust us
ĠHe art
Ġbl asp
Ġend urance
Ġsubst ances
Ġrub b
Ġrul ers
Ġrecon c
ĠT art
Ġhard ened
Ġobject ions
EN CE
ĠBr id
Ġsuccess ive
Ġirr itated
Ġd anc
Ġmot ions
ĠJean ne
ĠC ut
Ġver ge
Ġchest nut
Ġsway ing
ath y
Ġli vel
Ġpenet rate
Ġlum inous
Ġdep ressed
Ġdisli ked
Ġlaw ful
ĠP itt
ĠTar zan
Ġenviron ment
s en
Ġprem ises
ĠB ag
Ġcomm end
Ġpres ervation
ĠGr an
Ġve ter
Ġcompet ition
ĠFer dinand
ĠBabyl on
id ays
Ġbl ushing
Ġvar ieties
chan ce
ĠM aud
ĠLord s
id ious
Ġrepres ents
Ġar ises
Ġsight s
Ġdisg usted
Ġat om
ĠM ike
ch ild
Ġwat ches
Ġacqu ies
Ġover board
Ġhumil iation
Ġdiam eter
Ġread s
Ġte asp
Ġfrag ment
t in
ĠP ast
ĠR O
Ġdet ained
Ġant i
ĠCham ber
Ġp ars
ĠS now
Ġprejud ices
ĠLaunce lot
ot a
Ġsw ollen
Ġfact or
Ġch ickens
Ġprof its
Ġunha pp
m ust
Ġshad ed
Ġfav oured
Ġdet est
Ġbur ial
Ġdon key
Ġto e
Ġdelight s
Ġt ires
es p
Ġper ceiving
Ġcomp osure
ĠQuix ote
âĢ Ĳ
ĠCath olics
ot te
ĠTr ans
Ġun anim
ĠCl ark
Ġprover b
4 5
ĠB ud
Ġin iqu
Ġcan st
is hable
ĠH ER
Ġundert ook
Ġdet ailed
Ġattent ive
Ġes p
Ġenchant ed
ic ent
ĠC iv
Ġstick ing
Ġfine ly
Ġassured ly
Ġscra p
Ġdest roying
Ġsurrend ered
re qu
ĠL anc
yl um
Ġenerget ic
or gan
est ial
Ġdeb ate
Ġweak er
Ġtranqu il
H ar
Ġfurn ace
Ġt il
ĠF rog
og a
Ġstation ed
Ġaccur acy
Ġembro idered
Ġc yl
Ġfor b
Ġle ve
Ġres ume
Ġstar ve
ĠL iver
ĠHer r
ou x
Ġar c
Ġwhis ky
Ġprophe ts
Ġrepent ance
Ġendeav or
Ġeff icient
Ġsn ar
Ġquer ied
Ġobed ient
Ġleis urely
ĠMars h
ĠPeters burg
Ġa ided
Ġst ables
ĠH IS
Ġbl amed
Ġche ered
OO Q
Ġpha se
or ry
Ġbishop s
Ġdefin ition
Ġcar penter
Ġy oke
Ġc ode
Ġre ce
Ġdr ain
Ġhope ful
Ġprof itable
Ġdiscour aged
Ġin land
ĠD AY
Ġbl ot
Ġrelations hip
itz er
ĠA S
ĠF isher
Ġp am
Ġprelim inary
D av
Ġdiss olved
ĠBer lin
ĠD et
ri ving
Ġlo an
he nt
ĠP RO
Ġcultiv ation
Ġprete xt
ĠS ic
w alk
Ġw ires
Ġpe ak
ien na
Ġto ilet
Ġl ime
ĠI mp
Ġst ress
ell er
Ġair s
Ġgest ures
ĠMore over
im ore
Ġinflu enced
ĠMur ray
ow ard
az a
ho v
i at
Ġt angled
ĠAnd re
Ġhow ling
Ġinstru ct
ĠJ osh
umb ered
ĠS ev
ĠC rom
Ġnurs es
yr us
Ġrhy thm
ĠD aw
Ġhead long
Ġ3 6
Ġconvention al
Ġrepet ition
Ġcon ver
Ġign ored
ĠGabri el
Ġconf ided
Ġund ist
Ġcop ies
Ġsurvey ed
Ġenlight ened
Ġjo ining
Ġpred e
Ġrecover ing
ĠU r
pe ls
Ġresemb ling
ĠR ail
Ġbat hed
Ġsen ior
Ġthr illing
bur st
Ġattent ively
Ġdo ve
Ġfl ows
Ġcirc uit
Ġow l
ĠNap les
Ġoutst retched
ĠF err
Ġrespect ive
ĠAd ela
Ġo pt
Ġcru elly
Ġa y
Ġsal ute
en z
Ġf ainted
Ġhon ored
Ġinsignific ant
ĠT a
v ie
Ġstat ues
Ġneck lace
U B
re am
Ġslipp ers
M AN
Ġr ouse
ĠA B
ĠC ad
Ġentertain ing
ĠN EW
Ġexcl usively
H ello
Ġeast ward
Ġinquir ing
Ġresour ce
H ush
uss y
ĠMass achusetts
Ġcontin uing
ĠWest minster
ed e
Ġint ending
A IR
Ġple a
Ġespe cial
Ġbe ans
ĠPl ato
ort s
m ate
Ġexhib it
r ont
Ġwr inkled
Ġesteem ed
il ion
Ġgre ed
Ġsquad ron
C ons
Ġsubmar ine
Ġleg itimate
ap es
Ġrout ine
irect ly
ĠH and
Ġprompt ed
Ġbatt al
Ġl acked
ĠB ax
Ġcontempl ated
Ġautomob ile
Ġg ait
Ġimp osing
ĠC Ã¦
Ġspin ning
c ourt
ĠR on
Ġle ague
oc olate
m are
ĠS ult
ĠB OOK
he tic
Ġcustom ers
Ġconven ience
Ġab yss
ĠO wen
Ġbatter ies
Ġinvolunt arily
Ġcondu ctor
Ġequ ipped
Ġrubb ish
ĠE ust
Un cle
Ġske leton
v ention
ous ing
ĠG ro
Ġdoub led
Ġrepeated ly
n or
ĠAl so
Ġsul ph
ĠHar riet
Ġobst acles
Ġsecre cy
ĠM ild
od ox
Ġgallop ed
ĠP ho
ĠD ist
ĠAt hens
Ġcal f
Ġdru g
Ġdomin ion
ĠF ull
Ġqu ad
Ġsan ction
Ġpl ank
Ġover coat
Ġaccept ance
Ġfor cing
Ġar rog
Ġsto red
Ġextingu ished
Ġd ashing
Ġco als
Ġenerg ies
ĠB enson
Ġless er
Ġreb els
Ġr ains
ĠS ie
unci ation
ĠH old
Ġp ose
Ġser ves
ĠST ORY
ĠN ile
har t
Ġpat ri
esc rib
Ġp u
if er
ĠP ed
Ġpo pe
ĠEd gar
ĠB L
Ġv ices
Ġadm on
ĠH annah
ĠC air
Ġapp rent
Ġattent ions
Ġen act
Ġd uel
Ġperse ver
Ġall usion
S ON
Ġsn ug
Ġric hest
Ġrevere nt
ĠFR OM
st ood
Ġcha sed
Ġco co
Ġtransl ation
Ġun im
Ġdr ooping
Ġshr ine
Ġsust ain
enc hes
ĠB oard
Ġjo kes
ch oes
ĠW ag
Ġsol ve
Ġcollect ing
Ġst unned
ft s
ĠK now
Ġwhis kers
ĠMill er
Ġall ey
Ġequ ival
Ġdisple asure
Ġwing ed
Ġtw inkling
ĠL ast
Ġhyp othes
Ġprede cess
Ġ 01
Ġfin ishing
Ġtoss ing
Ġdivor ce
D ER
j ah
ĠPal mer
Ġunre asonable
um my
Ġlab ore
ĠTur ks
hara oh
im um
our ge
ĠS aw
Ġs ized
Ġcraw l
Ġw ot
Ġcar av
Ġmoust ache
ĠN elson
Ġmock ing
n ic
Ġas p
Ġdisc omfort
Ġdece it
Ġre he
ĠCh in
Ġsport s
z er
oss ibly
Ġox y
V ER
Ġber ries
j OOQ
Ġstra gg
Ġplant ation
et ty
Ġv ines
ĠL E
Ġwatch ful
ĠVinc ent
Ġinv iting
Ġmem orable
Ġre cip
Ġcur ved
Ġelb ows
h urst
Ġoverl ooked
Ġcost s
Ġl ark
Ġacc idents
Ġter med
cl ing
ĠHam ilton
Ġfor fe
Ġcle arer
Ġforeign ers
l ook
is y
Ġoff spring
T LE
ul sed
Ġar isen
ub a
Ġfut ile
Ġp arr
up ert
Ġstead fast
ĠSy dney
Ġcorrupt ion
Ġrav ine
Ġarchitect ure
ĠI X
Ġh over
ang ling
Ġinsult ed
Ġfound ations
Ġstro kes
z ar
Ġe f
Ġsl ide
Ġstraight ened
ĠCam bridge
Ġfug itive
ĠLeon ard
Ġrepresent atives
Ġcl ing
Ġmo le
Ġwear ied
Ġsc al
ĠÂ «
Ġhaw k
at ers
ond e
Ġpay s
Ġun ique
ĠFor ce
Ġd ates
Ġwor ms
Ġme ets
Ġm es
ant ime
Ġrepl ies
Ġplay ers
Ġplan ets
Ġloc ated
Ġendeav ored
Ġint egr
Ġass ign
Ġcre v
ĠB ro
oo re
il iar
ĠH ood
Ġdes olation
Ġfore t
ĠMount ains
Ġobli ge
I B
Ġbank er
Ġflut tering
Pro bably
Ġungr ate
Ġsec uring
ern ation
ask a
ĠM ull
ĠB rer
ĠP s
Ġhapp iest
ĠAnton io
Ġcomprom ise
ĠEliz a
ĠH orn
Ġexpl od
ĠNav y
ucc ess
ĠB apt
Ġaf t
ĠR ub
Ġlux ur
Ġchamp ion
Ġasc ent
rigg s
ĠH az
res ent
ĠE aster
Ġins in
Ġadmir al
W illiam
g ments
ast on
Ġrespect fully
Ġconject ure
Ġhang s
Ġol ive
Ġf owl
iff e
Ġaccept ing
ĠR et
Ġgent leness
ĠKing dom
Ġprofound ly
an se
Ġthr illed
Ġgl aring
Ġwork er
Ġscr atched
Ġd uration
ĠR hod
Ġd ances
ĠS everal
Ġgo ats
Ġprodu cts
it ter
Ġb rew
ĠW igg
Ġli ver
Ġingen uity
ĠPenn sylvania
Ġsnow y
U G
g ard
Ġm ents
gg ie
ĠEgypt ians
w right
Ġm uzz
Ġincl ude
L ES
ĠComm on
ou p
ĠHow ard
S ec
b orn
Ġstuff ed
Ġscant y
ĠBeaut y
Ġmaj estic
Ġor che
Ġlove liness
Ġunl ucky
ats on
Ġrese mble
Ġaccus ation
id an
Ġse ctions
E v
Ġencour aging
Ġclub s
Ġpriv ately
Ġb ail
Ġsp acious
Ġbl under
Ġor ator
arch y
he res
Ġquick er
Ġf ists
Ġpersec ution
Ġjud ging
Ġvig our
w ixt
Ġcl asp
Ġsystem s
oc ke
Ġfav ored
Ġlit ter
Ġroll s
Ġfisher man
ve ying
ĠAn ge
Ġview ed
Ġdescrib ing
d ens
re al
ĠW r
Accord ing
nt on
Ġact ivities
Ġpoet ic
ĠW ILL
Ġassoci ations
ĠCarol ina
! _"
Ġd ame
Ġgu ides
Ġc ess
Ġexp ose
inc ing
Ġenqu ired
Ġsp urs
Ġquar rels
Ġr ue
ĠIs le
Ġexplan ations
Ġact ors
Ġsol ved
Ġflut tered
Ġval ued
in ter
Ġse p
isc illa
Ġbrood ing
rup ulous
ĠSid ney
ĠO cean
ĠAra bs
ĠL am
Ġwhir ling
Ġc amps
Ġr ushes
il i
ĠC el
Ġeffect ually
ĠA li
Ġsil very
Ġcatast rophe
Ġnurs ing
Ġeight h
ĠQue bec
Ġadequ ate
Ġsqu at
ION S
Ġper ched
Ġgr ade
ĠB aker
Ġdemon stration
or ters
ĠB arr
ĠB rent
Ġgi ants
Ġg in
Ġ3 4
Ġall uded
led a
Ġsil ken
Ġp aced
Ġr acing
Ġpl ung
IS S
Ġratt led
Ġdescend ants
Ġp ork
Ġcour ses
ĠEd win
Ġrepresent ation
Ġreven ue
gu ard
Ġrapt ure
ow ards
ĠF riend
ĠIn spector
Ġann ihil
is ance
ĠR ec
ang es
Ġterr ors
Ġstart s
Ġpublic ly
Ġinev itably
Ġneed ful
Ġsuper b
m ay
Ġsh ines
Ġhe aped
Ġdist ances
Ġattack ing
V II
Ġconst ernation
Ġdistur bing
ĠLes lie
Ġfeeb ly
Ġf ow
Ġst ature
Ġsc ow
Ġment ally
ent on
ect or
ĠV ienna
Ġass uming
Ġ4 4
Ġredu ce
ĠJO HN
are th
Ã ¯
Ġg inger
ĠD ame
ĠI T
Ġhon ours
Ġnovel ty
l an
Ġhope lessly
Ġdescrib es
Ġflag s
ĠJ ob
Ġim itate
Ġcho king
ĠRef orm
Ġnat ures
umber land
Ġun he
Ġind escrib
Ġpack ing
Ġunderstand s
ĠInt o
ĠR ead
ony m
Ġneck s
Ġambass ador
ug n
Ġhaul ed
Ġg ap
ĠL in
Ġcap it
Ġprincip ally
Ġsmooth ly
Ġsuperst itious
Ġcl ient
umb ers
rog en
Ġwrong s
Ġswell ed
Ġpract ise
Ġcompl aints
Ġblind ed
Ġhow l
w ere
Ġab hor
Ġal ighted
Ġunivers ity
ĠGr im
Ġhabit ual
Ġfell er
Ġpar adise
ĠL iber
Ġpower less
ĠWill ie
Ġfar ms
ĠW ait
Ġpl aster
Ġs ill
Ġdecl ares
ĠFred die
Ġswell ing
Ġscr atch
Ġgrasp ing
Ġe choes
Ġfasc ination
id el
Ġsp an
ĠLiver pool
ĠP haraoh
iss a
Ġdism ounted
Ġrad iance
Ã §
Ġan ec
Ġkind led
Ġ19 0
Ġric her
Ġha ck
Ġhand writing
Cha pter
Ġsuper f
Q U
Ġnot icing
eb ted
Ġatt ire
Ã± or
c ow
chan ge
ĠTw enty
Ġarist ocratic
Ġso da
Ġdi pped
Ġtreacher ous
ad ers
ĠS ab
ĠD omin
ĠM orton
ĠS ancho
Ġuns peak
us ky
est ine
Ġ3 7
j e
Ġc ask
ĠB os
Ġrust ling
Ġblaz ed
p art
Ġunc han
Ġoppon ent
Ġmount ing
Ġsubst it
ĠAr amis
Ġtrust ing
Ġshel ves
Ġga iety
Ġtr ading
Ġunder ground
Ġgrin ning
Ġratt ling
Ġcapt ains
Ġg asp
Ġbride groom
Ġphilosoph ical
Ġlou ng
Ġmed i
Ġdeliver ance
ĠWel sh
Ġins ight
Ġfl ing
Ġobsc urity
Ġl uc
Ġexp osure
Ġbrid ges
Ġstop s
Ġimpuls es
Ġomin ous
Ġind ebted
ĠHarr is
ĠH osp
Ġmut tering
Ġprecaut ions
i antly
Ġmort als
Ġimpl ied
ym ph
ĠH ubert
Ġsc are
Ġbright ened
Ġeight eenth
Ġn ests
Ġimmense ly
Ġinsc ription
it ative
Ġhol idays
Ġhome ly
ĠArch bishop
Ġst ooping
ĠB O
Ġacc use
Ġdisc ord
Ġnaught y
Ġanec d
Ġgr ub
Ġfig ured
Ġpot ent
Ġexcited ly
Ġwre cked
Ġs ane
Ġg ains
ĠR aff
Ġsub t
Ġpict ured
Ġtreat ing
Ġdisp ose
Ġcom edy
Ġfam ine
Ġsign ature
Ġval iant
Ġworsh ipped
ĠMarg uer
Ġab b
Ġspe ck
Ġfri vol
Ġboy ish
Ġpal p
Ġfro g
Ġeld ers
Ġfor bear
Ġto ol
Ġport s
r ade
Ġsh ifting
Ġber th
Ġfrown ing
c ham
Ġbe ats
Ġpossess ing
Ġpulp it
Ġout burst
Ġmor bid
Ġfill s
Ġsimult aneously
Ġam ate
Ġoxy gen
ĠVal ent
ĠJ ar
Ġfellows hip
Ġt apped
Ġgr amm
Ġpurs u
c use
Ġcho pped
ap hys
ĠConst ance
F oot
Ġdesp atched
Ġfem ales
Ġfix ing
ĠB ee
Ġpresent ing
S ha
Ġpal aces
ĠB ru
Ġpass ive
Ġsolemn ity
Ġn it
Ġatt ach
K E
il a
ĠK ir
Ġsuper fl
Ġcush ions
l oc
ĠA be
ĠH orse
ĠB ath
Ġsm ashed
ĠFl ora
Ġnob lest
Ġir ony
Ġpir ate
Ġo o
c ried
br ay
ĠWith in
Ġtimid ly
Ġin asmuch
Ġfew er
Ġpost p
Ġcandid ate
Ġunqu estion
Ġtriumphant ly
Ġpeep ed
S am
ĠA ri
Ġinter n
Ġsweet heart
Ġle e
ann ie
ĠScott ish
ĠTro j
d am
Ġst ren
ĠAr chie
IN D
Ġincons ist
Ġch ina
Ġphys icians
Ġhum ming
Ġp airs
ra p
Ġbachel or
em et
T ON
Ġduc hess
Ġp end
ĠClem ens
Ġinfl ict
Ġexcept ing
Ġpin ch
Ġb ully
Ġdisp ersed
ĠPri est
Ġl ance
Ġman e
S te
Ġpl ucked
Ġloss es
Ġchamp agne
Ġdev oured
Ġgro om
Ġmut ton
Ġcoward ly
col m
ĠD og
Ġj erk
Ġod ious
et ies
Ġconstitution al
ĠGert rude
Ġadv ances
Ġmyst ic
Ġirr itation
Ġrab bits
Ġd if
ĠH ilda
s ha
ign eur
Ġqu iver
Ġfoot man
ĠX IV
z el
Ġgr aces
Ġwr ung
Ġexped ient
Ġdem ocracy
Ġcom pel
Ġungrate ful
ĠG ri
Ġmis chie
he im
hil st
Ġinj ure
Ġfrag rance
Ġb aked
Ġthr ice
Ġmen ace
Ġupro ar
ow ered
Ġlil ies
ĠS au
ĠP om
Ġ' _
Ġli ly
Ġsm ugg
ĠNight ingale
oss y
Ġridic ule
Ġelectric ity
F F
ĠN OT
Ġgl ared
Ġcame l
Ġext ension
Ġver anda
Ġtrop ical
Ġg ull
Ġrust y
Ġor th
Ġl oses
Ġpa using
ĠJoy ce
Ġhagg ard
ĠM amma
' ^
Ġinv ested
Ġbell y
IC E
ĠMarguer ite
Ġb in
ĠG a
ĠMal one
og an
Ġdat a
Ġhand y
Ġr am
Ġaffl iction
G ent
Ġcur ate
ĠM ind
Ġarr anging
Ġdesp ond
ĠComm and
Ġp ang
Ġequival ent
ĠL isten
Ġconstit ute
w yn
ĠM u
ĠF al
Ġsettle ments
Ġsuperintend ent
ĠSoph ia
rehens ible
ul u
Ġexec ute
Ġal oof
Ġhum orous
ĠNew ton
Ġdisc onc
ĠAr c
Ġcool ness
ĠPat rick
Ġreflect ing
Ġcr ushing
ĠP le
Ġpres um
ĠMat ilda
in ois
Ġas ylum
ĠThom pson
Ġde xter
ĠSult an
S ix
ĠO scar
Ġrel ent
Ġmess engers
Ġcig ars
Ġind ist
Ġcut s
ĠBur ton
ĠGard en
ĠServ ice
ĠQu ick
Ġbask ets
ĠOri ental
an na
ĠH ag
Ġun ce
ĠAs semb
Ġmagn et
v able
Ġbound ary
ene ath
Ġprim ary
Ġw ink
ro it
Ġsa fer
ĠG ene
Ġthr ows
Ġlux urious
am ations
Ġling er
ĠHard ing
Ġb iting
Ġcomfort s
Ġdawn ed
Ġp iles
ĠTh r
Ġt ak
ĠM as
Ġlay s
Ġsurv ived
ĠRos a
N onsense
Ġsurv ive
Ġr anged
Ġdest ru
ĠGu y
Ġgn aw
Ġwhar f
d ers
Ġpersist ent
Ġlea pt
in isc
Ġp onies
Ġlay er
Ġcame ls
Ġpartic les
F N
Ġemb od
Ġhost s
Ġcurrent s
Ġmechan ism
ĠP L
Ġb unk
ol i
Ġhair s
Ġp yram
Ġsha res
Ġar ising
Ġsc ales
Ġcolon ists
Ġcrim inals
Rep ly
ĠC oo
Ġbab e
Ġsp un
be cca
Ġvan ish
A unt
Ġ3 8
Ġb icy
ati o
T en
ĠRed dy
Ġn ought
Ġbu oy
Ġremind s
Ġduck s
Ġgrunt ed
ll is
Ġnum bered
Ġrock ing
Ġtechn ical
Ġhand ling
Every body
Ġdisgu ised
f ire
Ġb ake
ĠH omer
ig ger
Ġmus cle
Ġinsol ent
Ġun pr
O ST
ĠS aid
Ġtra versed
St and
Ġpopular ity
Ġbeard ed
Ġfren zy
Ġli bert
pe cially
Ġawaken ing
Ġ Ã¢
Ġadmir ably
ĠV ar
Ġdeal er
Ġchurch yard
ĠFort une
Ġaccur ately
ĠCl aude
Ġselfish ness
Ġad ult
Ġw ipe
Ġwh ims
Ġl ac
Ġpast e
K ing
oss ible
Ġass umption
ĠDon ald
ĠS ad
ĠCreat or
Ġhead ache
Ġstiff ly
Ġconsist ent
Ġglac ier
Ġfur t
ll er
Ġh uddled
Ġcommun ion
EC T
ĠM useum
Ġpar ade
re te
Ġgri eve
Ġtranqu ill
ĠF ri
are well
Ġinvent or
ĠS uff
Ġexpect ations
an ter
ig o
Ġreconc iled
c ame
Ġt ha
Ġs ate
Ġintellig ible
Ġh ive
Ġhol iness
Ġbr icks
Ġmonaster y
am ie
Ġlegisl ation
; '
Ġfore man
Ġep och
Ġpron ounce
ĠComm ander
Ġbarbar ous
Ġninet eenth
Ġwe b
ab ella
ub ble
Ġbewild er
ĠAc ademy
ic er
Ġcompar ative
Ġpubl isher
Ġh ull
ees e
Ġcorre cted
bour ne
ĠP ole
iter ated
Ġd ia
Ġexc used
Ġentr usted
occup ied
Ġgrad ual
ĠMos cow
ĠA aron
Ġmin istry
ĠChan cell
Ġp ension
Ġv oted
ĠPhil osop
Ġfirm ness
Ġcorrect ly
Ġexception al
Ġdo gged
Ġst ony
Ġpar ap
IV E
Ġrib bons
Ġlaun ched
Ġus ur
Ġapp alling
Ġmurm uring
enc er
Ġto ys
Ġnot able
Other s
Ġdisple ased
ĠD od
ĠD ead
Ġlo ath
Ġjur is
ĠP age
Ġsp ies
Ġche ering
Ġassoci ate
u en
Ġt ang
Ġmet e
Ġhus hed
Ġsupp osition
Ġboy hood
,' "
ii i
Ġecclesiast ical
Ġp aws
ĠS pr
ard y
Ġdis ast
Ġal arming
Ġrec ur
ĠT ob
Ġconf idently
Ġcor p
Ġvine gar
Ġneut ral
Ġo t
ĠS ue
Ġlower ing
Ġpenet rating
Ġf ade
ing le
ĠStr ong
Ġmart ial
Ġbaff led
Ġwas ting
ĠG aul
Ġha ze
ĠP H
ĠTh ird
Ġconvers ion
ĠP el
In st
Ġdel usion
IL D
Ġom itted
Ġwe ed
Ġconf erred
ĠIll inois
ĠBe ck
ĠPol ice
ill on
He aven
Ġpe el
Ġprodig ious
Ġwork man
h im
Ġfl own
AR Y
3 5
Ġb attered
Ġportra its
ĠBl anche
Ġplac id
Ġo le
Ġam end
H el
Ġbr ist
Ġvale t
Ġbet rot
Ġhost ility
A pp
Ġqu ivered
Ġcar n
Ġmagist rates
Ġcongrat ulate
ĠCÃ¦ sar
el come
i very
ĠH ob
ĠH iram
Ġcrit ics
Ġan ts
Ġind ec
Ġillum inated
Ġprostr ate
' ?"
Ġm ice
ĠN ear
ĠEd in
ĠCount ry
Ġsigh s
Ġlat itude
Ġwill ow
ount able
Ġsn akes
Ġun g
Ġshut ting
Ġmood s
ĠSher man
g om
um per
Ġmin ing
Ġunf it
Ġcompet ent
Ġbesee ch
ĠM oore
ĠS um
Ġj am
ag s
Ġmus h
Ġident ified
Ġye a
Ġreg ained
cha l
Ġbe arer
ĠD ark
4 4
Ġb ould
Ġexcurs ion
Ġpro ving
ĠShe ll
Ġgre edy
Ġbehav ior
ĠWigg ily
Ġaccident al
emet ery
M on
un n
Did n
Ġemer ald
Ġflatter ing
ĠT hings
le en
Ġla ure
ĠDra ke
d s
Ġhill side
ĠK it
Ġte aches
Ġpit cher
ĠEve lyn
ĠRus sell
Ġb a
Ġli ar
Ġfast en
Ġlif eless
Ġentreat ed
Ġreason ably
Ġped est
Ġscramb led
ĠL im
ater nal
ÃĦÃ ´
ĠE t
Ġwhis pers
Ġhint s
Ġteasp oonful
Ã Ń
Ġno ses
Ġdri ves
Ġimpl ored
Ġbar rels
c as
ot ent
Ġ' "
in ch
Ġw al
Ġsw itch
Ġsk ipper
Ġyouth s
Ex actly
Ġdisreg ard
Ġd ip
OU SE
p ro
er on
ay ne
ĠT W
ĠBe hold
Ġth igh
Ġ3 1
ĠMag n
Ġsne er
Ġflu id
Ġundist urbed
Ġqu ote
Ġprocl amation
Ġrep ay
ower ing
ph in
ĠAugust ine
Hen ry
ĠFr itz
Ġhon ors
Ġid leness
ro be
ĠP ra
Ġdespair ing
ĠAssemb ly
F urther
Ġsp ider
Ġbay on
ĠExcell ency
ĠAb ove
c ence
Ġa ching
Ġdem ons
Ġ^ '
Ġchoo sing
Ġgrat ification
Ġp ard
Ġpill ar
Ġhe aling
id ers
ĠW OR
p ose
ĠV iv
ĠSm all
ĠH ipp
Ġcons umm
ĠLuc illa
ĠH op
ĠG R
aff old
Ġtrem ulous
Ġexert ions
Ġt ucked
Ġrep orter
Ġresolute ly
I mp
Ġun rest
Ġch ocolate
Ġpan el
ĠBeat rice
; âĢĶ
Ġemotion al
Ġmission aries
Ġepis ode
Ġde leg
ĠStan ley
ĠBax ter
ĠS H
Ġenthusi ast
Ġm ound
ric ate
Ġbrig ade
Ġbru ised
S it
s er
ĠE ight
Ġcha plain
ĠPr iscilla
ĠPap a
E h
Ġas pir
Ġwar like
Ġaffect ing
Ġsin ners
on ial
Ġestim ated
ues e
f s
Ġattrib ute
Ġwe e
Ġascend ing
ĠMed iter
Ġfamiliar ity
ant ing
ĠY ard
Ġclean ed
Look ing
Ġvolunt ary
et e
Ġmarvel ous
Ġadvertis ement
ĠB ir
ile e
Ġrem inisc
ĠNor ah
Ġoath s
on na
oubt less
Ġban ner
T E
Ġshut ters
Ġemphat ically
Ġrequis ite
ĠM ain
Ġwo ven
Ġlect ures
Ġcomprehens ion
ĠHun ter
B ar
Ġh ob
Ġadminist ered
Ġalle ged
ĠInd ies
Ġbuck et
Ġcorpor al
E ng
Ġv owed
Ġsub ter
Ġeman cip
Ġg eese
ĠL ab
ĠGu ard
Ġbapt ism
ĠVic ar
Ġed ged
Ġexcl usive
Ġstates man
Ġgamb ling
Ġinterp re
Ġd ent
Ġrel ish
Ġill eg
ĠBert ha
Ġcraw ling
ĠCamp bell
our able
Ġsc affold
Ġfear fully
Ġpack age
T Y
Ġgood ly
Ġcont ing
Ġstar vation
Ġpi geon
Ġsc ores
erest ed
Ġsense less
Ġaccompan ying
Ġconsult ation
Ġinsens ible
ĠR upert
Ġj ug
ĠAnd erson
Ġpat ted
Ġantiqu ity
Ġv otes
ĠW omen
ĠCab inet
Ġbr ink
Ġmed itation
d own
âĢĶ '
Ġstr aining
Ġassoci ates
ĠMild red
Ġcom ic
Ġinstinct ive
Ġcom in
Ġbar ber
Where fore
ĠG RE
Ġle gged
Ġdev ised
Ġinf ancy
Be hind
Ġsimpl est
Ġcrumb s
Ġs ciences
ro st
Ġseam en
d ling
Ġh ides
Ġgr ains
ss es
Ġoblig ations
Ġinex pl
Ġm it
Ġr owed
ol ve
Ġcons umption
Ġneed less
Ġspot ted
Ġpit ied
h ill
Ġlet s
Ġ3 9
U C
Ġthick ness
Ġre ap
Ġprec ision
ĠS ocrates
ĠMc G
Ġad ored
Ġwa ver
Ġcel estial
ac it
ĠSw itzer
ĠMont ague
Ġrem ed
Ġsec urely
Ġten ant
av in
pect ive
ĠA ur
Le ave
ĠM it
Ġmad man
ĠSt ation
Ġer a
V III
Ġp ail
Ġperpet ually
Ġflut ter
Ġbeck oned
im o
Ġac he
Ġopp ression
Ġt iss
und y
str ong
id y
Ġnight mare
Ġha l
Ġg ems
ĠTheod ore
ĠMar cus
Ġt li
Ġdis ord
ĠX XX
O ften
b us
Ġt ain
Ġsc ope
ĠJ ason
Ġprop ag
ĠPat ty
Ġsc ur
Ġinsp ire
Ġnoiseless ly
Ġf erry
ĠK arl
Ġhard est
Ġanticip ation
Ġc av
ie re
oub led
Ġfer o
Ġrender ing
ĠBas il
ĠV ernon
Ġmist y
Ġwid th
Ġsubs ided
Ġdistrib ution
ĠR en
Ġend uring
Ã ³
Ġv ows
Ġfl ashes
p ole
arent ly
Ġghost ly
Ġr amb
Ġun av
Ġun sc
Ġhel ps
Ġloc ality
Ġreluct ance
ĠColumb ia
ĠBalt imore
v il
orn ing
OR E
Ġb enches
Ġag ency
Ġsuggest s
ul c
ĠT ry
ick ering
Ġsc rib
Ġconf inement
Ġchat tering
Ġfl ann
Ġres ented
Ġres urrection
b ook
Ġyear ning
ĠK han
Ġearthqu ake
Ġdeg ener
Ġinward ly
Ġhe i
ĠP oly
Ġtur b
in ished
ĠCl oud
ĠCrom well
k n
Ġbl and
res a
u ition
Ġst oop
Ġgl ove
Ġretreat ing
? ...
Ġen force
Ġsing er
Ġthread s
Ġdra per
ĠQ U
ĠL upin
Ġsub d
Ġtit les
r ows
Ġtr out
Ġarist ocracy
Ġstre wn
Ġdire ctor
ĠTur key
ĠMaur ice
ĠT ham
ange l
Ġbus ily
ĠRuss ians
Ġprovin cial
Ġnecess ities
Ġrust ic
See ing
Ġincess ant
Ġm ig
ĠB us
od s
Ġunmistak able
ĠM au
ĠY ellow
Ġche ers
ĠR io
Ġjoy fully
p hed
it ives
Ġd usky
ĠD EAR
Ġcord ially
aver ing
Ġb ang
Ġmet aphys
Ġvill a
oy le
oth ic
Ġrepl ace
Ġhistor ian
ĠEdin burgh
Ġd ated
ĠMediter ranean
ĠBo hem
ĠMal colm
Ġall ied
Ġadj usted
Ġbes et
Ġher bs
ĠCle ment
ĠC ame
ĠH erc
Ġcon vert
H ur
Ġmin er
uff s
Ġmag ician
) :
ĠD a
Ġsleep s
Ġcommence ment
ĠA ges
ĠR est
Ġneg lig
Ġglim ps
Ġinterf ered
Ġhaunt s
u ber
Ġpo ll
ĠPortug uese
Ġabomin able
ĠV jOOQ
^ '
Ġr he
Ġspeech less
ograph ical
Ġcoinc idence
on ic
Ġas se
Ġplate au
3 3
h oun
ĠAustri an
Ġout p
Ġhered itary
Ġ18 0
ĠWar ren
Foot note
Ġm ature
or pe
ĠR ud
Ġovert ake
Ġob e
Fort unately
Ġk itten
Ġb ureau
st an
ĠCha pter
Ġexhaust ion
ol o
br ook
Ġdom ain
Ġconstit u
Ġprecip ice
iz zy
Ġcirc ulation
Ġcross es
Ġenlar ged
Ġnight fall
ĠGw end
Ġfero cious
h ist
ag u
pend ing
Ġdra ft
Ġr uddy
Ġsavage ly
Ġbark ing
Ġp s
Ġachieve ment
Å ĵ
ĠD om
Ġsuggest ive
Ġprint ing
Ġfor ts
Ġsk illed
ĠYanke e
i h
ort ing
ĠColumb us
g ering
Ġcontrovers y
in ople
Ġb ann
Ġhelpless ly
n ity
ĠS ib
Ġcon ced
Ġcr isp
Ġadvers ary
mans hip
er ic
sw ald
Ġdraw ers
t ion
ĠS cience
Ġhard ships
Ġshame ful
ĠWind s
L ou
f ound
Ġeng ross
Ġbenef its
Ġg ifted
Ġgriev ous
ĠGod frey
Ġobject ive
Ġsigh ing
Ġunivers ally
Ġchal k
ol ine
6 0
ill er
Ġbra very
Ġvers ion
Ġincess antly
l ier
pe lling
Ġshad y
Ġaffection ately
ĠFer gus
Ġrod s
Ġvex ation
Ġcom er
Ġo unce
Ġphant om
Ġt rod
ĠB ack
est one
Ġgrand son
ĠSil as
ĠCiv il
um a
ĠOr der
Phil ip
ĠS alt
Ġwood ed
Ġmock ery
Ġkick ing
o king
t te
Ġbur dens
Ġbust le
Ġform ula
Ġut il
Ġmoan ed
Ġkn it
Ġdest itute
Ġhypothes is
ĠC oss
ĠB elle
ĠL ar
Ġaf resh
Ġdiscl osed
ĠSwitzer land
Ġco b
Ġhyp not
at ha
ĠH ale
ĠWin chester
ĠMess rs
ort ion
Ġord ained
th ink
Ġwip ing
th ia
ĠL an
ci bly
Ġwis est
ĠT ennes
Ġch rist
Ġmus cular
Ġphotograph s
o z
Ġble ak
Ġdiscont ent
om a
Ġintr ud
ĠH em
ĠD ec
Ġcontrad iction
ige ons
it ar
Ġfresh ness
in us
Ġinvolunt ary
Ġmin ers
g ery
ĠO d
Ġt umbling
ĠL ap
boy s
ĠSe ven
Ġgild ed
ĠF leda
Ġad ore
ib al
Ġmin i
ĠAp ollo
Ġacc ursed
ham med
Ġper ceptible
Ġr ails
Ġchan nels
OU G
Ġimmort ality
bo at
Ġtar get
Ġoppon ents
ac ent
gr ims
Ġglist ening
Ġdyn am
Ġtrim med
ĠC ru
Ġind ication
Ġret iring
ĠGr iff
ĠT ony
Ġside walk
ĠCor ps
Ġtoler ably
at re
Ġdev ices
Ġschool master
Ġillust rated
Ġp ens
Ġref erring
Ġdeep ened
Ġconv incing
Ġhat ch
ĠBless ed
M ark
ĠW atson
ĠR y
Ġbree ches
ĠMars hal
Ġboast ed
ĠS C
Ġbeg g
Ġinvestig ate
Ġpond ered
b out
h ouses
ĠS aul
ĠT HAT
ĠJac ques
Ġtires ome
Ġtr otted
ĠR ound
Ġexc uses
Ġconc rete
Ġdelic ately
Ġhosp itable
Ġtrad ers
Ġatt ic
ĠR ain
Ġinf all
Ġdr ums
Ġblind ly
ĠâĢ ĵ
n is
Ġrehe ars
Ġdef y
Ġess ay
Ġmelt ing
Ġenvelop ed
ab s
Ġcr um
Ġdream y
Ġid ly
ĠRay mond
Ġse ct
Ġwa il
Ġfond ly
Ġestab l
Ġbat hing
Ġso aked
Ġpers piration
Ġprov oked
Ġpatriot ic
Ġs angu
ĠT ree
Ġgr umbled
Ġla unch
Ġhero ine
Ġm att
Ġfold ing
Ġforeign er
Ġbal anced
Ġdoubt fully
Ġaccident ally
Ġreluct ant
Ġwhit eness
ol itan
ud ic
Ġmad ly
' ."
p ie
Ġca ress
ld on
ĠEust ace
H arry
Ġcomm iss
ĠBl ood
Ġ4 5
ĠCr us
ĠAch illes
T hy
Ġw ither
Ġse ren
Ġair y
Ġcold ness
Ġpled ged
Ġdun geon
Ġtelesc ope
ÅĮÄĨÃ ĸ
Ġg ear
Ġtor ches
ĠScript ures
owd er
Ġconceal ment
Ġpam ph
w ind
Ġclim ax
Ġun se
Ġdet er
Ġrid ers
Ġplent iful
Ġtranquill ity
che l
Ġfain ting
Ġsecond ary
Ġamount ed
Ġdirect ing
Ġf ading
Ġsw arm
Ġass ailed
fl ies
Ġdiv inity
Ġuns uccess
Ġw ards
ĠF a
Ġhat es
ĠHelen a
Ġmars h
ass y
ĠH are
Ġchat ter
ĠU ntil
Ġmet all
Ġfors aken
Ġexter ior
Ġt acit
Ġfe lic
ĠP har
Ġen forced
ĠDub lin
A ye
Ġg ilt
Ġpatriot ism
Ġp ins
ĠB ened
ĠLe ague
Ġsympath ies
ud ged
Ġtwist ing
Ġti pt
Ġpet tic
Ġmagnific ence
Ġrefresh ment
Ġbefall en
Ġhe aved
ly sses
Ġst umbling
Ġdin ners
Ġmill s
Ġimprove ments
Ġdisast rous
ĠTham es
ĠL ance
Ġem inence
Ġproject ed
Ġprov iding
Ġvivid ly
Ġbind ing
ent ieth
Ġce as
Ġtw in
ĠRog ers
ĠConstant inople
C ont
When ever
c ott
Ġr ung
ĠSl ow
c ould
ĠBe a
Ġuns atisf
Ġhe aled
le by
ĠVen et
es ide
Ġhot els
St range
AT H
u ction
Ġw rigg
Ġsl iding
Ġgrace fully
Ġcivil isation
op her
Ġstraight way
Ġf oc
ant ine
Ġgloom ily
Ġl ag
ĠB or
Ġmat rim
Ġag gra
Ġkn ots
Ġendeav ouring
Ġf oo
W on
erv a
Ġmas cul
Ġweigh ing
ĠS out
Ġblack s
Ġmon sters
ĠBe et
ĠIre ne
Ġmagn itude
Ġspark led
ic ip
Ġrese arch
E arly
Ġse als
ĠP ic
Ġshock ing
ĠTennes see
ĠD rew
Ġbreast s
Ġr ites
ĠJ ere
Ġsl ice
ugg ing
Ġimposs ibility
Ġcoun c
ĠM uch
Ġun self
Ġind ol
Al ways
ot hered
Ġgr ind
ark er
Ġvis ibly
Ġpost erity
Ab ove
et ch
Ġemb arked
Ġshr inking
Ġstro ll
Ġcart s
ell ing
Ġdet achment
ĠF ree
Ġconf eder
Ġro oted
Ġpuzz le
Ġsquir rel
Ġre eds
oo ps
ĠB iff
Ġper chance
Ġsubord inate
Ġoutl ines
rid ges
Ġj elly
ĠE ff
Ġflo ors
Ġcultiv ate
Ġmini ature
ĠD ef
am iliar
un a
un ces
Ġimp ost
Ġsick ly
OW N
Ġvan qu
ne ver
ĠSc ots
F oll
Ġp ane
Ġh ing
ĠH ester
ist a
ĠP ere
Ġcol oss
ul ity
ĠD O
âĢ ¦
Ġsur ge
Ġdem ocratic
Ġl atch
ĠB ib
Ġdim ensions
Ġdis qu
Ġorgan ic
Ġrad io
Ġlap se
ĠP av
Ġm err
ĠM ik
Ġbenevol ent
if ty
Ġli ed
Ġag on
Ġreal ization
Ġstra it
ĠGrand father
pe f
Ġfort ified
Ġslipp ery
Ġsal mon
ĠUrs ula
Ġgra pes
Ġcalm ness
B eyond
Ġp uls
Ġinexpl icable
Ġhoarse ly
Ġthe ft
Ġtr u
Ġfaint est
ĠRepublic an
Ġinsol ence
Ġgro ves
ĠGeorg ia
ke l
ĠC ic
Ġpersu asion
y ne
Ġmy ri
Ġcom eth
ĠK al
Ġbe re
ĠSw iss
Ġappar ition
Ġround s
R ic
Ġal p
Ġout come
Ġmod ified
ĠC ord
ones ome
Ġeff iciency
Ġdefect s
Ġbewilder ment
Ġv oll
Ġcar ing
ĠV i
Ġcourt iers
Ġcheerful ness
Ġaven ge
Ġindic ating
Ġaccum ulated
Ġorche stra
Ġt ests
Ġdepos it
Ġwill s
ĠD addy
ĠN a
Ġrest oration
Ġb un
HE N
Ġthro bbing
Ġd ough
Ġexcept ions
Ġcott ages
c ery
Ġt am
ĠM od
ol ks
Ġscrut iny
M aster
v i
ĠL ois
Ġref inement
ĠB uff
Ġtow ering
Ġrid ges
Ġcapt ives
Ġmirac ulous
ĠR an
Ġmet als
Ġfor cibly
Ġinter m
f ish
Ġeff ic
Ġchap ters
Ġcontempt uous
Ġcha ps
Ġn un
Ġcl asping
ord e
AT ES
Ġhe al
og ne
ĠRe becca
ĠM oll
Ġsc ented
Ġoper ate
Ġflour ish
Ġindustri ous
Ġthorn s
Ġindescrib able
Ġr aged
Col onel
h l
ar re
Ġkn itting
ĠTh orn
Ġdia lect
ut ton
ĠL em
Ġnin th
Ġdisc er
Ġbound less
b eth
Ġv io
Ġcho ir
Ġexert ed
Ġtrif les
Ġover s
Ġoccup ations
ĠG aw
ĠFlor ida
Ġorth odox
Ġtick ets
Ġappe aling
ĠM ercy
ĠP ad
ĠR oll
M art
Ġpa wn
Ġinconven ience
ci an
Ġod our
Ġrece iver
Ġspeed y
Ġmet rop
AS S
Ġunl ocked
Ġcha uff
Ġrel ics
Ġrul ing
ĠHenri etta
Ġv ot
Ġdef erence
ĠDav y
Ġrevolution ary
Ġenlight en
ĠIn quis
Ġweek ly
ĠTal bot
ĠV e
IN C
Ġ6 0
Ġperform ing
ĠS han
Ġten ants
Ġappl aud
Ġc emetery
or ial
o ise
Ġr ides
ĠNew man
Ġuns us
ĠJosh ua
Ġcomp ound
Ġel astic
Ġavoid ing
C le
Ġsha ggy
ib us
Ġt umb
Ġj et
Ġclean ing
Ġdi ary
Ġencl osure
qu in
Ġleng then
at ures
ĠM illy
ĠN ame
ĠU s
Ġabsurd ity
B ring
Ġcl ump
Ġdoub ly
ĠLa ure
Ġdestru ctive
Ġsm othered
ier re
Ġtheat rical
Ġmay or
ĠMo hammed
Ġmerr iment
m el
Ġappe als
Ġmusic ian
gra ve
Ġlong est
ĠH appy
ĠB eyond
Ġgr aciously
Ġsn ows
Ġst ung
ct ing
Ġgr uff
ĠFour th
Ġtw ins
Ġsix pence
Ġcontempor ary
v ings
Ġr uth
Ġwhere of
ĠBet ter
Ġt an
Ġp anted
Ġord ering
Ġstre ak
Ġsex es
Ġforb ade
Ġfug itives
Ġdo se
ĠG ulf
Ġsanct uary
Ġalco hol
en ne
Ġovert ook
Ġt ested
op l
Ġris ks
p iece
Ġfur s
ĠChancell or
Ġen m
Ġche ery
Ġcrowd ing
Ġrain y
Ġqual ified
Ġrec ourse
i ences
Ġso j
Ġweak ened
Ġinv aded
Ġexplod ed
Ġhand ing
Ġgrat ify
Ġstif led
Ġtw igs
Ġast ray
Ġcert ific
Ġrel ates
Ġtall er
Ġpl aus
op y
Ġprop hes
IC K
ĠD oll
Ġneed les
Ġt ure
ven ant
ĠN az
empt ion
Ġcontrib ute
Ġattrib utes
Ġrhe um
Ġimpl ies
l on
Ġimp enet
Ġco ins
Ġhe res
ade qu
Ġgu ineas
Ġinqu est
Ġaltern ately
Ġan ce
Ġsk irm
Ġbutter fly
Ġvit ality
ĠG i
Ġdist aste
Ġwa iling
Ġmuzz le
e very
Ġde ception
Ġdeliber ation
ĠSwed en
b one
ĠA k
ĠD ol
ĠJul iet
ĠRh ine
or ie
Ġwould st
ĠU pper
Ġsle igh
ĠSher idan
Ġpic nic
p a
ĠD im
Ġnew com
ĠBet ween
Ġfil thy
ĠSte ven
C r
ĠA ut
cl oth
bb les
Ġelephant s
U ntil
per haps
Ġcustom er
Ġtas ks
ĠE dd
atter s
ĠBra z
e ven
ĠE den
ĠGlad stone
Ġnot orious
ĠD olly
is a
Ġfear less
Ġpill ows
Ġwist ful
Ġstr at
Ġmotion ed
ĠAsh ton
Ġrec re
Ġcapt ivity
Ġvac ation
Ġtum ble
Ġl ashes
ĠD y
ĠR ap
ĠSt ock
Ġmerc iless
Ġphys ically
Ġmat ron
Ġfring e
ĠL A
Ġam iss
ĠDid n
Ġloos ened
_ ?"
ag a
ĠDun can
u ld
Ġre ctor
,' '
Ġappro x
Ġaut hent
ĠSund ays
Ġfaire st
Ġintegr ity
Ġ ence
J ul
Ġcha os
Ġsign ify
Ġprev ailing
ĠMow bray
i ency
ĠW AS
ĠT hanks
Ġund one
ĠDick ens
Ġlust re
Ġinfam ous
Ġtrans f
Ġconvict ions
Ġin ve
Ġswe aring
Ġrain bow
Ġtravel ers
Ġrein force
ĠH av
ra ve
Ġtempor al
Ġfisher men
ĠN ina
Ġunc overed
ĠSpani ard
ĠSup reme
Ġthe ology
ĠR un
Ġtrans action
Ġve in
Ġhorr ified
Ġa ims
Ġg igg
ĠE thel
Ġsk im
Ġblack smith
Ġhistor ic
Ġpuff ed
om ers
ĠP end
Ġthro ats
Ġphil anth
Ġgar ret
Ġfrank ness
Ġpost ure
ĠCow per
ĠG iles
Ġstr ate
Ġimpro bable
Ġa version
Ġcons ole
Ġreg ain
Ġhoriz ont
Ġpool s
Ġhospit als
b les
cc asion
ig ion
Ġappro aches
low e
nd el
ic an
ĠC ond
Ġgovern ments
Ġmicro sc
c row
Ġha p
Ġtend s
Ġsl ices
Ġem inently
Ġdel ivery
Ġprotect ing
elie ve
Ġdr ill
Ġcas ually
ĠL ud
Ġhard y
Ġcast les
ĠCar leton
Ġpop ul
ĠSam my
Rob ert
Ġdisadvant age
Ġmascul ine
" [
ish ness
es us
ow ay
Ġqu ot
ct ure
gom ery
, *
Ġdemand ing
Ġproject ing
Ġspark s
V ENT
Sh ort
Ġdu pl
Ġpr one
Ġpurs uits
R ather
Ġd ad
Ġsc outs
Ġdomin ions
Ġcompens ation
Ġmischie vous
Ġr ural
Ġclear ness
ĠNor way
ĠJud ith
ha p
Ġg um
Ġser mons
Dav id
ĠG OD
ĠWar wick
J ane
Ġexpress es
Ġo unces
ĠH OUSE
Ġdep rive
ĠH undred
Ġper ils
Ġdisc rim
Ġin adequ
n et
Ġb ass
Ġrel inqu
Ġaccept able
S pe
ĠPro bably
Ġh i
Ġsupp lic
Ġt utor
Ġr aced
Ġexp anse
Ġsuperf icial
W al
o iled
Ġimp ly
Ġsn atch
Ġr ally
Ġcur ses
Ġtest ified
Ġr ations
r ift
ĠP or
ĠF arm
Ġdis se
Ġcont end
Ġbol ted
Ġprogram me
ĠIn ter
Ġbold ness
Ġding y
Ġcrou ching
Ġm ates
Ġwa its
Ġt ension
Ġr and
Ġcor al
Ġnob ler
Ġdist orted
Ġsmell ing
Ġsne ered
Ġnegot iations
ĠHer od
pend icular
Ġrecollect ions
Ġclut ching
o ors
Ġb irch
ĠI ce
Ġcl aw
ab ilities
ĠW a
Ġar ouse
ĠBur ke
c ont
ors hip
Ġspl ash
Ġconscient ious
Ġamate ur
3 7
Ġon ions
a fe
ly mp
Ġlangu id
Ġcontempl ate
Ġhabit ation
Ġan on
Ġfl att
Ġconv icted
ĠOs borne
im ity
b ling
on ne
ie ft
Ġpowd ered
ĠOther s
ĠHosp ital
ĠP ink
Ġpro x
Ġsqu ares
Ġmult ip
he ast
id ated
Ġre pt
ĠS ummer
3 8
