{"<s>":0,"<pad>":1,"</s>":2,"<unk>":3,"!":4,"\"":5,"#":6,"$":7,"%":8,"&":9,"'":10,"(":11,")":12,"*":13,"+":14,",":15,"-":16,".":17,"/":18,"0":19,"1":20,"2":21,"3":22,"4":23,"5":24,"6":25,"7":26,"8":27,"9":28,":":29,";":30,"<":31,"=":32,">":33,"?":34,"@":35,"A":36,"B":37,"C":38,"D":39,"E":40,"F":41,"G":42,"H":43,"I":44,"J":45,"K":46,"L":47,"M":48,"N":49,"O":50,"P":51,"Q":52,"R":53,"S":54,"T":55,"U":56,"V":57,"W":58,"X":59,"Y":60,"Z":61,"[":62,"\\":63,"]":64,"^":65,"_":66,"`":67,"a":68,"b":69,"c":70,"d":71,"e":72,"f":73,"g":74,"h":75,"i":76,"j":77,"k":78,"l":79,"m":80,"n":81,"o":82,"p":83,"q":84,"r":85,"s":86,"t":87,"u":88,"v":89,"w":90,"x":91,"y":92,"z":93,"{":94,"|":95,"}":96,"~":97,"¡":98,"¢":99,"£":100,"¤":101,"¥":102,"¦":103,"§":104,"¨":105,"©":106,"ª":107,"«":108,"¬":109,"®":110,"¯":111,"°":112,"±":113,"²":114,"³":115,"´":116,"µ":117,"¶":118,"·":119,"¸":120,"¹":121,"º":122,"»":123,"¼":124,"½":125,"¾":126,"¿":127,"À":128,"Á":129,"Â":130,"Ã":131,"Ä":132,"Å":133,"Æ":134,"Ç":135,"È":136,"É":137,"Ê":138,"Ë":139,"Ì":140,"Í":141,"Î":142,"Ï":143,"Ð":144,"Ñ":145,"Ò":146,"Ó":147,"Ô":148,"Õ":149,"Ö":150,"×":151,"Ø":152,"Ù":153,"Ú":154,"Û":155,"Ü":156,"Ý":157,"Þ":158,"ß":159,"à":160,"á":161,"â":162,"ã":163,"ä":164,"å":165,"æ":166,"ç":167,"è":168,"é":169,"ê":170,"ë":171,"ì":172,"í":173,"î":174,"ï":175,"ð":176,"ñ":177,"ò":178,"ó":179,"ô":180,"õ":181,"ö":182,"÷":183,"ø":184,"ù":185,"ú":186,"û":187,"ü":188,"ý":189,"þ":190,"ÿ":191,"Ā":192,"ā":193,"Ă":194,"ă":195,"Ą":196,"ą":197,"Ć":198,"ć":199,"Ĉ":200,"ĉ":201,"Ċ":202,"ċ":203,"Č":204,"č":205,"Ď":206,"ď":207,"Đ":208,"đ":209,"Ē":210,"ē":211,"Ĕ":212,"ĕ":213,"Ė":214,"ė":215,"Ę":216,"ę":217,"Ě":218,"ě":219,"Ĝ":220,"ĝ":221,"Ğ":222,"ğ":223,"Ġ":224,"ġ":225,"Ģ":226,"ģ":227,"Ĥ":228,"ĥ":229,"Ħ":230,"ħ":231,"Ĩ":232,"ĩ":233,"Ī":234,"ī":235,"Ĭ":236,"ĭ":237,"Į":238,"į":239,"İ":240,"ı":241,"Ĳ":242,"ĳ":243,"Ĵ":244,"ĵ":245,"Ķ":246,"ķ":247,"ĸ":248,"Ĺ":249,"ĺ":250,"Ļ":251,"ļ":252,"Ľ":253,"ľ":254,"Ŀ":255,"ŀ":256,"Ł":257,"ł":258,"Ń":259,"Ġt":260,"he":261,"Ġa":262,"in":263,"Ġthe":264,"Ġw":265,"Ġs":266,"Ġo":267,"re":268,"nd":269,"ha":270,"er":271,"ou":272,"Ġb":273,"ed":274,"Ġm":275,"is":276,"it":277,"Ġf":278,"Ġc":279,"en":280,"Ġof":281,"on":282,"Ġto":283,"Ġand":284,"ing":285,"or":286,"Ġd":287,"es":288,"Ġp":289,"ll":290,"Ġin":291,"Ġh":292,"ar":293,"Ġl":294,"as":295,"Ġhe":296,"an":297,"at":298,"Ġn":299,"Ġha":300,"om":301,"Ġg":302,"Ġbe":303,"hat":304,"le":305,"ĠI":306,"ot":307,"ic":308,"ow":309,"Ġe":310,"ut":311,"ve":312,"ld":313,"ly":314,"Ġth":315,"im":316,"Ġwas":317,"id":318,"Ġy":319,"st":320,"Ġthat":321,"se":322,"gh":323,"ent":324,"Ġre":325,"Ġit":326,"Ġon":327,"Ġ\"":328,"ce":329,"ion":330,"Ġu":331,"Ġyou":332,"ay":333,"al":334,"et":335,"ver":336,"ir":337,"ith":338,"Ġwh":339,"Ġfor":340,"Ġhis":341,"Ġas":342,"ur":343,"Ġwith":344,"Ġwe":345,"Ġst":346,"ad":347,"The":348,"Ġr":349,"ght":350,"Ġis":351,"Ġhad":352,"ac":353,"Ġnot":354,"Ġan":355,"her":356,"Ġher":357,"oo":358,"am":359,"ould":360,"Ġat":361,"ter":362,"if":363,"ill":364,"ke":365,"Ġse":366,"ain":367,"ĠM":368,"Ġme":369,"ri":370,"Ġhim":371,"ĠS":372,"ĠA":373,"ro":374,"red":375,"Ġsa":376,"ch":377,"ct":378,"'s":379,"Ġsu":380,"il":381,"ess":382,"ĠH":383,".\"":384,"ight":385,"ore":386,"Ġshe":387,"Ġso":388,"Ġde":389,"Ġhave":390,"Ġk":391,"Ġfr":392,"all":393,"ome":394,"pe":395,"ich":396,"Ġby":397,"Ġmy":398,"ĠB":399,"Ġbut":400,"Ġall":401,"ul":402,"ĠC":403,"ge":404,"Ġcon":405,"Ġwhich":406,"Ġne":407,"ĠThe":408,"qu":409,"Ġup":410,"Ġsh":411,"and":412,"th":413,"Ġfrom":414,",\"":415,"Ġdo":416,"us":417,"Ġwere":418,"est":419,"Ġthis":420,"Ġthey":421,"Ġor":422,"Ġwhe":423,"Ġsaid":424,"Ġex":425,"pp":426,"ant":427,"ble":428,"Ġv":429,"res":430,"ation":431,"ard":432,"ust":433,"ous":434,"Ġman":435,"nt":436,"ĠW":437,"ĠT":438,"Ġwho":439,"Ġone":440,"our":441,"Ġli":442,"ers":443,"em":444,"Ġal":445,"lf":446,"Ġfe":447,"Ġare":448,"Ġkn":449,"ist":450,"Ġthem":451,"ind":452,"very":453,"Ġno":454,"os":455,"ra":456,"art":457,"ame":458,"ong":459,"ie":460,"Ġint":461,"out":462,"ĠP":463,"Ġwould":464,"ood":465,"ol":466,"ast":467,"Ġwor":468,"ound":469,"ĠG":470,"Ġout":471,"um":472,"Ġcom":473,"Ġthere":474,"ig":475,"Ġtheir":476,"Ġab":477,"Ġle":478,"ĠL":479,"un":480,"ate":481,"one":482,"ked":483,"ough":484,"han":485,"Ġbeen":486,"'t":487,"ak":488,"Ġwill":489,"itt":490,"own":491,"od":492,"pt":493,"ĠD":494,"ive":495,"ven":496,"Ġj":497,"Ġtr":498,"Ġpl":499,"ĠF":500,"ort":501,"el":502,"reat":503,"Ġwhen":504,"?\"":505,"ther":506,"ell":507,"Ġgo":508,"hed":509,"ost":510,"self":511,"ack":512,"ity":513,"Ġpro":514,"ace":515,"ure":516,"Ġag":517,"ide":518,"ose":519,"au":520,"Ġif":521,"ĠHe":522,"Ġwhat":523,"ake":524,"Ġcould":525,"ĠE":526,"Ġar":527,"Ġqu":528,"Ġsp":529,"ry":530,"Ġun":531,"Ġtim":532,"Ġcan":533,"ck":534,"ag":535,"Ġany":536,"Ġaf":537,"Ġmore":538,"Ġyour":539,"Ġinto":540,"hing":541,"op":542,"ĠJ":543,"ĠR":544,"Ġsome":545,"Ġpr":546,"ved":547,"ine":548,"nder":549,"ect":550,"ies":551,"Ġcl":552,"ep":553,"ĠN":554,"ice":555,"ook":556,"Ġbr":557,"ĠO":558,"Ġknow":559,"Ġus":560,"Ġam":561,"ass":562,"Ġ'":563,"are":564,"Ġother":565,"way":566,"Ġtw":567,"urn":568,"ence":569,"Ġdid":570,"able":571,"Ġlike":572,"Ġtime":573,"Ġsha":574,"Ġen":575,"Ġvery":576,"ite":577,"ought":578,"ittle":579,"Ġro":580,"fore":581,"Ġthan":582,"Ġdis":583,"Ġabout":584,"ance":585,"Ġgr":586,"Ġim":587,"Ġday":588,"ove":589,"other":590,"ered":591,"cc":592,"ade":593,"ink":594,"ment":595,"Ġlittle":596,"Ġch":597,"ap":598,"âĢ":599,"ally":600,"Ġover":601,"Ġsee":602,"Ġbl":603,"Ġhas":604,"pl":605,"ish":606,"wn":607,"ud":608,"ĠMr":609,"ab":610,"ci":611,"Ġtoo":612,"Ġnow":613,"Ġagain":614,"ng":615,"Ġad":616,"Ġthen":617,"Ġhand":618,"end":619,"He":620,"!\"":621,"ings":622,"ond":623,"Ġour":624,"âĢĶ":625,"ars":626,"ire":627,"Ġsay":628,"Ġgreat":629,"age":630,"Ġupon":631,"Ġonly":632,"ress":633,"Ġshould":634,"Ġfl":635,"ert":636,"ff":637,"ile":638,"ree":639,"ife":640,"Ġoff":641,"Ġdown":642,"ather":643,"ount":644,"ord":645,"ue":646,"ves":647,"ving":648,"ĠAnd":649,"Ġafter":650,"You":651,"Ġper":652,"ick":653,"Ġthr":654,"Ġmade":655,"ied":656,"It":657,"oy":658,"ĠIt":659,"Ġbefore":660,"Ġits":661,"ious":662,"ary":663,"uch":664,"ild":665,"ull":666,"Ġpo":667,"Ġpe":668,"act":669,"ions":670,"Ġgood":671,"per":672,"Ġtwo":673,"ated":674,"Ġhow":675,"ful":676,"Ġmust":677,"Ġlong":678,"Ġstr":679,"Ġpre":680,"Ġway":681,"ward":682,"ness":683,"Ġfir":684,"oll":685,"Ġcha":686,"led":687,"Ġpart":688,"Ġcame":689,"Ġrem":690,"Ġthink":691,"Ġsm":692,"Ġunder":693,"ps":694,"orn":695,"Ġnever":696,"Ġold":697,"Ġback":698,"ans":699,"Ġmuch":700,"Ġey":701,"ave":702,"Ġevery":703,"ere":704,"ĠBut":705,"Ġsuch":706,"ft":707,"Ġcont":708,"Ġbec":709,"ach":710,"Ġcome":711,"ady":712,"Ġspe":713,"Ġsc":714,"Ġwhere":715,"Ġeven":716,"Ġmay":717,"Ġgl":718,"ise":719,"ried":720,"old":721,"cl":722,"Ġbet":723,"Ġfirst":724,"Ġmen":725,"Ġown":726,"Ġthought":727,"But":728,"Ġye":729,"Ġ_":730,"iss":731,"Ġdes":732,"Ġlook":733,"ber":734,"ew":735,"ark":736,"Ġthese":737,"Ġob":738,"hen":739,"Ġres":740,"we":741,"ty":742,"Ġwell":743,"Ġseem":744,"ath":745,"oss":746,"Ġhimself":747,"ouse":748,"ily":749,"Ġsl":750,"Ġmight":751,"ign":752,"Ġwent":753,"Ġjust":754,"ang":755,"Ġthrough":756,"Ġfa":757,"ne":758,"int":759,"Ġget":760,"Ġlife":761,"Ġhere":762,"And":763,"Ġlet":764,"ĠK":765,"Ġcomp":766,"Ġimp":767,"anc":768,"Ġbeg":769,"iz":770,"Ġatt":771,"Ġcr":772,"Ġpass":773,"ater":774,"ip":775,"ons":776,"Ġfri":777,"Ġaway":778,"Ġind":779,"Ġmake":780,"Ġ1":781,"ened":782,"Ġbel":783,"Ġke":784,"Ġturn":785,"Ġcall":786,"ory":787,"ĠShe":788,"Ġshall":789,"Ġhead":790,"Ġcons":791,"Ġmost":792,"Ġeyes":793,"less":794,"omet":795,"ause":796,"iv":797,"Ġacc":798,"iff":799,"Ġwr":800,"Ġthose":801,"ared":802,"Ġwork":803,"Ġnight":804,"ever":805,"Ġlast":806,"hes":807,"og":808,"Ġent":809,"Ġfound":810,"ĠSt":811,"Ġwom":812,"his":813,"Ġword":814,"Ġap":815,"Ġop":816,"Ġhouse":817,"Ġcour":818,"Ġ;":819,"Ġte":820,"Ġcomm":821,"Ġbeing":822,"Ġret":823,"Ġwithout":824,"Ġstill":825,"Ġpres":826,"oth":827,"man":828,"Ġmany":829,"les":830,"Ġwant":831,"ople":832,"Ġtell":833,"ase":834,"ors":835,"Ġtake":836,"ren":837,"Ġroom":838,"ens":839,"pect":840,"Ġapp":841,"ult":842,"Ġser":843,"Ġloo":844,"Ġright":845,"Ġfriend":846,"ub":847,"ition":848,"av":849,"Ġdon":850,"Ġhar":851,"ible":852,"ian":853,"ict":854,"Ġsomet":855,"igh":856,"Ġear":857,"Ġcar":858,"Ġyoung":859,"Ġplace":860,"ĠV":861,"Ġface":862,"Ġpeople":863,"Ġend":864,"Ġsaw":865,"Ġheart":866,"atter":867,"hy":868,"Ġput":869,"Ġlo":870,"Ġsame":871,"Ġever":872,"Ġnothing":873,"ia":874,"Ġchild":875,"Ġwhile":876,"mer":877,"'ll":878,"aking":879,"Ġnew":880,"te":881,"so":882,"alk":883,"Ġbo":884,"thing":885,"owed":886,"med":887,"Ġac":888,"Ġco":889,"aw":890,"Ġonce":891,"Ġlooked":892,"Ġdist":893,"Ġfar":894,"..":895,"Ġthings":896,"gg":897,"sw":898,"Ġrep":899,"Ġlight":900,"Ġmind":901,"ertain":902,"Ġmar":903,"ently":904,"lt":905,"ince":906,"Ġlove":907,"In":908,"ished":909,"Ġsupp":910,"Ġrec":911,"Ġanother":912,"She":913,"Ġleft":914,"Ġ(":915,"ations":916,"ways":917,"oment":918,"Ġhapp":919,"Ġmoment":920,"ĠCh":921,"Ġtook":922,"ower":923,"Ġthough":924,"ĠGod":925,"Ġcount":926,"Ġset":927,"Ġasked":928,"Ġsec":929,"ody":930,"Ġthing":931,"Ġinst":932,"ret":933,"Ġfind":934,"ener":935,"ix":936,"ss":937,"ject":938,"ced":939,"ling":940,"Ġyet":941,"Ġworld":942,"Ġwa":943,"ained":944,"Ġem":945,"ical":946,"pped":947,"Ġact":948,"Ġansw":949,"Ġple":950,"ock":951,"ows":952,"Ġfoll":953,"sel":954,"Ġgot":955,"ĠIn":956,"Ġarm":957,"land":958,"den":959,"irl":960,"Ġgoing":961,"Ġseemed":962,"ank":963,"Ġthree":964,"air":965,"Ġalways":966,"Ġsub":967,"Ġnat":968,"rew":969,"Ġappe":970,"ru":971,"Ġgi":972,"Ġpers":973,"There":974,"ted":975,"Ġfather":976,"Ġdoor":977,"Ġrel":978,"get":979,"Ġdiff":980,"Ġsur":981,"Ġord":982,"Ġgive":983,"Ġknew":984,"ope":985,"und":986,"Ġtold":987,"Ġunt":988,"Ġyears":989,"Ġwar":990,"Ġposs":991,"Ġchan":992,"ched":993,"Ġheard":994,"ĠĠ":995,"ĠYou":996,"Ġgu":997,"ail":998,"Ġagainst":999,"ither":1000,"ning":1001,"Ġfeel":1002,"ner":1003,"ĠâĢĶ":1004,"aught":1005,"Ġchar":1006,"ple":1007,"here":1008,"ged":1009,"Ġhome":1010,"Ġgirl":1011,"ting":1012,"Ġinf":1013,"Ġfew":1014,"ĠMrs":1015,"Ġhands":1016,"Ġsw":1017,"cess":1018,"What":1019,"Ġsomething":1020,"iver":1021,"Ġwoman":1022,"Ġev":1023,"Ġfell":1024,"ined":1025,"Ġsat":1026,"ib":1027,"Ġkind":1028,"Ġexp":1029,"ĠThey":1030,"Ġreturn":1031,"ual":1032,"ited":1033,"ial":1034,"cept":1035,"ool":1036,"Ġvo":1037,"Ġbelie":1038,"ired":1039,"Ġrest":1040,"Ġwind":1041,"orm":1042,"most":1043,"Ġside":1044,"Ġconf":1045,"Ġstre":1046,"Ġmother":1047,"Ġreg":1048,"iness":1049,"Ġalso":1050,"ents":1051,"Ġbecause":1052,"Ġdone":1053,"Ġsoon":1054,"ob":1055,"ised":1056,"ier":1057,"aut":1058,"Ġdisc":1059,"ross":1060,"We":1061,"Ġnear":1062,"Ġhour":1063,"Ġass":1064,"Ġbre":1065,"oub":1066,"Ġsil":1067,"aid":1068,"Ġseen":1069,"ĠY":1070,"uth":1071,"Ġboy":1072,"Ġenough":1073,"ween":1074,"Ġdel":1075,"Ġcle":1076,".'":1077,"They":1078,"Ġhalf":1079,"ully":1080,"Ġeach":1081,"Ġcare":1082,"Ġref":1083,"Ġcourse":1084,"Ġmin":1085,"Ġbetter":1086,"Ġhard":1087,"uck":1088,"Ġquite":1089,"Ġwater":1090,"Ġcalled":1091,"xt":1092,"Ġname":1093,"Ġread":1094,"Ġbetween":1095,"Ġturned":1096,"ense":1097,"Ġcertain":1098,"Ġter":1099,"'d":1100,"Ġins":1101,"ale":1102,"This":1103,"aken":1104,"fect":1105,"Ġmo":1106,"Ġocc":1107,"ĠThere":1108,"Ġdr":1109,"ks":1110,"ont":1111,"atch":1112,"Ġmorn":1113,"owing":1114,"Then":1115,"Ġ*":1116,"ĠWe":1117,"Ġhum":1118,"Ġkeep":1119,"ces":1120,"Ġhel":1121,"Ġpur":1122,"ction":1123,"Ġadd":1124,"Ġche":1125,"Ġmatter":1126,",'":1127,"aster":1128,"ĠU":1129,"Ġwhole":1130,"ying":1131,"Ġtre":1132,"ason":1133,"Ġdays":1134,"Ġadv":1135,"osed":1136,"'m":1137,"Ġinc":1138,"Ġgave":1139,"Ġbegan":1140,"ten":1141,"Ġste":1142,"Ġcur":1143,"ute":1144,"Ġsent":1145,"Ġdra":1146,"up":1147,"Ġinter":1148,"orr":1149,"Ġpoint":1150,"Ġdoes":1151,"ĠEng":1152,"az":1153,"Ġmorning":1154,"Ġmon":1155,"iet":1156,"HE":1157,"Ġfelt":1158,"ular":1159,"ating":1160,"oc":1161,"Ġvoice":1162,"Ġstand":1163,"Ġalmost":1164,"its":1165,"Ġsmall":1166,"Ġpleas":1167,"ates":1168,"Ġboth":1169,"att":1170,"vel":1171,"Ġlar":1172,"Ġca":1173,"Ġsure":1174,"ures":1175,"Ġel":1176,"Ġwhom":1177,"selves":1178,"Ġtoward":1179,"Ġgener":1180,"Ġnor":1181,"Ġtra":1182,"oud":1183,"No":1184,"Ġwords":1185,"ĠMiss":1186,"Ġsk":1187,"Ġopen":1188,"ange":1189,"Ġfam":1190,"not":1191,"aint":1192,"Ġfore":1193,"ins":1194,"'ve":1195,"Ġfact":1196,"ned":1197,"ung":1198,"Ġmyself":1199,"haps":1200,"Ġstood":1201,"Ġbus":1202,"Ġdark":1203,"Ġmean":1204,"Ġamong":1205,"oke":1206,"Ġext":1207,"ĠTh":1208,"Ġland":1209,"Ġeff":1210,"Ġuntil":1211,"Ġbu":1212,"Ġbest":1213,"Ġsou":1214,"ters":1215,"Ġneed":1216,"Ġhear":1217,"ph":1218,"ured":1219,"unt":1220,"ention":1221,"als":1222,"rib":1223,"Ġhaving":1224,"If":1225,"Ġvis":1226,"Ġround":1227,"Ġbrought":1228,"Ġanything":1229,"Ġquest":1230,"ately":1231,"Ġunderst":1232,"Ġless":1233,"Ġbro":1234,"Ġinv":1235,"Ġcountry":1236,"Ġbeaut":1237,"mb":1238,"Ġwhite":1239,"har":1240,"ĠFr":1241,"Ġmet":1242,"oot":1243,"ery":1244,"eed":1245,"Ġherself":1246,"erest":1247,"When":1248,"That":1249,"Ġpower":1250,"Ġsle":1251,"du":1252,"oney":1253,"Ġform":1254,"Ġpresent":1255,"Ġrepl":1256,"Ġuse":1257,"Ġcried":1258,"amp":1259,"nce":1260,"Ġdear":1261,"Ġhigh":1262,"ĠHis":1263,"Ġtalk":1264,"rist":1265,"Ġpoor":1266,"Ġdre":1267,"Ġwo":1268,"Ġsince":1269,"Ġdet":1270,"fully":1271,"Ġhelp":1272,"Ġaw":1273,"Ġfour":1274,"Oh":1275,"ird":1276,"ains":1277,"ief":1278,"Ġnext":1279,"ton":1280,"uring":1281,"ene":1282,"Ġtaken":1283,"Ġair":1284,"Ġrather":1285,"Ġprop":1286,"Ġreal":1287,"dden":1288,"ĠThen":1289,"Yes":1290,"ĠJo":1291,"me":1292,"ield":1293,"Ġcol":1294,"ably":1295,"Ġlau":1296,"Ġperson":1297,"iled":1298,"Ġdeath":1299,"Ġsun":1300,"Ġlooking":1301,"Ġinterest":1302,"ering":1303,"sh":1304,"Ġcond":1305,"Ġsuff":1306,"Ġdoub":1307,"Ġfull":1308,"Ġsim":1309,"Ġart":1310,"Ġgone":1311,"cei":1312,"ec":1313,"Ġplay":1314,"ken":1315,"Ġfeet":1316,"Ġswe":1317,"Ġhowever":1318,"Ġsudden":1319,"ĠWhat":1320,"Ġbeh":1321,"Ġfire":1322,"Ġfall":1323,"ey":1324,"Ġwife":1325,"Ġserv":1326,"Ġlay":1327,"Ġtoget":1328,"Ġtogether":1329,"Ġes":1330,"Ġcontin":1331,"Ġfin":1332,"iting":1333,"ressed":1334,"Ġstart":1335,"used":1336,"Ġide":1337,"Ġ2":1338,"Ġrun":1339,"Ġgent":1340,"ĠBr":1341,"ached":1342,"Ġbed":1343,"Ġalong":1344,"Ġreplied":1345,"pr":1346,"ison":1347,"Ġdire":1348,"Ġtill":1349,"Ġdec":1350,"Ġlarge":1351,"arr":1352,"vers":1353,"Ġgra":1354,"ments":1355,"Ġcannot":1356,"aim":1357,"As":1358,"Ġsn":1359,"Ġhope":1360,"Ġlaw":1361,"Well":1362,"ee":1363,"Ġadm":1364,"Ġhor":1365,"Ġmoney":1366,"ities":1367,"lic":1368,"Ġspeak":1369,"Ġbelieve":1370,"aring":1371,"ets":1372,"Ġanswered":1373,"Ġothers":1374,"Ġdef":1375,"Ġgiven":1376,"ĠIf":1377,"ash":1378,"ĠAn":1379,"Ġpassed":1380,"ĠMar":1381,"Ġdead":1382,"Ġdep":1383,"undred":1384,"Ġprom":1385,"Ġblack":1386,"Ġbook":1387,"Ġpol":1388,"ident":1389,"ĠAs":1390,"Ġalone":1391,"Ġremem":1392,"ĠThat":1393,"ued":1394,"fort":1395,"oun":1396,"Ġchildren":1397,"Ġhold":1398,"the":1399,"Ġdeep":1400,"ER":1401,"li":1402,"ided":1403,"ific":1404,"ĠTHE":1405,"ĠLord":1406,"ude":1407,"enty":1408,"Ġsound":1409,"Ġreason":1410,"oon":1411,"Ġstrong":1412,"Ġdiffere":1413,"Ġhundred":1414,"ually":1415,"Ġgentle":1416,"ĠFor":1417,"Ġdoubt":1418,"illed":1419,"Ġthemselves":1420,"Ġgre":1421,"Ġpri":1422,"ceed":1423,"Ġtrue":1424,"Ġspir":1425,"ĠChrist":1426,"Ġhon":1427,"Ġopp":1428,"Ġmil":1429,"over":1430,"At":1431,"Ġwhy":1432,"ants":1433,"uc":1434,"'re":1435,"Ġwonder":1436,"Ġwhose":1437,"aces":1438,"any":1439,"king":1440,"Ġexpl":1441,"Ġcase":1442,"Ġfur":1443,"Ġexc":1444,"Ġclose":1445,"Ġknown":1446,"ĠThis":1447,"Ġking":1448,"Ġsays":1449,"Ġbehind":1450,"ott":1451,"lish":1452,"akes":1453,"Ġground":1454,"Ġyear":1455,"Ġunc":1456,"ane":1457,"osition":1458,"ister":1459,"For":1460,"hn":1461,"ized":1462,"Ġunderstand":1463,"Ġsing":1464,"ides":1465,"Ġquestion":1466,"Ġnum":1467,"Ġleave":1468,"Ġlady":1469,"aced":1470,"Ġused":1471,"Ġthou":1472,"Ġeas":1473,"ĠAt":1474,"anger":1475,"Ġbody":1476,"ern":1477,"Ġpret":1478,"ider":1479,"ĠWhen":1480,"fter":1481,"Ġorder":1482,"Ġreally":1483,"Ġbur":1484,"Ġsign":1485,"ug":1486,"Ġbri":1487,"Ġele":1488,"Ġ.":1489,"Ġoften":1490,"Ġshort":1491,"ny":1492,"Ġsoul":1493,"ĠAr":1494,"Ġsy":1495,"Ġobs":1496,"Ġperhaps":1497,"ances":1498,"men":1499,"Ġleast":1500,"Ġindeed":1501,"Ġson":1502,"ready":1503,"ceived":1504,"Ġfive":1505,"Ġlear":1506,"Ġabove":1507,"Ġaround":1508,"empt":1509,"ho":1510,"So":1511,"Ġdro":1512,"overed":1513,"iful":1514,"Ġfear":1515,"Ġmeet":1516,"Ġsecond":1517,"Ġaff":1518,"Ġill":1519,"Ġabs":1520,"irc":1521,"body":1522,"Ġbrother":1523,"ines":1524,"aven":1525,"Ġsix":1526,"ts":1527,"Ġsir":1528,"ĠPr":1529,"Ġtimes":1530,"Ġcoming":1531,"eth":1532,"Ġsort":1533,"Ġred":1534,"Ġearth":1535,"Ġheld":1536,"outh":1537,"imes":1538,"How":1539,"Ġpap":1540,"Ġnecess":1541,"Ġlive":1542,"Ġfriends":1543,"iew":1544,"Ġhur":1545,"Ġalready":1546,"Ġexpect":1547,"ĠTo":1548,"Ġtown":1549,"ution":1550,"ousand":1551,"Ġitself":1552,"Ġ!":1553,"Th":1554,"ote":1555,"ger":1556,"ĠSo":1557,"Ġmis":1558,"alked":1559,"Ġwood":1560,"Ġra":1561,"ati":1562,"Ġed":1563,"Ġtable":1564,"Ġlea":1565,"Ġdev":1566,"Ġsea":1567,"Ġsum":1568,"Now":1569,"ians":1570,"Ġelse":1571,"Ġquick":1572,"erc":1573,"Ġthousand":1574,"Ġbring":1575,"Ġwithin":1576,"Ġwish":1577,"Ġten":1578,"Ġwomen":1579,"Ġwall":1580,"ages":1581,"aughter":1582,"Ġthy":1583,"Ġmeans":1584,"ek":1585,"ught":1586,"ony":1587,"Ġlost":1588,"ĠSir":1589,"Ġlist":1590,"ah":1591,"On":1592,"Ġhus":1593,"Ġbig":1594,"Ġkept":1595,"Ġdidn":1596,"Ġpast":1597,"Ġsight":1598,"ĠAl":1599,"Ġcirc":1600,"Ġclear":1601,"ĠJohn":1602,"Ġfair":1603,"Ġbusiness":1604,"iously":1605,"Ġbar":1606,"Ġevening":1607,"Ġhuman":1608,"uff":1609,"Ġbecame":1610,"Ġnature":1611,"Ġlead":1612,"Ġsleep":1613,"Ġtruth":1614,"Ġable":1615,"My":1616,"Ġreturned":1617,"Ġcold":1618,"Ġthus":1619,"Ġbit":1620,"ĠKing":1621,"Ġperfect":1622,"ĠIs":1623,"Ġcor":1624,"ime":1625,"Ġfoot":1626,"Ġcut":1627,"Ġbes":1628,"br":1629,"Ġask":1630,"Ġmaking":1631,"Ġletter":1632,"Ġobser":1633,"Ġpub":1634,"Ġir":1635,"erm":1636,"Ġobject":1637,"urd":1638,"ĠNo":1639,"Ġsubject":1640,"Ġgold":1641,"Ġmount":1642,"Ġpossible":1643,"hil":1644,"ats":1645,"Ġhorse":1646,"ility":1647,"Ġquiet":1648,"urch":1649,"Ġoffic":1650,"peri":1651,"Ġstrange":1652,"be":1653,"cious":1654,"Ġtri":1655,"Ġspr":1656,"ĠInd":1657,"Ġwalk":1658,"ĠSp":1659,"ĠBe":1660,"Ġwon":1661,"ended":1662,"Why":1663,"Ġroad":1664,"ative":1665,"itted":1666,"ump":1667,"Ġbad":1668,"Ġeither":1669,"Ġcent":1670,"Ġanswer":1671,"Ġsever":1672,"Ġwhether":1673,"Ġconst":1674,"ards":1675,"Ġacross":1676,"ĠEnglish":1677,"use":1678,"Ġdem":1679,"Ġ?":1680,"Ġmid":1681,"ctor":1682,"Ġpain":1683,"Ġsch":1684,"Ġlow":1685,"Ġpar":1686,"00":1687,"Ġstep":1688,"Ġexcl":1689,"Ġappear":1690,"cted":1691,"Ġappro":1692,"ster":1693,"ingly":1694,"Ġmanner":1695,"Ġwatch":1696,"To":1697,"Ġsto":1698,"Ġfamily":1699,"Ġbecome":1700,"Ġdri":1701,"Ġcharac":1702,"ham":1703,"Ġfort":1704,"ptain":1705,"Ġfree":1706,"ouble":1707,"band":1708,"ls":1709,"orrow":1710,"Ġready":1711,"Ġbegin":1712,"Ġbeautiful":1713,"Ġcap":1714,"Ġmaster":1715,"ism":1716,"Ġspirit":1717,"Ġduring":1718,"oor":1719,"Ġtowards":1720,"Ġsit":1721,"Ġest":1722,"Ġeffect":1723,"cial":1724,"bed":1725,"Ġarms":1726,"Ġshow":1727,"Ġsuddenly":1728,"uss":1729,"Ġthee":1730,"Ġidea":1731,"Ġarri":1732,"Ġfollowed":1733,"ef":1734,"Ġtherefore":1735,"Ġmere":1736,"Ġstory":1737,"Ġmonth":1738,"bit":1739,"Ġeverything":1740,"Ġstud":1741,"Ġmist":1742,"ĠQ":1743,"Ġblood":1744,"Ġspoke":1745,"Ġtou":1746,"Ġdiffic":1747,"Ġmus":1748,"Ġprof":1749,"utes":1750,"Ġwild":1751,"Ġeye":1752,"Ġslow":1753,"Ġdifferent":1754,"Ġsucc":1755,"ĠUn":1756,"Ġut":1757,"ead":1758,"Ġ:":1759,"Ġstra":1760,"Ġseveral":1761,"ract":1762,"Ġmove":1763,"Ġconc":1764,"Ġlad":1765,"Ġforg":1766,"Ġtem":1767,"airs":1768,"eng":1769,"Ġcomple":1770,"umb":1771,"Ġdream":1772,"ames":1773,"Ġconsider":1774,"Not":1775,"Ġhusband":1776,"Ġcity":1777,"His":1778,"Ġeng":1779,"Ġnatur":1780,"ĠHow":1781,"Ġexpress":1782,"Ġprin":1783,"ift":1784,"gr":1785,"enc":1786,"Ġrose":1787,"ney":1788,"Ġpossess":1789,"itting":1790,"son":1791,"ĠHer":1792,"Ġglad":1793,"by":1794,"ĠAll":1795,"Ġmod":1796,"ination":1797,"Ġfine":1798,"Ġprev":1799,"Ġexcept":1800,"meric":1801,"Ġreached":1802,"Ġcommand":1803,"Ġpartic":1804,"Ġrequ":1805,"Ġhair":1806,"owd":1807,"ury":1808,"ising":1809,"Ġdog":1810,"une":1811,"antly":1812,"ones":1813,"idence":1814,"Ġdiv":1815,"ley":1816,"ON":1817,"Ġran":1818,"Ġstay":1819,"Ġsurpr":1820,"Ġshad":1821,"Ġbreat":1822,"Ġwanted":1823,"aimed":1824,"alth":1825,"pend":1826,"Ġself":1827,"Ġsuppose":1828,"Ġdraw":1829,"ement":1830,"side":1831,"All":1832,"Ġtwenty":1833,"Ġfront":1834,"Ġrespect":1835,"Ġequ":1836,"ĠMy":1837,"ĠAmeric":1838,"ĠDe":1839,"gin":1840,"rench":1841,"fe":1842,"Ġimport":1843,"Ġheav":1844,"Ġbreak":1845,"Ġsense":1846,"ety":1847,"Ġremember":1848,"Ġdecl":1849,"Ġsuccess":1850,"Ġsold":1851,"Ġpray":1852,"tern":1853,"isf":1854,"Ġtrans":1855,"Ġesc":1856,"ĠGr":1857,"Ġleg":1858,"Ġlonger":1859,"Ġgeneral":1860,"Ġriver":1861,"Ġcal":1862,"Ġfav":1863,"Ġpie":1864,"ĠCl":1865,"Ġsecret":1866,"oint":1867,"Ġwindow":1868,"Ġstate":1869,"Ġcharacter":1870,"lled":1871,"Ġview":1872,"Ġoccas":1873,"Ġsus":1874,"Ġought":1875,"ush":1876,"ĠNew":1877,"ms":1878,"owers":1879,"Ġprep":1880,"Ġexam":1881,"Ġdin":1882,"Ġdest":1883,"Ġcross":1884,"omp":1885,"Ġjud":1886,"Ġprov":1887,"Ġaccount":1888,"Ġlater":1889,"Ġho":1890,"Ġsweet":1891,"Ġseems":1892,"dle":1893,"for":1894,"Ġfellow":1895,"Ġhours":1896,"omm":1897,"aj":1898,"ax":1899,"Ġcry":1900,"iter":1901,"ices":1902,"Ġopened":1903,"Ġconv":1904,"ased":1905,"arent":1906,"Ġappeared":1907,"Ġsqu":1908,"Ġpay":1909,"Ġfig":1910,"Ġforward":1911,"IN":1912,"Ġhappy":1913,"Ġprodu":1914,"Ġve":1915,"ches":1916,"Ġsaying":1917,"Ġcoll":1918,"Ġsoft":1919,"ots":1920,"Ġcorn":1921,"Ġdeal":1922,"_,":1923,"Ġworth":1924,"?'":1925,"Ġcre":1926,"Ġcreat":1927,"where":1928,"ented":1929,"Ġfight":1930,"medi":1931,"Ġvar":1932,"aged":1933,"Ġline":1934,"Ġhast":1935,"ric":1936,"Ġtried":1937,"Ġcommon":1938,"Ġhot":1939,"Ġfre":1940,"itude":1941,"oes":1942,"Ġcarried":1943,"Ġlaugh":1944,"ges":1945,"Ġpurp":1946,"Ġchair":1947,"Ġexist":1948,"Ġtaking":1949,"attle":1950,"Ġimag":1951,"ified":1952,"Ġpretty":1953,"ĠOn":1954,"ugg":1955,"ledge":1956,"Ġprob":1957,"ĠCa":1958,"Ġcontinued":1959,"Ġreceived":1960,"Ġfeeling":1961,"ĠEngland":1962,"Ġbright":1963,"Ġmag":1964,"Ġdoing":1965,"otion":1966,"Ġ18":1967,"Ġenem":1968,"ushed":1969,"Ġpublic":1970,"Ġled":1971,"iling":1972,"Ġcast":1973,"Ġ3":1974,"Ġnumber":1975,"Ġregard":1976,"Ġadded":1977,"Ġce":1978,"Ġwin":1979,"ize":1980,"ilt":1981,"hile":1982,"Ġdanger":1983,"raid":1984,"iar":1985,"Ġfaith":1986,"Ġschool":1987,"Ġquar":1988,"ped":1989,"Ġmem":1990,"Ġcarry":1991,"Ġdaughter":1992,"ality":1993,"though":1994,"Ġship":1995,"Ġsal":1996,"Ġanim":1997,"Ġsatisf":1998,"Ġstri":1999,"Ġjoy":2000,"cul":2001,"Ġport":2002,"Ġpict":2003,"irt":2004,"vern":2005,"Ġwat":2006,"ĠFrench":2007,"illi":2008,"Ġvisit":2009,"mp":2010,"Ġprot":2011,"Ġfif":2012,"ev":2013,"Ġminutes":2014,"Ġ[":2015,"Ġdisp":2016,"Ġentered":2017,"pping":2018,"Ġwhis":2019,"ature":2020,"Ġval":2021,"Ġbene":2022,"Ġarr":2023,"ient":2024,"Ġyourself":2025,"oof":2026,"Ġbird":2027,"Ġsometimes":2028,"ĠSc":2029,"Ġacqu":2030,"Ġhappened":2031,"Ġrock":2032,"Ġsad":2033,"dd":2034,"ously":2035,"Ġchief":2036,"Ġparty":2037,"Ġdut":2038,"riage":2039,"Ġimmedi":2040,"Ġfast":2041,"Ġcause":2042,"Ġru":2043,"arch":2044,"Ġyes":2045,"Ġearly":2046,"aining":2047,"Ġsend":2048,"Ġcomes":2049,"Ġscar":2050,"Ġfield":2051,"Ġhill":2052,"Ġrid":2053,"Ġeight":2054,"Ġrepe":2055,"erv":2056,"Ġbey":2057,"ex":2058,"Ġliving":2059,"Ġforth":2060,"gy":2061,"Ġposition":2062,"Ġbeyond":2063,"Ġafraid":2064,"Ġvill":2065,"Ġago":2066,"resh":2067,"Ġmine":2068,"Ġmiles":2069,"One":2070,"Ġnecessary":2071,"tered":2072,"Ġchange":2073,"Ġdesc":2074,"ening":2075,"ounded":2076,"Ġentire":2077,"ists":2078,"wards":2079,"ĠOF":2080,"Ġfurther":2081,"Ġlived":2082,"Ġnearly":2083,"AN":2084,"ĠLady":2085,"ĠWith":2086,"Ġparticular":2087,"Ġoccasion":2088,"Ġmouth":2089,"Ġprison":2090,"Ġdelight":2091,"Ġtry":2092,"Ġpract":2093,"Ġwalked":2094,"ging":2095,"Ġsilence":2096,"Ġtrees":2097,"Ġsett":2098,"ĠNow":2099,"ues":2100,"ĠPar":2101,"ler":2102,"Ġlate":2103,"inct":2104,"Ġsugg":2105,"Ġanx":2106,"Ġlab":2107,"Ġpeace":2108,"ically":2109,"Ġinqu":2110,"Ġsuggest":2111,"ĠNor":2112,"ghed":2113,"Ġnews":2114,"Ġhat":2115,"Ġchance":2116,"Ġauth":2117,"Ġtree":2118,"Ġblue":2119,"rs":2120,"ĠDo":2121,"Ġsol":2122,"Ġdress":2123,"inary":2124,"well":2125,"Ġage":2126,"Ġtrouble":2127,"Ġsmile":2128,"ĠPet":2129,"Ġaccord":2130,"ship":2131,"Ġdirect":2132,"head":2133,"Ġexclaimed":2134,"Ġcomfort":2135,"Ġplain":2136,"els":2137,"Ġinfl":2138,"Ġtop":2139,"ĠBl":2140,"Ġaffect":2141,"Ġgard":2142,"io":2143,"Ġnone":2144,"Ġwit":2145,"ze":2146,"amed":2147,"Ġmad":2148,"rupt":2149,"With":2150,"Ġresult":2151,"day":2152,"read":2153,"Ġthinking":2154,"Ġlips":2155,"Ġwrong":2156,"Ġhung":2157,"Ġgrand":2158,"Ġplan":2159,"ics":2160,"Ġstreng":2161,"Ġforce":2162,"Ġang":2163,"to":2164,"Ġenc":2165,"ask":2166,"Ġgentleman":2167,"Ġeat":2168,"After":2169,"Ġexperi":2170,"icked":2171,"Ġleng":2172,"Ġstopped":2173,"ply":2174,"Ġhist":2175,"ager":2176,"Ġbuild":2177,"Ġmiss":2178,"Ġtor":2179,"ored":2180,"na":2181,"Ġcertainly":2182,"rible":2183,"Ġtreat":2184,"Ġlaid":2185,"Ġbear":2186,"Ġsens":2187,"Ġann":2188,"ius":2189,"ES":2190,"OR":2191,"iol":2192,"itten":2193,"Ġing":2194,"Ġda":2195,"but":2196,"Ġattempt":2197,"Ġdesp":2198,"ald":2199,"Ġstarted":2200,"let":2201,"ĠGe":2202,"Ġcaught":2203,"Ġpal":2204,"rom":2205,"AR":2206,"anced":2207,"iment":2208,"Ġlaughed":2209,"err":2210,"Ġcompan":2211,"Ġslowly":2212,"Ġheaven":2213,"Ġdrew":2214,"Ġcrowd":2215,"Ġjo":2216,"Ġstanding":2217,"Ġgreen":2218,"my":2219,"Ġclass":2220,"Ġpriv":2221,"that":2222,"Ġdied":2223,"Ġboat":2224,"Ġpurpose":2225,"Ġlength":2226,"Ġshar":2227,"Ġdie":2228,"what":2229,"Ġpaper":2230,"Ġneither":2231,"Ġknowledge":2232,"ogn":2233,"Ġfing":2234,"aded":2235,"Ġheavy":2236,"Ġfool":2237,"Ġclot":2238,"ĠCon":2239,"Ġnatural":2240,"Ġsister":2241,"Ġglass":2242,"ancy":2243,"Ġmeant":2244,"Ġknows":2245,"ries":2246,"Ġweek":2247,"...":2248,"erty":2249,"ondon":2250,"Ġslight":2251,"ork":2252,"Ġhardly":2253,"Ġauthor":2254,"eks":2255,"ĠChar":2256,"ĠMary":2257,"Ġrev":2258,"Ġstraight":2259,"Do":2260,"ming":2261,"EN":2262,"Ġbra":2263,"athe":2264,"Ġthir":2265,"joy":2266,"uct":2267,"Ġfollowing":2268,"ĠCol":2269,"ĠHar":2270,"Ġdeterm":2271,"ron":2272,"Ġpen":2273,"Ġopin":2274,"Ġboys":2275,"Ġcircum":2276,"Ġintell":2277,"ĠLe":2278,"Ġattention":2279,"II":2280,"ips":2281,"Ġprinci":2282,"Ġgetting":2283,"ĠOne":2284,"Ġcamp":2285,"Ġneigh":2286,"Ġgovern":2287,"ceive":2288,"ustom":2289,"Ġpleasure":2290,"ĠLondon":2291,"Ġast":2292,"Ġremained":2293,"Ġlim":2294,"Ġremark":2295,"Ġspo":2296,"een":2297,"ĠCar":2298,"val":2299,"ĠOh":2300,"itions":2301,"ape":2302,"ils":2303,"ament":2304,"Ġwis":2305,"Ġcourt":2306,"Ġburn":2307,"bs":2308,"isted":2309,"Ġfloor":2310,"Ġloved":2311,"Ġstreet":2312,"Ġmed":2313,"Ġpost":2314,"ĠOf":2315,"Ġdistance":2316,"ining":2317,"Ġsave":2318,"ives":2319,"Ġbroken":2320,"Ġhop":2321,"usion":2322,"!'":2323,"Ġgrew":2324,"ection":2325,"Ġneighb":2326,"Ġchurch":2327,"Ġproceed":2328,"Ġstruck":2329,"Ġsac":2330,"cially":2331,"hood":2332,"Ġdrink":2333,"Ġterr":2334,"Ġcomplete":2335,"Ġborn":2336,"An":2337,"ĠMad":2338,"Ġaccept":2339,"hant":2340,"Ġtrust":2341,"cient":2342,"Ġ^":2343,"sequ":2344,"Ġbott":2345,"Ġbound":2346,"ĠGer":2347,"Ġdinner":2348,"Ġgri":2349,"Ġlie":2350,"Ġcompany":2351,"Ġsafe":2352,"Ġconvers":2353,"Ġplaced":2354,"ĠOr":2355,"Ġmoved":2356,"ĠWhy":2357,"Ġgrow":2358,"Ġwaiting":2359,"Ġgun":2360,"ixed":2361,"Ġbank":2362,"Ġjour":2363,"ively":2364,"ences":2365,"Ġdesire":2366,"Ġmakes":2367,"),":2368,"Ġav":2369,"Ġdemand":2370,"Ġcompl":2371,"St":2372,"Ġmark":2373,"iers":2374,"ĠEd":2375,"Ġrelig":2376,"Ġrich":2377,"cend":2378,"TER":2379,"Ġstrength":2380,"Ġwait":2381,"Ġenjoy":2382,"Ġwarm":2383,"Ġmonths":2384,"Ġfilled":2385,"acy":2386,"Ġbelong":2387,"Ġforgot":2388,"app":2389,"ike":2390,"co":2391,"uit":2392,"Ġimposs":2393,"oured":2394,"Ġweak":2395,"Ġalthough":2396,"Ġeasy":2397,"aching":2398,"orge":2399,"Ġforget":2400,"Ġpull":2401,"Of":2402,"Ġexact":2403,"ĠBar":2404,"Ġquickly":2405,"uel":2406,"Ġrecogn":2407,"Ġfood":2408,"Ġoccup":2409,"Ġinn":2410,"ching":2411,"ina":2412,"Ġfle":2413,"HA":2414,"Ġsitting":2415,"dom":2416,"cely":2417,"ases":2418,"vere":2419,"Ġhig":2420,"ma":2421,"ires":2422,"Ġbreath":2423,"Ġwide":2424,"Ġeffort":2425,"Ġthoughts":2426,"orses":2427,"Ġservice":2428,"noon":2429,"Ġprobably":2430,"Ġimm":2431,"Ġfun":2432,"ories":2433,"Ġden":2434,"Ġyouth":2435,"Ġseeing":2436,"Ġdifficult":2437,"Ġtears":2438,"Ġthick":2439,"Ġincl":2440,"light":2441,"iced":2442,"Ġgirls":2443,"Ġfut":2444,"ĠWh":2445,"you":2446,"ital":2447,"Ġmerc":2448,"Ġstone":2449,"Ġsin":2450,"Ġoffice":2451,"Ġver":2452,"ĠJack":2453,"Ã©":2454,"Ġcircumst":2455,"urs":2456,"ises":2457,"Ġgaz":2458,"Ġdi":2459,"gan":2460,"Ġfat":2461,"Ġmurd":2462,"illy":2463,"Ġdepart":2464,"Ġshout":2465,"Ġimmediately":2466,"Ġhorses":2467,"ĠSe":2468,"Ġmention":2469,"Ġarmy":2470,"kes":2471,"Ġnarr":2472,"ration":2473,"Ġshowed":2474,"Ġfollow":2475,"Ġwritten":2476,"Ġbeauty":2477,"Ġbeside":2478,"Ġhall":2479,"olute":2480,"ĠTom":2481,"Ġ4":2482,"ĠNot":2483,"Ġbox":2484,"Ġoutside":2485,"Ġcontr":2486,"Ġtone":2487,"pic":2488,"Ġgreater":2489,"oom":2490,"Ġinflu":2491,"Ġviol":2492,"Ġdoctor":2493,"how":2494,"Ġcra":2495,"Ġafternoon":2496,"Ġpresence":2497,"ĠDr":2498,"Ġund":2499,"Ġimpossible":2500,"hys":2501,"Ġsilent":2502,"Ġduty":2503,"Ġenemy":2504,"ĠDon":2505,"Ġsick":2506,"ĠPro":2507,"Ġmarried":2508,"teen":2509,"Ġlord":2510,"Ġmor":2511,"Let":2512,"ĠAd":2513,"Ġhid":2514,"Be":2515,"ode":2516,"Ġrap":2517,"Ġbelow":2518,"par":2519,"Ġcoun":2520,"Ġsky":2521,"mon":2522,"Here":2523,"Ġthird":2524,"Ġgrave":2525,"ected":2526,"Ġgod":2527,"orted":2528,"Ġcouldn":2529,"amb":2530,"Ġfigure":2531,"Ġincre":2532,"Ġobt":2533,"Ġfresh":2534,"ency":2535,"Ġkiss":2536,"ume":2537,"Ġfright":2538,"Ġgarden":2539,"Ġcloud":2540,"ours":2541,"ests":2542,"udd":2543,"Ġpock":2544,"ploy":2545,"angu":2546,"Ġsnow":2547,"Ġemb":2548,"Ġyell":2549,"reme":2550,"_.":2551,"Ġraised":2552,"Ġespe":2553,"Ġobl":2554,"Ġbeginning":2555,"Ġsingle":2556,"Ġtrying":2557,"aled":2558,"Ġwouldn":2559,"Ġremain":2560,"ript":2561,"Ġcovered":2562,"olog":2563,"Ġvict":2564,"Ġarrived":2565,"ivid":2566,"Ġbroke":2567,"ounds":2568,"Ġguard":2569,"osp":2570,"Ġlatter":2571,"que":2572,"Ġcab":2573,"Ġproper":2574,"oe":2575,"idge":2576,"unity":2577,"Ġori":2578,"ĠZ":2579,"Ġinstead":2580,"ĠCaptain":2581,"Ġminute":2582,"Ġwhatever":2583,"Ġbattle":2584,"Ġusual":2585,"Ġappearance":2586,"Ġstop":2587,"Ġmerely":2588,"ĠRe":2589,"Ġlearned":2590,"Ġneg":2591,"ams":2592,"Is":2593,"cell":2594,"Ġemploy":2595,"Ġmoon":2596,"Ġresp":2597,"Ġlif":2598,"asure":2599,"Ġalt":2600,"gar":2601,"oved":2602,"Ġopinion":2603,"Ġpath":2604,"Ġcorner":2605,"Ġeager":2606,"ision":2607,"Ġfuture":2608,"Ġimportant":2609,"Ġfly":2610,"che":2611,"Ġtalking":2612,"ipp":2613,"ĠHen":2614,"Ġspot":2615,"Ġmusic":2616,"Ġwrite":2617,"uke":2618,"Ġexpression":2619,"Ġevil":2620,"Ġboard":2621,"Ġloc":2622,"erhaps":2623,"Ġneck":2624,"Ġforest":2625,"By":2626,"Ġgall":2627,"Ġhistory":2628,"Ġclosed":2629,"Ġsuc":2630,"Ġmess":2631,"oses":2632,"Ġexpected":2633,"Ġpati":2634,"Ġletters":2635,"wise":2636,"Ġpurs":2637,"onel":2638,"Ġplaces":2639,"Ġconcl":2640,"Ġformer":2641,"Ġspring":2642,"Ġshot":2643,"mn":2644,"ciety":2645,"Ġmill":2646,"Ġguess":2647,"Ġutter":2648,"Ġgiving":2649,"Ġbooks":2650,"itation":2651,"Ġsor":2652,"ov":2653,"pered":2654,"ĠLet":2655,"ĠFl":2656,"Ġeasily":2657,"unk":2658,"uted":2659,"Ġshut":2660,"ouses":2661,"Ġbless":2662,"Ġbell":2663,"Ġplease":2664,"Her":2665,"Ġkill":2666,"Ġrapid":2667,"Ġfash":2668,"Ġjourney":2669,"aul":2670,"Ġmorrow":2671,"Ġseven":2672,"ishing":2673,"race":2674,"Ġmaid":2675,"Ġpop":2676,"Ġsmiled":2677,"Ġpiece":2678,"Ġpolit":2679,"Ġvol":2680,"Ġshore":2681,"mber":2682,"ibly":2683,"Ġsuffic":2684,"Ġdoll":2685,"Ġconscious":2686,"form":2687,"Ġpat":2688,"Ġdirection":2689,"oly":2690,"tic":2691,"Ġorigin":2692,"Ġcou":2693,"ĠGerman":2694,"ivers":2695,"Ġspeaking":2696,"Ġsimple":2697,"Ġleaving":2698,"ox":2699,"....":2700,"Ġshook":2701,"atic":2702,"Ġespecially":2703,"Ġwrote":2704,"Ġconversation":2705,"velop":2706,"Ġclim":2707,"Ġfro":2708,"rent":2709,"zz":2710,"ples":2711,"clock":2712,"Ġaction":2713,"Ġturning":2714,"Ġenter":2715,"Ġstrugg":2716,"Ġhang":2717,"Ah":2718,"Ġty":2719,"Ġterrible":2720,"roy":2721,"Ġpassion":2722,"Ġmass":2723,"come":2724,"ays":2725,"Ġdeg":2726,"Ġisn":2727,"Ġentirely":2728,"Ġpun":2729,"ission":2730,"Ġrefle":2731,"cience":2732,"Ġdread":2733,"Ġvillage":2734,"osing":2735,"Ġlangu":2736,"Ġsole":2737,"ĠPhil":2738,"Ġkilled":2739,"ĠMan":2740,"appe":2741,"lling":2742,"Ġwished":2743,"Ġfashion":2744,"Ġphys":2745,"ĠWell":2746,"Ġrepeated":2747,"ĠRob":2748,"ĠCan":2749,"ĠEm":2750,"olly":2751,"jo":2752,"Ġcondition":2753,"ĠAmerican":2754,"These":2755,"Ġnote":2756,"Ġfamil":2757,"Ġdecided":2758,"Ġgen":2759,"ulty":2760,"Ġloud":2761,"zen":2762,"eneral":2763,"ĠFrance":2764,"Ġsucceed":2765,"Ġreply":2766,"erence":2767,"Ġsitu":2768,"uous":2769,"Ġresol":2770,"Ġbeat":2771,"Ġtrain":2772,"ech":2773,"Ġign":2774,"Ġsuper":2775,"Ġlives":2776,"iety":2777,"Ġconn":2778,"Ġoccur":2779,"Ġrepres":2780,"ĠPe":2781,"Ġpale":2782,"Ġsummer":2783,"ator":2784,"Ġcat":2785,"ipped":2786,"IS":2787,"iod":2788,"ĠBy":2789,"Ġtender":2790,"ior":2791,"Ġperm":2792,"Ġreach":2793,"Mr":2794,"Ġsimply":2795,"Ġinstant":2796,"Ġescape":2797,"Ġmer":2798,"Ġball":2799,"Ġdim":2800,"Ġgro":2801,"Ġearn":2802,"Ġmarry":2803,"Don":2804,"rel":2805,"rest":2806,"ashed":2807,"idered":2808,"Ġexperience":2809,"Ġsteps":2810,"AT":2811,"eness":2812,"Ġobserved":2813,"Ġrunning":2814,"Ġmut":2815,"Ġpa":2816,"Ġclothes":2817,"Ġwatched":2818,"Ġfurn":2819,"Ġpleasant":2820,"Ġpaid":2821,"Ġlearn":2822,"Where":2823,"Ġsurprise":2824,"Ġfal":2825,"Ġthrew":2826,"Al":2827,"Ġscarcely":2828,"ĠGeorge":2829,"Ġdarkness":2830,"Ġsmo":2831,"acked":2832,"bb":2833,"Ġfirm":2834,"Ġchanged":2835,"ĠMay":2836,"Ġpicture":2837,"uly":2838,"Ġisland":2839,"Ġrain":2840,"Ġgoes":2841,"Ġlean":2842,"ession":2843,"Ġunto":2844,"semb":2845,"Ġextra":2846,"retched":2847,"ether":2848,"aff":2849,"hip":2850,"ĠX":2851,"Ġafterwards":2852,"uge":2853,"Ġdiscovered":2854,"urm":2855,"Ġstar":2856,"Ġallowed":2857,"Ġattack":2858,"Ġpit":2859,"Ġi":2860,"Ġbitter":2861,"Ġsorry":2862,"Ġopport":2863,"Ġciv":2864,"inite":2865,"Ġtast":2866,"Ġcost":2867,"Ġnation":2868,"Ġgrace":2869,"Ġimpress":2870,"Ġbab":2871,"Ġtouch":2872,"Ġlot":2873,"Ġcalm":2874,"Ġperiod":2875,"Ġestab":2876,"ray":2877,"ument":2878,"stem":2879,"ĠEl":2880,"Ġpersons":2881,"Ġwinter":2882,"itable":2883,"fast":2884,"alley":2885,"Ġhonour":2886,"Ġoper":2887,"Ġoblig":2888,"ĠHim":2889,"ĠĠĠ":2890,"Ġsepar":2891,"Ġiron":2892,"aped":2893,"Some":2894,"Ġsomewhat":2895,"Ġhost":2896,"rodu":2897,"Ġears":2898,"asp":2899,"under":2900,"arer":2901,"now":2902,"Ġconsequ":2903,"itary":2904,"Ġaccording":2905,"ĠJes":2906,"Ġwalls":2907,"Ġvirt":2908,"Ġgrass":2909,"bered":2910,"Ġdescrib":2911,"Ġleaves":2912,"ague":2913,"Ġdropped":2914,"Ġmiddle":2915,"Ġshr":2916,"Ġlying":2917,"ĠFather":2918,"ĠGre":2919,"lend":2920,"Ġhouses":2921,"Ġhealth":2922,"OU":2923,"Ġvarious":2924,"ites":2925,"Ġgame":2926,"Ġlikely":2927,"Ġtrave":2928,"Ġbecom":2929,"Ġpress":2930,"Ġscene":2931,"Ġstorm":2932,"Ġflowers":2933,"ĠAN":2934,"Ġbeneath":2935,"Ġdeclared":2936,"Ġvan":2937,"Ġsail":2938,"Ġtall":2939,"orough":2940,"Ġperfectly":2941,"umed":2942,"Ġapart":2943,"Ġwise":2944,"Ġ5":2945,"Ġsong":2946,"ĠWas":2947,"Ġsword":2948,"Ġsand":2949,"ĠBrit":2950,"Ġbread":2951,"Ġcircumstances":2952,"Ġconcer":2953,"Ġabsolute":2954,"Ġwonderful":2955,"Ġsearch":2956,"ean":2957,"ĠQue":2958,"Ġspace":2959,"Ġapparent":2960,"Ġid":2961,"AL":2962,"Ġthirty":2963,"ille":2964,"Ġlooks":2965,"Ġspread":2966,"Ġbroad":2967,"Ġnoble":2968,"ĠPeter":2969,"ĠGeneral":2970,"Ġdry":2971,"Ġmarriage":2972,"Ġinform":2973,"ajor":2974,"Ġph":2975,"Ġworse":2976,"Ġpleased":2977,"ear":2978,"Ġment":2979,"Ġpocket":2980,"Ġdetermined":2981,"Ġhy":2982,"ĠTr":2983,"Ġinfluence":2984,"ĠEur":2985,"Ġcapt":2986,"Ġcho":2987,"Ġladies":2988,"Ġring":2989,"Ġbelieved":2990,"From":2991,"acher":2992,"fer":2993,"Ġpros":2994,"Ġunless":2995,"anch":2996,"Ġfrequ":2997,"Ġsharp":2998,"Ġmot":2999,"iny":3000,"gress":3001,"Ġempt":3002,"Ġsystem":3003,"Ġnice":3004,"Ġnotice":3005,"Ġhunt":3006,"Ġdelic":3007,"ral":3008,"HAP":3009,"Ġunderstood":3010,"action":3011,"Ġagre":3012,"Ġfavour":3013,"Ġfixed":3014,"Ġwear":3015,"erve":3016,"ĠChristian":3017,"Ġnorth":3018,"Ġones":3019,"Ġdisappe":3020,"inc":3021,"ails":3022,"ishment":3023,"Ġpure":3024,"Ġcaptain":3025,"Ġmountain":3026,"Ġgreatest":3027,"Ġdevelop":3028,"ĠStates":3029,"Ġfaint":3030,"Ġstat":3031,"Ġhes":3032,"Who":3033,"Ġcharge":3034,"Ġbrown":3035,"ĠHere":3036,"sed":3037,"enn":3038,"Ġblind":3039,"Ġspeech":3040,"Ġhabit":3041,"Ġcheer":3042,"cle":3043,"Ġfifty":3044,"overn":3045,"Ġways":3046,"idently":3047,"Ġconsidered":3048,"iction":3049,"Ġstro":3050,"Ġsociety":3051,"Ġhorr":3052,"Ġdrawn":3053,"Ġgenerally":3054,"Ġfinished":3055,"Ġglance":3056,"Ġburst":3057,"Ġadvant":3058,"Ġvain":3059,"Ġspec":3060,"Ġwasn":3061,"Ġsake":3062,"Ġspent":3063,"Ġsymp":3064,"Ġspite":3065,"Ġparts":3066,"right":3067,"Ġhappiness":3068,"Ġmain":3069,"Ġexactly":3070,"Ġadmir":3071,"Ġwand":3072,"Ġproud":3073,"ĠCr":3074,"Ġdepend":3075,"Ġtemper":3076,"Ġmater":3077,"ĠEurope":3078,"Ġclean":3079,"ett":3080,"hel":3081,"Ġseat":3082,"Ġpra":3083,"Ġoffered":3084,"Ġgovernment":3085,"ested":3086,"Ġcand":3087,"Ġdom":3088,"Ġspoken":3089,"Ġthin":3090,"Ġthro":3091,"ĠJim":3092,"Ġpromise":3093,"Ġrace":3094,"str":3095,"Ġconce":3096,"ĠYork":3097,"Ġaston":3098,"wo":3099,"Ġfail":3100,"oman":3101,"Ġbow":3102,"Ġcover":3103,"Ġformed":3104,"uded":3105,"ann":3106,"enced":3107,"Ġcontro":3108,"Ġdesert":3109,"Ġwaited":3110,"ĠQu":3111,"Ġsurr":3112,"Ġpoet":3113,"Ġbuilt":3114,"ĠParis":3115,".,":3116,"ium":3117,"hod":3118,"ĠPl":3119,"Ġla":3120,"Ġpassing":3121,"Ġcivil":3122,"Ġtea":3123,"Ġstudy":3124,"irth":3125,"ĠWhere":3126,"ĠAfter":3127,"Ġdisg":3128,"Ġlines":3129,"ford":3130,"Ġhonest":3131,"Ġcatch":3132,"Ġgate":3133,"yl":3134,"ĠFrom":3135,"Ġur":3136,"Ġstir":3137,"Ġfit":3138,"Ġtired":3139,"Ġserious":3140,"Ġattend":3141,"Ġsoldiers":3142,"Ġcreature":3143,"IT":3144,"Ġappre":3145,"ogether":3146,"hern":3147,"Ġweeks":3148,"Ġmurm":3149,"Ġservant":3150,"essel":3151,"oted":3152,"set":3153,"hard":3154,"Ġfallen":3155,"ĠSha":3156,"ĠPres":3157,"ky":3158,"cha":3159,"Ġindivid":3160,"Ġworking":3161,"Ġarg":3162,"Ġbirds":3163,"Ġcustom":3164,"Ġstream":3165,"Ġris":3166,"Ġtroo":3167,"Ġsilver":3168,"Ġharm":3169,"Ġprepared":3170,"Ġdrawing":3171,"Ġprivate":3172,"Ġinj":3173,"Ġquietly":3174,"Ġassist":3175,"ĠGovern":3176,"ees":3177,"Ġourselves":3178,"Ġcomb":3179,"Ġmemory":3180,"Ġtong":3181,"Ġhath":3182,"ĠLa":3183,"ys":3184,"elve":3185,"Ġuncle":3186,"Ġstation":3187,"Ġcourage":3188,"Ġdifficulty":3189,"Ġallow":3190,"Ġlower":3191,"itated":3192,"like":3193,"HAPTER":3194,"orth":3195,"arked":3196,"rop":3197,"ĠLou":3198,"Ġanxious":3199,"oose":3200,"Ġtalked":3201,"Ġstick":3202,"osop":3203,"Ġsupposed":3204,"Ġrevol":3205,"gain":3206,"aly":3207,"ĠSome":3208,"Ġshoulder":3209,"Ġain":3210,"Ġfingers":3211,"Ġphil":3212,"Ġtroub":3213,"Ġsouth":3214,"Ġreve":3215,"enth":3216,"Ġaccomp":3217,"Ġmeeting":3218,"ades":3219,"Ġpecul":3220,"Ġfier":3221,"Ġmagn":3222,"road":3223,"ĠCha":3224,"Ġforgotten":3225,"Ġspecial":3226,"Ġgrou":3227,"ables":3228,"Ġshadow":3229,"Ġdust":3230,"ancing":3231,"Ġpeculiar":3232,"Ġthank":3233,"ĠHenry":3234,"lished":3235,"ctions":3236,"isc":3237,"Ġsav":3238,"Ġvessel":3239,"Ġsuspic":3240,"Ġmotion":3241,"ĠWho":3242,"ĠWill":3243,"ĠAm":3244,"Ġshop":3245,"sc":3246,"Ġwond":3247,"ounced":3248,"Ġquestions":3249,"Ġband":3250,"Ġyellow":3251,"itive":3252,"Ġdism":3253,"Ġcarefully":3254,"Ġliter":3255,"Ġfol":3256,"Ġfortune":3257,"Ġheads":3258,"Ġexistence":3259,"Ġwhispered":3260,"Ġspeed":3261,"night":3262,"Ġwriting":3263,"yn":3264,"Ġstranger":3265,"Ġeduc":3266,"Ġindividual":3267,"Ġmach":3268,"ĠDick":3269,"Ġdestroy":3270,"Ġremembered":3271,"Ġcommun":3272,"Come":3273,"Ġnarrow":3274,"Ġdam":3275,"ĠChurch":3276,"Ġinside":3277,"ĠPrince":3278,"Ġcoat":3279,"ĠNe":3280,"Ġbreast":3281,"Ġextreme":3282,"Ġearnest":3283,"osite":3284,"ocr":3285,"ĠIndian":3286,"Ġshoulders":3287,"ĠJesus":3288,"Ġ17":3289,"erable":3290,"Ġfish":3291,"Ġsplend":3292,"ĠYes":3293,"Ġreport":3294,"Ġwine":3295,"Ġrail":3296,"Ġtrib":3297,"eds":3298,"Ġordered":3299,"Ġangry":3300,"Ġopportunity":3301,"Ġrise":3302,"Ġbare":3303,"ergy":3304,"Ġpromised":3305,"Ġbreakfast":3306,"ĠDav":3307,"Ġloss":3308,"Ġsurf":3309,"pected":3310,"Ġfinally":3311,"ipe":3312,"Ġknowing":3313,"RE":3314,"ĠWilli":3315,"ING":3316,"Ġreceive":3317,"lin":3318,"iles":3319,"Ġ6":3320,"Ġcurious":3321,"ales":3322,"Ġwitness":3323,"ĠComm":3324,"Ġorgan":3325,"ners":3326,"ointed":3327,"ĠQueen":3328,"Ġblow":3329,"ĠHouse":3330,"Ġdue":3331,"reet":3332,"Ġintellig":3333,"Ġholding":3334,"Ġproved":3335,"Ġexcell":3336,"ois":3337,"ding":3338,"Ġsituation":3339,"ĠWest":3340,"ik":3341,"Ġdiscuss":3342,"Every":3343,"Ġthreat":3344,"Ġrate":3345,"Ġcompanion":3346,"Ġknight":3347,"Ġoffer":3348,"Ġmatters":3349,"with":3350,"arily":3351,"Ġbag":3352,"Ġice":3353,"Ġorders":3354,"ole":3355,"IC":3356,"Ġattract":3357,"ibility":3358,"ĠAb":3359,"Ġbrave":3360,"Ġpersonal":3361,"Ġbottom":3362,"Ġtest":3363,"Ġbod":3364,"Ġintrodu":3365,"Ġtwelve":3366,"Ġedge":3367,"ĠGl":3368,"Ġstock":3369,"Ġprocess":3370,"Ġreading":3371,"hest":3372,"Ġofficer":3373,"Ġofficers":3374,"arm":3375,"Ġpassage":3376,"Ġlegs":3377,"oned":3378,"ience":3379,"Ġstore":3380,"Ġlanguage":3381,"llen":3382,"Ġtremb":3383,"Ġdare":3384,"Ġsurprised":3385,"Ġclaim":3386,"Ġmeaning":3387,"acing":3388,"ompl":3389,"bert":3390,"Ġaltogether":3391,"ilar":3392,"ĠSm":3393,"Ġinterrupt":3394,"enture":3395,"Ġwatching":3396,"ĠSam":3397,"Ġnoticed":3398,"Ġsacr":3399,"ĠSh":3400,"Ġagree":3401,"ĠThese":3402,"Ġfalse":3403,"oid":3404,"Ġdisapp":3405,"Ġimpro":3406,"mbers":3407,"Ġhurried":3408,"der":3409,"Ġfancy":3410,"ify":3411,"urg":3412,"itch":3413,"Ġpot":3414,"Ġmort":3415,"Ġlose":3416,"Ġscre":3417,"ara":3418,"Ġworks":3419,"Ġluck":3420,"Ġprince":3421,"Ġgar":3422,"Ġweather":3423,"Ġcruel":3424,"Ġmovement":3425,"Ġdressed":3426,"Ġsorrow":3427,"Ġtelling":3428,"Ġopposite":3429,"Ġfavor":3430,"aret":3431,"LE":3432,"Ġanimal":3433,"Ġpossession":3434,"Ġsubst":3435,"tering":3436,"Ġancient":3437,"Ġmaterial":3438,"Ġvalley":3439,"Ġvalue":3440,"leep":3441,"Ġhigher":3442,"Ġtouched":3443,"Ġgrown":3444,"cher":3445,"ingu":3446,"Ġfond":3447,"por":3448,"Ġbuilding":3449,"Ġmethod":3450,"Ġexplained":3451,"Ġjump":3452,"Ġengaged":3453,"Ġliked":3454,"ousin":3455,"Ġrough":3456,"Ġcaused":3457,"Ġunf":3458,"Ġpointed":3459,"Ġheat":3460,"Ġignor":3461,"anted":3462,"hold":3463,"ishop":3464,"Ġdescend":3465,"Ġtow":3466,"Ġfaces":3467,"Ġwid":3468,"Ġinnoc":3469,"Ġsettled":3470,"Ġuns":3471,"pir":3472,"nown":3473,"Ġwoods":3474,"Ġwel":3475,"Ġempty":3476,"de":3477,"vation":3478,"Ġhurt":3479,"Ġremarked":3480,"pper":3481,"Ġaffection":3482,"Ġsla":3483,"Ġpity":3484,"Good":3485,"Ġthrown":3486,"ora":3487,"Ġhappen":3488,"Ġworked":3489,"Ġproperty":3490,"Ġpet":3491,"athered":3492,"Ġcases":3493,"Ġalive":3494,"ĠMadame":3495,"esty":3496,"Ġvast":3497,"ruction":3498,"Ġcup":3499,"Ġbeast":3500,"Ġprec":3501,"Ġordinary":3502,"Ġdifference":3503,"Ġrub":3504,"Ġevidence":3505,"Ġbeha":3506,"Ġservants":3507,"Ġtele":3508,"Ġdistinct":3509,"Ġamount":3510,"Ġrob":3511,"Ġgreatly":3512,"Ġforced":3513,"icated":3514,"erved":3515,"Ġess":3516,"Ġcrown":3517,"Ġgentlemen":3518,"fortun":3519,"Ġsides":3520,"Ġpride":3521,"Ġwealth":3522,"Ġdoesn":3523,"Ġant":3524,"wood":3525,"Ġunk":3526,"gged":3527,"Ġfill":3528,"Ġmountains":3529,"Ġheight":3530,"Ġcow":3531,"ival":3532,"Ġroof":3533,"vey":3534,"Ġpick":3535,"Ġexec":3536,"Ġaccompl":3537,"ogra":3538,"Ġconduct":3539,"Ġgives":3540,"Ġhonor":3541,"Ġseek":3542,"eer":3543,"Ġphilosop":3544,"Ġaside":3545,"rance":3546,"reg":3547,"Ġwalking":3548,"Ġconfess":3549,"ĠPaul":3550,"ocked":3551,"Ġwindows":3552,"Ġparent":3553,"chen":3554,"Ġdistur":3555,"af":3556,"ĠAmerica":3557,"Ġthorough":3558,"ION":3559,"Ġfamiliar":3560,"Ġnine":3561,"umn":3562,"Ġweight":3563,"Ġlisten":3564,"Ġwest":3565,"Ġrising":3566,"dy":3567,"Ġhide":3568,"ecause":3569,"Ġaut":3570,"ĠAND":3571,"Ġmir":3572,"Ġquarter":3573,"Ġforty":3574,"Ġnames":3575,"Ġfate":3576,"Ġyours":3577,"onsie":3578,"Ġhaven":3579,"Ġgolden":3580,"Ġsympath":3581,"eal":3582,"Ġagreed":3583,"oard":3584,"Ġstairs":3585,"arest":3586,"uses":3587,"Ġinteresting":3588,").":3589,"Ġ8":3590,"Ġfault":3591,"Ġprove":3592,"Ġevidently":3593,"Ġswift":3594,"Ġgrowing":3595,"Ġanimals":3596,"ushing":3597,"Ġjudge":3598,"ux":3599,"Ġerr":3600,"imate":3601,"Ġrecord":3602,"Ġrejo":3603,"ĠIndians":3604,"Ġfeelings":3605,"Ġconfidence":3606,"Ġsolemn":3607,"Ġrul":3608,"Ġbull":3609,"Ġsuggested":3610,"Ġnodd":3611,"lly":3612,"Ġlistened":3613,"asc":3614,"Ġpieces":3615,"ulation":3616,"osity":3617,"Ġadvantage":3618,"Ġobliged":3619,"Ġmyst":3620,"Ġlifted":3621,"hens":3622,"Ġplayed":3623,"Ġtakes":3624,"itution":3625,"Ġrode":3626,"Ġshown":3627,"mit":3628,"Ġsurface":3629,"Ġstreets":3630,"Ġsupport":3631,"key":3632,"Ġcarriage":3633,"Ġbent":3634,"Ġhearts":3635,"Ġaddress":3636,"gel":3637,"Ġopening":3638,"Ġdemanded":3639,"Ġmoving":3640,"Ġrank":3641,"ĠColonel":3642,"Ġrefused":3643,"Ġbold":3644,"Ġgray":3645,"Ġsought":3646,"eping":3647,"Ġfailed":3648,"Ġjustice":3649,"Ġnoise":3650,"Ġdollars":3651,"Ġgrad":3652,"Ġ\"'":3653,"Ġpos":3654,"Ġlaws":3655,"usted":3656,"Ġpapers":3657,"ĠWilliam":3658,"Ġglory":3659,"Ġsmoke":3660,"Ġsuffer":3661,"Ġrooms":3662,"Ġequal":3663,"Yet":3664,"Ġdistingu":3665,"Ġkeeping":3666,"Ġhero":3667,"ĠGree":3668,"aked":3669,"Ġsufficient":3670,"of":3671,"Ġregular":3672,"antic":3673,"Ġere":3674,"Ġtaste":3675,"Ġsurely":3676,"Ġreligion":3677,"Ġpack":3678,"Ġeld":3679,"ker":3680,"Ġmighty":3681,"Ġkit":3682,"Ġcook":3683,"ĠCount":3684,"attered":3685,"ĠGu":3686,"unch":3687,"min":3688,"igned":3689,"Ġproduced":3690,"ĠEar":3691,"ĠOld":3692,"Ġende":3693,"Ġinterv":3694,"Ġwore":3695,"isters":3696,"Ġqueen":3697,"ception":3698,"Ġpresently":3699,"Ġfully":3700,"CHAPTER":3701,"Ġbill":3702,"Ġtongue":3703,"ĠNorth":3704,"Ġunw":3705,"Ġlies":3706,"EL":3707,"Ġcoast":3708,"Ġhills":3709,"Ġintended":3710,"Ġpulled":3711,"Ġdrive":3712,"go":3713,"Ġusually":3714,"Ġtail":3715,"Ġnose":3716,"Did":3717,"ulous":3718,"Ġrule":3719,"Ġteeth":3720,"Ġaware":3721,"Ġseized":3722,"ĠJew":3723,"ĠSw":3724,"Ġforeign":3725,"Ġegg":3726,"ĠAp":3727,"Ġdeb":3728,"ĠSpan":3729,"aming":3730,"Your":3731,"Ġdegree":3732,"Perhaps":3733,"Ġrare":3734,"Ġinstance":3735,"OM":3736,"Ġdozen":3737,"ĠSouth":3738,"Ġaffairs":3739,"istic":3740,"Ġlaughing":3741,"ĠEvery":3742,"anged":3743,"Ġexample":3744,"Ġgathered":3745,"Ġmentioned":3746,"Ġwilling":3747,"Ġbesides":3748,"Ġbrain":3749,"Ġsocial":3750,"Ġartic":3751,"iding":3752,"onsieur":3753,"itor":3754,"Ġprogress":3755,"ĠJames":3756,"terday":3757,"Ġchap":3758,"Ġmyster":3759,"Ġlovely":3760,"room":3761,"Ġshare":3762,"ĠMart":3763,"Ġreb":3764,"Ġ7":3765,"Ġgrat":3766,"Ġdign":3767,"Never":3768,"Ġauthority":3769,"chan":3770,"Ġideas":3771,"ĠYet":3772,"Ġserve":3773,"gment":3774,"Ġfart":3775,"Ġgloom":3776,"Ġskin":3777,"acle":3778,"Ġbusy":3779,"Ġow":3780,"âĢĶ\"":3781,"iber":3782,"Ġneeded":3783,"Ġwants":3784,"ias":3785,"aving":3786,"Ġsaved":3787,"Ġexerc":3788,"Ġdwell":3789,"Ġdistant":3790,"ending":3791,"Ġhandsome":3792,"Ġcool":3793,"Ġnamed":3794,"asped":3795,"Ġsmiling":3796,"Ġsatisfied":3797,"eb":3798,"Ġdevil":3799,"pel":3800,"Ġhol":3801,"Ar":3802,"Ġsimilar":3803,"ĠBritish":3804,"Ġseason":3805,"esh":3806,"ĠIN":3807,"Ġasleep":3808,"Ġscr":3809,"Ġkitchen":3810,"Ġpolice":3811,"Ġlib":3812,"Ġmoments":3813,"chief":3814,"Ġcrossed":3815,"IL":3816,"host":3817,"Ġbirth":3818,"Ġtroops":3819,"lessly":3820,"aries":3821,"Ġstars":3822,"Ġahead":3823,"Ġexplain":3824,"Ġexcit":3825,"uls":3826,"Ġprevent":3827,"Ġendeav":3828,"Ġaunt":3829,"Ġlod":3830,"Ġfruit":3831,"Ġcabin":3832,"Thus":3833,"orious":3834,"ĠSund":3835,"Ġcrit":3836,"ulf":3837,"Ġmurder":3838,"Ġ16":3839,"uzz":3840,"Ġforms":3841,"Ġbaby":3842,"Ġputting":3843,"Ġble":3844,"Ġroy":3845,"Ġpaused":3846,"Ġactually":3847,"Ġarrange":3848,"Ġfreed":3849,"Ġreck":3850,"Ġshoot":3851,"cing":3852,"Ġcentury":3853,"Ġships":3854,"ĠState":3855,"Ġhate":3856,"Ġfinding":3857,"Ġnobody":3858,"con":3859,"ourt":3860,"Ġhurry":3861,"ayed":3862,"Ġaud":3863,"Ġcred":3864,"Ġbrief":3865,"Ġlog":3866,"THE":3867,"rose":3868,"Ġbuy":3869,"Ġterror":3870,"Ġshame":3871,"Ġcit":3872,"Ġtwice":3873,"ĠUnited":3874,"inal":3875,"ring":3876,"Ġmodern":3877,"Ġinterested":3878,"AS":3879,"Ġinformation":3880,"Ġsupper":3881,"Ġafford":3882,"Ġworthy":3883,"Ġspect":3884,"Ġ19":3885,"Ġgle":3886,"Ġyield":3887,"ĠCharles":3888,"Ġcell":3889,"Ġconqu":3890,"ppy":3891,"Ġdeck":3892,"Ġfarm":3893,"Ġrepresent":3894,"Ġtravel":3895,"Ġcolour":3896,"Ġdoors":3897,"Ġterms":3898,"Ġsquare":3899,"Ġdogs":3900,"Ġserved":3901,"Just":3902,"Ġrequired":3903,"Ġacquaint":3904,"Ġimportance":3905,"Ġpair":3906,"Ġimagine":3907,"Ġsuit":3908,"Ġride":3909,"Ġaccompan":3910,"Ġconsiderable":3911,"Ġapparently":3912,"Ġspend":3913,"Ġsucceeded":3914,"Ġexcitement":3915,"ĠMc":3916,"Ġthrow":3917,"Ġshape":3918,"Even":3919,"ĠMaster":3920,"Ġoccurred":3921,"Ġaffair":3922,"Ġdiscover":3923,"Ġbore":3924,"OL":3925,"using":3926,"soci":3927,"Ġpriest":3928,"Ġoccupied":3929,"ugust":3930,"Ġfacts":3931,"Ġdrove":3932,"Ġeverybody":3933,"Ġpictures":3934,"Ġdull":3935,"Ġfrightened":3936,"Ġmoral":3937,"Ġpounds":3938,"Ġspirits":3939,"Ġiss":3940,"theless":3941,"Ġevents":3942,"Ġleading":3943,"Ġinha":3944,"Ġceased":3945,"ĠEx":3946,"Ġtrem":3947,"ardon":3948,".)":3949,"Ġnearer":3950,"Ġroyal":3951,"ĠStreet":3952,"Ġsoldier":3953,"Ġtaught":3954,"Ġ15":3955,"hib":3956,"Ġcousin":3957,"Ġmel":3958,"perior":3959,"Ġhuge":3960,"Ġdespair":3961,"Ġcontent":3962,"Ġexcellent":3963,"ternal":3964,"ĠHel":3965,"Ġcult":3966,"Ġeast":3967,"Ġintellect":3968,"Ġstage":3969,"ĠRuss":3970,"Ġpalace":3971,"irst":3972,"Ġflo":3973,"uce":3974,"Ġaid":3975,"Ġhearing":3976,"01":3977,"Ġknees":3978,"Ġet":3979,"Ġhosp":3980,"Ġcontrary":3981,"ĠCal":3982,"Ġmeasure":3983,"asons":3984,"erry":3985,"pet":3986,"Ġwounded":3987,"Ġemp":3988,"Ġregarded":3989,"ially":3990,"ading":3991,"ural":3992,"oyal":3993,"ĠDan":3994,"Ġgather":3995,"Ġamb":3996,"ii":3997,"Ġ...":3998,"Ġpan":3999,"Ġevent":4000,"Ġcompletely":4001,"Ġnaturally":4002,"Ġbenef":4003,"Ġrapidly":4004,"Ġdirectly":4005,"Ġhole":4006,"ormed":4007,"ait":4008,"Ġseated":4009,"Ġfarther":4010,"Ġmembers":4011,"lied":4012,"acious":4013,"Ġpoints":4014,"lect":4015,"Ġobey":4016,"Ġmarked":4017,"Ġinstinct":4018,"Ġexcited":4019,"ĠHeaven":4020,"Ġstepped":4021,"Ġcoff":4022,"Ġprayer":4023,"Ġune":4024,"ĠMon":4025,"Ġnodded":4026,"Ġchamber":4027,"Ġcarrying":4028,"Ġsigh":4029,"ĠJust":4030,"Ġawful":4031,"essor":4032,"Ġproof":4033,"ization":4034,"Ġinquired":4035,"Ġanybody":4036,"Ġinquir":4037,"Ġcop":4038,"ĠGood":4039,"Ġflesh":4040,"Ġimpati":4041,"Ġdangerous":4042,"Ġotherwise":4043,"Ġentertain":4044,"Ġpossessed":4045,"Ġcouple":4046,"Ġperform":4047,"Ġfellows":4048,"sec":4049,"Ġwag":4050,"ĠGreat":4051,"iments":4052,"bers":4053,"Ġflat":4054,"Ġbrilli":4055,"Ġshouted":4056,"mas":4057,"Ġholy":4058,"Ġextraord":4059,"Ġrelief":4060,"oring":4061,"Ġwicked":4062,"Ġamaz":4063,"Ġpolitical":4064,"lie":4065,"stand":4066,"Ġdiss":4067,"Ġsettle":4068,"aud":4069,"Ġconditions":4070,"Ġgently":4071,"Ġjoined":4072,"Ġregret":4073,"Ġsuffered":4074,"ĠFrank":4075,"Ġdisappeared":4076,"Ġfalling":4077,"Very":4078,"acks":4079,"Ġpowerful":4080,"Ġelect":4081,"Ġtask":4082,"Ġnerv":4083,"Ġdrop":4084,"Ġdesired":4085,",âĢĶ":4086,"Ġsplendid":4087,"Ġhidden":4088,"Ġpresented":4089,"Ġodd":4090,"off":4091,"Ġyesterday":4092,"Ġunknown":4093,"Ġabsolutely":4094,"Ġcalling":4095,"oop":4096,"cked":4097,"Ġdivine":4098,"Ġfem":4099,"Ġtrade":4100,"esides":4101,"Ġsev":4102,"Ġkeen":4103,"Ġstones":4104,"Ġdaily":4105,"Ġdriven":4106,"resp":4107,"Ġparticularly":4108,"Ġstared":4109,"Ġsevere":4110,"Ġreligious":4111,"ĠDor":4112,"Ġprisoner":4113,"Ġtight":4114,"Ġworst":4115,"Ġcrim":4116,"Ġmile":4117,"ĠMin":4118,"yr":4119,"Ġflight":4120,"kin":4121,"Ġpersu":4122,"Our":4123,"Ġtempt":4124,"raw":4125,"Ġgrey":4126,"pap":4127,"Ġgroup":4128,"ED":4129,"sy":4130,"ĠJud":4131,"Ġburning":4132,"Ġfields":4133,"Ġdesper":4134,"ĠDuke":4135,"lex":4136,"cil":4137,"Ġsize":4138,"Ġplaying":4139,"ĠWar":4140,"Ġpicked":4141,"Ġproceeded":4142,"Ġpossibly":4143,"Ġdying":4144,"ulated":4145,"Ġundert":4146,"ajesty":4147,"Ġenemies":4148,"Ġassured":4149,"ĠSunday":4150,"Ġdawn":4151,"While":4152,"iest":4153,"Ġpolic":4154,"Ġcontrol":4155,"Ġcrime":4156,"Ġsuffering":4157,"Ġresist":4158,"ĠRic":4159,"Ġrad":4160,"Ġaccident":4161,"Ġvig":4162,"Ġadvance":4163,"Ġhoped":4164,"Ġpressed":4165,"Ġpowers":4166,"ustration":4167,"quis":4168,"Ġfold":4169,"Ġprefer":4170,"Ġfoolish":4171,"Ġwaters":4172,"Ġimpression":4173,"Ġunha":4174,"Ġfighting":4175,"Ġwondered":4176,"bing":4177,"Ġimper":4178,"ander":4179,"Ġadvanced":4180,"Ġstead":4181,"ĠRed":4182,"iance":4183,"Ġsuperior":4184,"umph":4185,"Ġcompanions":4186,"Ġappears":4187,"agement":4188,"Ġer":4189,"Ġcapital":4190,"gypt":4191,"Ġliberty":4192,"Ġvoices":4193,"Ġenth":4194,"ription":4195,"Ġcorre":4196,"pelled":4197,"Ġgrief":4198,"while":4199,"ainted":4200,"Ġrocks":4201,"000":4202,"apt":4203,"Ġthroat":4204,"Ġkey":4205,"Ġbegun":4206,"Ġmistake":4207,"ighed":4208,"Such":4209,"Ġpill":4210,"Ġclearly":4211,"Ġrelations":4212,"ĠLouis":4213,"rict":4214,"Ġadmitted":4215,"Ġadvice":4216,"Ġfeat":4217,"Ġexplan":4218,"ĠRome":4219,"ĠRobert":4220,"Ġflower":4221,"._":4222,"Ġmilk":4223,"Ġbas":4224,"cip":4225,"Ġ9":4226,"Ġdreadful":4227,"Ġdoct":4228,"Ġeducation":4229,"ĠAunt":4230,"Ġnative":4231,"Ġcareful":4232,"peror":4233,"Ġcig":4234,"Ġsour":4235,"Ġcurt":4236,"Ġinstru":4237,"ĠBet":4238,"ĠMont":4239,"ĠCome":4240,"Ġwed":4241,"Ġtrick":4242,"Ġfinger":4243,"ĠPrin":4244,"Ġsoftly":4245,"Ġexpressed":4246,"Ġkingdom":4247,"angers":4248,"ifle":4249,"Ġmaint":4250,"Ġbal":4251,"Ġyards":4252,"Ġmidst":4253,"Ġoh":4254,"Ġexped":4255,"Ġremind":4256,"elt":4257,"ĠAnt":4258,"ĠEgypt":4259,"Ġder":4260,"Ġmistress":4261,"ember":4262,"Ġstruggle":4263,"Ġsatisfaction":4264,"Ġsprang":4265,"Ġtend":4266,"Ġsty":4267,"Ġdouble":4268,"aker":4269,"Ġobtained":4270,"Ġrespons":4271,"Ġblank":4272,"ifice":4273,"nes":4274,"Ġbutter":4275,"opt":4276,"rem":4277,"Ġcitiz":4278,"Ġanger":4279,"ĠMarg":4280,"Are":4281,"overy":4282,"Ġrushed":4283,"Ġrecall":4284,"ication":4285,"Ġsteam":4286,"ville":4287,"Ġtion":4288,"rence":4289,"Ġban":4290,"Ġentrance":4291,"Ġjudgment":4292,"Ġfifteen":4293,"Ġstuff":4294,"Ġnecessity":4295,"Ġrend":4296,"oms":4297,"Ġcastle":4298,"Ġkindly":4299,"ĠUncle":4300,"ification":4301,"Ġplant":4302,"Ġworn":4303,"Ġaccepted":4304,"ĠAugust":4305,"Ġremoved":4306,"erson":4307,"Ġprice":4308,"ĠScot":4309,"ĠDavid":4310,"Ġhotel":4311,"ocks":4312,"omb":4313,"illing":4314,"Ġcounten":4315,"ĠMe":4316,"irgin":4317,"ĠYour":4318,"Ġwelcome":4319,"ĠIr":4320,"ĠGovernment":4321,"Ġbodies":4322,"Ġmilitary":4323,"Ġasking":4324,"ĠHarry":4325,"urse":4326,"Ġupper":4327,"aval":4328,"Ġmessage":4329,"ien":4330,"het":4331,"Ġplenty":4332,"Ġbid":4333,"ailed":4334,"Ġremains":4335,"Have":4336,"Ġmat":4337,"Ġwet":4338,"Ġinvol":4339,"inent":4340,"Ġencour":4341,"erous":4342,"Ġremarkable":4343,"ims":4344,"Ġfrequently":4345,"Ġassoci":4346,"Ġcolor":4347,"Ġtit":4348,"Look":4349,"Ġsomewhere":4350,"uments":4351,"Ġstern":4352,"omen":4353,"anny":4354,"ensive":4355,"ule":4356,"Ġloose":4357,"ivered":4358,"Ġhadn":4359,"Ġneighbour":4360,"Ġshell":4361,"Ġfamous":4362,"Ġclever":4363,"nal":4364,"aches":4365,"Ġpopular":4366,"ators":4367,"Ġlone":4368,"Ġyard":4369,"Ġtur":4370,"__":4371,"urely":4372,"Ġsons":4373,"ĠMother":4374,"Ġweary":4375,"Ġfortun":4376,"ĠBen":4377,"Ġextraordinary":4378,"Ġhorror":4379,"Ġglanced":4380,"ustri":4381,"Ġunable":4382,"Ġequally":4383,"Ġmurmured":4384,"inging":4385,"Ġwithd":4386,"rant":4387,"stairs":4388,"ĠJane":4389,"epend":4390,"Ġunivers":4391,"Ġqual":4392,"erk":4393,"Ġminds":4394,"Ġsooner":4395,"izing":4396,"Ġnob":4397,"onscious":4398,"Ġlevel":4399,"Ġinstantly":4400,"Nothing":4401,"ĠMag":4402,"mond":4403,"Ġarch":4404,"Ġ10":4405,"Ġaband":4406,"Ġsympathy":4407,"Ġpor":4408,"Ġcuri":4409,"Ġunfortun":4410,"Ġslave":4411,"Ġbought":4412,"Ġhom":4413,"Ġimpl":4414,"Ġhighest":4415,"Ġenthus":4416,"Ġclouds":4417,"Ġarrival":4418,"Ġavoid":4419,"Ġended":4420,"Ġvirtue":4421,"asant":4422,"Ġprincip":4423,"Ġjoin":4424,"Ġburied":4425,"Ġresolved":4426,"Ġmeat":4427,"Ġlock":4428,"Ġindign":4429,"Ġhanded":4430,"Ġdesign":4431,"astic":4432,"upp":4433,"alt":4434,"ĠWil":4435,"Ġsaf":4436,"Ġmult":4437,"Ġinterp":4438,"Ġescaped":4439,"Ġfairly":4440,"oul":4441,"Ġbelief":4442,"Ġknife":4443,"chie":4444,"oused":4445,"ĠOur":4446,"ĠTheir":4447,"fl":4448,"Ġtruly":4449,"Ġgods":4450,"Ġenv":4451,"Ġapproached":4452,"field":4453,"Ġoriginal":4454,"Ġren":4455,"Ġsheep":4456,"Ġfreedom":4457,"ses":4458,"ĠThom":4459,"rey":4460,"Ġimagination":4461,"tis":4462,"ĠPhilip":4463,"Ġwings":4464,"Ġadmit":4465,"Ġindiff":4466,"Ġflew":4467,"acity":4468,"Ġgreet":4469,"Ġlake":4470,"Ġexceed":4471,"Ġportion":4472,"Ġclosely":4473,"Ġlover":4474,"Ġproble":4475,"ĠPresident":4476,"Ġprompt":4477,"ĠĠĠĠ":4478,"Ġtreated":4479,"Ġinstr":4480,"ĠSat":4481,"Ġlabor":4482,"Ġlarger":4483,"ashing":4484,"Ġarrest":4485,"Ġintention":4486,"Ġdepth":4487,"Ġinterrupted":4488,"ĠEliz":4489,"Ġslept":4490,"Ġfet":4491,"cy":4492,"Ġmeas":4493,"Ind":4494,"Ġuseful":4495,"Ġinvest":4496,"Ġabsence":4497,"uten":4498,"Ġmanif":4499,"ĠSch":4500,"Ġmystery":4501,"Ġdispl":4502,"Ġsmooth":4503,"Ġfan":4504,"Ġadopt":4505,"ĠLuc":4506,"Ġkissed":4507,"Ġvision":4508,"Ġhopes":4509,"uf":4510,"Ġparents":4511,"ese":4512,"Ġguns":4513,"Mrs":4514,"Ġcompar":4515,"hich":4516,"Ġjob":4517,"Ġdeeply":4518,"Ġscience":4519,"Ġdescribed":4520,"ĠJul":4521,"Ġpushed":4522,"atory":4523,"Go":4524,"ĠDid":4525,"Ġsup":4526,"Ġlit":4527,"Ne":4528,"Only":4529,"pon":4530,"Ill":4531,"Ġghost":4532,"Ġthrust":4533,"ability":4534,"Ġnewspap":4535,"Ġhelped":4536,"gl":4537,"Ġthoroughly":4538,"bid":4539,"rated":4540,"ĠEdward":4541,"cknow":4542,"Ġcountenance":4543,"Ġevident":4544,"cean":4545,"Ġobst":4546,"osen":4547,"Ġfriendly":4548,"Ġdance":4549,"Ġthinks":4550,"ĠMor":4551,"Ġprint":4552,"onn":4553,"orous":4554,"tle":4555,"Ġretreat":4556,"Ġwhisper":4557,"Ġwisdom":4558,"Ġcaut":4559,"Ġfought":4560,"Ġacknow":4561,"zy":4562,"ĠCle":4563,"Ġfaithful":4564,"Ġshel":4565,"Ġmental":4566,"van":4567,"Ġsell":4568,"Ġmercy":4569,"Ġcontem":4570,"Ġstories":4571,"Ġexha":4572,"father":4573,"Ġincreased":4574,"Ġbecomes":4575,"aling":4576,"ĠSmith":4577,"Ġweap":4578,"Ġsinging":4579,"Ġconcerned":4580,"Ġhit":4581,"port":4582,"Ġsupply":4583,"Ġchest":4584,"Ġpin":4585,"Ġunex":4586,"Ġlaughter":4587,"she":4588,"Ġarose":4589,"itz":4590,"Ġengine":4591,"Ġgay":4592,"ustomed":4593,"ems":4594,"Ġfrag":4595,"Ġearl":4596,"thur":4597,"Ġmachine":4598,"Ġshining":4599,"Ġstrike":4600,"Ġ&":4601,"Ġprinciple":4602,"Ġhither":4603,"Ġfac":4604,"Ġtrail":4605,"Ġquant":4606,"lo":4607,"elle":4608,"Ġbridge":4609,"Ġextent":4610,"Ġjeal":4611,"com":4612,"Miss":4613,"Ġdreams":4614,"Ġmajor":4615,"Ġprofession":4616,"Ġlights":4617,"Ġfo":4618,"Ġsounds":4619,"Ġwound":4620,"inking":4621,"Ġcard":4622,"asy":4623,"Ġimmense":4624,"Ġcheeks":4625,"rog":4626,"was":4627,"Ġcord":4628,"Ġflying":4629,"ĠBob":4630,"Ġestablished":4631,"Ġcuriosity":4632,"ĠAh":4633,"Ġconsciousness":4634,"ĠJoe":4635,"Ġdelicate":4636,"iently":4637,"Ġcomfortable":4638,"Ġ12":4639,"Ġpause":4640,"Ġgrim":4641,"Ġcircle":4642,"Ġreward":4643,"Ġlistening":4644,"Ġinnocent":4645,"Ġrecoll":4646,"ĠFranc":4647,"ĠRoman":4648,"inced":4649,"umber":4650,"Ġpatient":4651,"Ġofficial":4652,"aws":4653,"Ġemotion":4654,"Ġgradually":4655,"Ġassert":4656,"Ġstands":4657,"Ġcreatures":4658,"abel":4659,"Ġvent":4660,"Ġvague":4661,"Ġprecious":4662,"ivity":4663,"Ġ**":4664,"erves":4665,"Ġpractice":4666,"Ġgained":4667,"Ġemployed":4668,"Ġlack":4669,"Ġstiff":4670,"Ġbearing":4671,"Ġdar":4672,"ĠCor":4673,"Ġmour":4674,"amm":4675,"ĠEven":4676,"ometimes":4677,"Ġtrembling":4678,"Ġqueer":4679,"Ġassemb":4680,"illa":4681,"hank":4682,"anches":4683,"Ġchoose":4684,"Ġproport":4685,"Ġtype":4686,"Ġprotect":4687,"ĠMac":4688,"Their":4689,"ĠBlack":4690,"Ġtheory":4691,"Ġcott":4692,"asing":4693,"Ġsafety":4694,"Ġsmell":4695,"Ġphysical":4696,"Ġfeatures":4697,"ĠDoctor":4698,"ette":4699,"Ġholl":4700,"Ġham":4701,"ĠFred":4702,"iven":4703,"Ġrepro":4704,"Ġeverywhere":4705,"hal":4706,"respond":4707,"Ġep":4708,"rate":4709,"Ġmeal":4710,"Ġbew":4711,"irm":4712,"Ġarranged":4713,"Ġstretched":4714,"aine":4715,"ilty":4716,"ĠChristmas":4717,"Ġsacred":4718,"Ġfever":4719,"ĠHall":4720,"Ġsche":4721,"Ġsalt":4722,"Ġefforts":4723,"Ġbringing":4724,"ooked":4725,"Ġlighted":4726,"ĠHoly":4727,"Ġrag":4728,"umbled":4729,"Ġamid":4730,"Ġma":4731,"abeth":4732,"utation":4733,"cho":4734,"ault":4735,"Ġspecies":4736,"Ġemer":4737,"Ġinformed":4738,"Ġbrothers":4739,"Ġjew":4740,"Ġnovel":4741,"Ġcontempt":4742,"ential":4743,"Ġmysterious":4744,"ĠRichard":4745,"Ġmiserable":4746,"Ġdish":4747,"ĠAlex":4748,"ye":4749,"Ġkindness":4750,"Ġrolled":4751,"estern":4752,"nel":4753,"Ġacquaintance":4754,"Illustration":4755,"Ġenergy":4756,"IR":4757,"Ġolder":4758,"Ġchosen":4759,"Ġunderstanding":4760,"amma":4761,"Ġrecei":4762,"ĠCourt":4763,"Ġjealous":4764,"Ġtrial":4765,"amps":4766,"Ġslipped":4767,"ĠMark":4768,"Ġswept":4769,"Ġaccompanied":4770,"ĠBrown":4771,"Ġlamp":4772,"Ġfigures":4773,"Ġanyone":4774,"Ġfled":4775,"Ġfriendship":4776,"Ġtot":4777,"Ġspiritual":4778,"Ġgenius":4779,"Ġappreci":4780,"ĠMa":4781,"Ġdig":4782,"erer":4783,"amond":4784,"Ġtent":4785,"Ġutterly":4786,"Ġreasons":4787,"Ġdignity":4788,"Ġprospect":4789,"iqu":4790,"Ġinfinite":4791,"upid":4792,"ĠPrincess":4793,"gs":4794,"Ġanxiety":4795,"Ġminister":4796,"Ġredu":4797,"bits":4798,"\"'":4799,"ĠPal":4800,"arse":4801,"ational":4802,"andy":4803,"Ġrelie":4804,"Ġindepend":4805,"Ġdisci":4806,"Ġcapable":4807,"hamed":4808,"Ġunhappy":4809,"Ġwheel":4810,"lected":4811,"Ġwaves":4812,"ĠJac":4813,"Ġgest":4814,"isher":4815,"Ġstyle":4816,"Ġwrit":4817,"Ġcere":4818,"kins":4819,"Ġobv":4820,"ads":4821,"Ġaim":4822,"ns":4823,"Ġroll":4824,"ointment":4825,"Ġprovided":4826,"ulse":4827,"Ġexplanation":4828,"Ġthunder":4829,"aunt":4830,"ourse":4831,"Ġtale":4832,"Ġunb":4833,"ician":4834,"Ġflung":4835,"Ġmission":4836,"Ġcattle":4837,"eding":4838,"Ġgain":4839,"Ġflag":4840,"yer":4841,"Ġrelation":4842,"Ġlonely":4843,"Ġpurcha":4844,"aps":4845,"Ġmanaged":4846,"Ġgaze":4847,"ĠBill":4848,"Ġcorrespond":4849,"Ġwra":4850,"Ġhers":4851,"Ġmood":4852,"Ġshock":4853,"Ġmal":4854,"Ġapproach":4855,"Ġexchan":4856,"Ġshowing":4857,"Ġsavage":4858,"Ġforces":4859,"iation":4860,"pless":4861,"ĠAnn":4862,"Ġneeds":4863,"Ġteacher":4864,"Ġconcerning":4865,"hew":4866,"ĠâĢ":4867,"ĠFort":4868,"Ġ\"_":4869,"Ġchoice":4870,"Ġattitude":4871,"Ġdelighted":4872,"rie":4873,"ublic":4874,"Ġtriumph":4875,"Ġnervous":4876,"ĠPerhaps":4877,"Ġcurrent":4878,"ldom":4879,"ture":4880,"Ġplans":4881,"Ġobtain":4882,"utenant":4883,"Ġunus":4884,"Ġsomehow":4885,"However":4886,"ĠGrand":4887,"Ġforehead":4888,"Ġprisoners":4889,"Ġtrad":4890,"Ġclo":4891,"Ġguilty":4892,"ST":4893,"Ġsolid":4894,"Ġfeared":4895,"OW":4896,"Ġeagerly":4897,"Ġvisible":4898,"Ġsurrounded":4899,"Ġbrilliant":4900,"Ġobjects":4901,"ege":4902,"rees":4903,"Ġbree":4904,"Ġaddressed":4905,"Before":4906,"Ġease":4907,"eder":4908,"Ġconsequence":4909,"ET":4910,"Ġdise":4911,"Ġbecoming":4912,"Ġbetray":4913,"Ab":4914,"ĠThou":4915,"Ġunconscious":4916,"Ġoutl":4917,"Ġrom":4918,"Will":4919,"ĠBel":4920,"Ġsex":4921,"Ġfaced":4922,"Ġcart":4923,"Ġgets":4924,"Ġpardon":4925,"ĠPer":4926,"Ġcloth":4927,"ology":4928,"Ġteach":4929,"verse":4930,"Ġcentre":4931,"Ġinhabit":4932,"Ġprepar":4933,"Ġvic":4934,"uries":4935,"Ġident":4936,"ĠJan":4937,"ĠAre":4938,"Ġsomebody":4939,"Ġmarch":4940,"IV":4941,"Ġashamed":4942,"Ġtiny":4943,"ama":4944,"Am":4945,"Ġyounger":4946,"Ġguide":4947,"icted":4948,"Ġdared":4949,"ĠLittle":4950,"gra":4951,"ĠArthur":4952,"Ġcrying":4953,"Ġloving":4954,"udden":4955,"rough":4956,"Ġsacrifice":4957,"Ġdetect":4958,"Ġbranches":4959,"Ġwholly":4960,"Ġproduce":4961,"iture":4962,"Ġsigns":4963,"Ġgazed":4964,"Ġpipe":4965,"Ġthroughout":4966,"Ġuttered":4967,"Ġexcuse":4968,"Ġasc":4969,"Ġcrew":4970,"Ġbehold":4971,"Ġslightly":4972,"Ġglim":4973,"Ġaddition":4974,"Ġrecognized":4975,"Ġreturning":4976,"Ġpuzz":4977,"ĠGo":4978,"Can":4979,"outhern":4980,"Ġsouls":4981,"Ġnotes":4982,"ĠEast":4983,"iant":4984,"pse":4985,"Ġdiscovery":4986,"ilities":4987,"Ġnurse":4988,"utions":4989,"Ġsecure":4990,"Ġwhist":4991,"ĠLaw":4992,"Ġbowed":4993,"lease":4994,"Ġpartly":4995,"Ġblame":4996,"Ġsuspicion":4997,"ĠSec":4998,"isions":4999,"Ġhungry":5000,"ĠLove":5001,"ĠWhile":5002,"acles":5003,"Ġspl":5004,"ĠAnne":5005,"Ġprim":5006,"Ġaccustomed":5007,"Ġcorrect":5008,"Ġdevoted":5009,"olic":5010,"more":5011,"oseph":5012,"ĠHave":5013,"Ġannounced":5014,"ĠHelen":5015,"Ġpred":5016,"Ġskill":5017,"Ġgrate":5018,"apped":5019,"Ġrang":5020,"Ġz":5021,"Ġfinal":5022,"Ġmember":5023,"ĠWhite":5024,"Indeed":5025,"eem":5026,"Ġstret":5027,"ington":5028,"icate":5029,"Ġpoison":5030,"Ġconscience":5031,"ĠTur":5032,"Ġworship":5033,"Ġappointed":5034,"iable":5035,"Ġexper":5036,"ĠSpir":5037,"ĠPat":5038,"Ġsubm":5039,"Ġdirected":5040,"ENT":5041,"eless":5042,"Ġlest":5043,"Ġproject":5044,"Ġamuse":5045,"Ġwishes":5046,"ĠHigh":5047,"cles":5048,"Ġplate":5049,"Ġintense":5050,"Ġspark":5051,"UR":5052,"Ġproposed":5053,"liament":5054,"AD":5055,"Ġflour":5056,"ids":5057,"Ġconsideration":5058,"ived":5059,"Ġruin":5060,"ĠWashing":5061,"just":5062,"ĠSl":5063,"Ġthousands":5064,"Ġhint":5065,"ertainly":5066,"Ġrage":5067,"Ġmagnific":5068,"Ġrequest":5069,"Ġfer":5070,"pher":5071,"Ġfrank":5072,"ounce":5073,"enny":5074,"Ġreality":5075,"Ġeggs":5076,"Ġplainly":5077,"May":5078,"Ġexhib":5079,"onder":5080,"hall":5081,"Ġsoil":5082,"Ġprevious":5083,"Ġconsult":5084,"Ġshows":5085,"Ġleaned":5086,"Ġhunting":5087,"Ġconvinced":5088,"ĠMount":5089,"ĠConst":5090,"uing":5091,"Ġchat":5092,"Ġimmediate":5093,"ĠSpanish":5094,"Ġrout":5095,"Ġpraise":5096,"Ġduties":5097,"Ġbase":5098,"AC":5099,"ram":5100,"Ġcredit":5101,"AM":5102,"Ġmatch":5103,"Ġbreaking":5104,"Ġintelligence":5105,"ĠWal":5106,"ols":5107,"lebr":5108,"Ġperceived":5109,"Ġstaring":5110,"ograph":5111,"ril":5112,"ĠVirgin":5113,"Ġhighly":5114,"Ġindul":5115,"Ġquarters":5116,"Ġguests":5117,"Ġbegged":5118,"iot":5119,"Ġseldom":5120,"Ġrisk":5121,"ĠWashington":5122,"bar":5123,"Ġ14":5124,"Ġcontinue":5125,"can":5126,"ĠLy":5127,"ares":5128,"OO":5129,"stone":5130,"Ġtells":5131,"ĠHad":5132,"ĠPort":5133,"Ġnest":5134,"ĠSan":5135,"Ġforgive":5136,"Ġconstantly":5137,"Ġblessed":5138,"Ġpreced":5139,"uddenly":5140,"Ġviolent":5141,"Ġwaste":5142,"othy":5143,"Ġmuttered":5144,"Two":5145,"fessor":5146,"Ġrope":5147,"Ġfleet":5148,"Ġhanging":5149,"Ġboats":5150,"Ġactive":5151,"Ġabsurd":5152,"Ġcharming":5153,"Ġpractical":5154,"formed":5155,"ĠSim":5156,"Ġbottle":5157,"Ġ11":5158,"Ġcoffee":5159,"Un":5160,"Ġvictory":5161,"ĠMo":5162,"Ġrow":5163,"Ġadventure":5164,"Ġatm":5165,"Ġparties":5166,"Ġoil":5167,"no":5168,"Ġaloud":5169,"Ġraise":5170,"Ġwretched":5171,"Ġfollows":5172,"Ġstriking":5173,"Ġdistinguished":5174,"Ġprincipal":5175,"Ġscorn":5176,"Ġsan":5177,"Ġclub":5178,"Ġsingular":5179,"Ġbos":5180,"Ġcheerful":5181,"Ġhell":5182,"Ġenorm":5183,"Ġtied":5184,"Ġbask":5185,"Ġsleeping":5186,"Ġscient":5187,"Ġmechan":5188,"Ġhut":5189,"Ġresemb":5190,"Ġsubjects":5191,"pes":5192,"Ġnumbers":5193,"Ġtax":5194,"stead":5195,"Ġthanks":5196,"Ġgift":5197,"inate":5198,"Ġfierce":5199,"fall":5200,"ĠNever":5201,"Ġtroubled":5202,"Ġocean":5203,"Ġstupid":5204,"erred":5205,"rig":5206,"ĠCo":5207,"ĠBo":5208,"Ġcelebr":5209,"Ġhelpless":5210,"ifted":5211,"Ġhorrible":5212,"Ġelder":5213,"Ġestablish":5214,"Ġsuccessful":5215,"Ġdeliber":5216,"Or":5217,"Ġfare":5218,"Ġsentence":5219,"Ġrust":5220,"ĠSpirit":5221,"Ġsank":5222,"Ġresults":5223,"Ġassistance":5224,"Ġlands":5225,"Ġatmosp":5226,"Ġlibr":5227,"Ġinterests":5228,"Ġrush":5229,"Ġcondem":5230,"itate":5231,"God":5232,"Ġbay":5233,"ĠMars":5234,"Ġshade":5235,"Ġvoy":5236,"ĠDel":5237,"Ġconstant":5238,"ĠGreen":5239,"Ġdestroyed":5240,"02":5241,"Ġamongst":5242,"Ġthrone":5243,"ĠBilly":5244,"ĠMajor":5245,"Ġends":5246,"Ġven":5247,"Ġdetails":5248,"Ġsurround":5249,"Ġhun":5250,"Ġcommanded":5251,"Ġinclined":5252,"Ġblaz":5253,"Ġnumerous":5254,"Ġterm":5255,"uable":5256,"ĠOnly":5257,"atives":5258,"Ġinterf":5259,"Ġsighed":5260,"Ġalarm":5261,"ĠST":5262,"Ġflame":5263,"Ġconnected":5264,"ĠThus":5265,"Ġlux":5266,"ĠThomas":5267,"Ġhousehold":5268,"ĠIsland":5269,"Ġspare":5270,"ĠMarch":5271,"Ġhalt":5272,"Ġreader":5273,"Ġwave":5274,"Ġdesk":5275,"Ġrig":5276,"Ġshoes":5277,"orthern":5278,"ka":5279,"Ġdistress":5280,"Ġsilk":5281,"then":5282,"urity":5283,"Ġnations":5284,"Ġunexpected":5285,"Ġsport":5286,"Ġuseless":5287,"Ġdefe":5288,"ension":5289,"Ġrear":5290,"Ġconnection":5291,"Ġframe":5292,"isp":5293,"Ġrange":5294,"Ġaver":5295,"Ġcompelled":5296,"Ġdeparture":5297,"rab":5298,"Ġquality":5299,"sey":5300,"Ġdw":5301,"Ġactual":5302,"ĠElizabeth":5303,"Ġrefuse":5304,"atched":5305,"Ġbend":5306,"Ġconfusion":5307,"ĠAf":5308,"Ġrequire":5309,"Ġdivided":5310,"ĠIrish":5311,"bury":5312,"Ġsees":5313,"Ġate":5314,"Ġshadows":5315,"win":5316,"Ġextremely":5317,"eff":5318,"Ġmerchant":5319,"Ġpainted":5320,"ĠNature":5321,"Sir":5322,"Ġriding":5323,"ĠÂ":5324,"ĠMonsieur":5325,"estic":5326,"rier":5327,"Ġcommitted":5328,"Ġprinciples":5329,"Ġeating":5330,"ĠBur":5331,"Ġvisited":5332,"Ġknock":5333,"Ġfeast":5334,"osal":5335,"Ġstayed":5336,"Ġadmiration":5337,"ĠMal":5338,"Ġreven":5339,"Ġrealized":5340,"Ġhastily":5341,"Ġburned":5342,"Ġfourth":5343,"ĠJoseph":5344,"Ġinvestig":5345,"Because":5346,"Ġannoy":5347,"Ġmix":5348,"Ġmounted":5349,"Ġ13":5350,"lor":5351,"arn":5352,"Ġslaves":5353,"Ġkinds":5354,"Ġunp":5355,"Ġmarket":5356,"Ġcro":5357,"Ġrum":5358,"Ġcomr":5359,"Ġdelay":5360,"Ġexercise":5361,"ubb":5362,"Ġcontained":5363,"Ġdemon":5364,"Ġpron":5365,"board":5366,"Ġpil":5367,"Still":5368,"Ġapproaching":5369,"Ġsugar":5370,"Ġrestr":5371,"ĠCath":5372,"uits":5373,"Ġbride":5374,"Ġcheek":5375,"Ġnights":5376,"ĠWin":5377,"Ġlocked":5378,"Ġarmed":5379,"esc":5380,"atively":5381,"Ġinterview":5382,"Ġtrack":5383,"Ġstates":5384,"Ġgrin":5385,"Ġsetting":5386,"Ġhorn":5387,"Ġtal":5388,"Ġling":5389,"Many":5390,"ilst":5391,"More":5392,"omin":5393,"Ġpist":5394,"Ġwhenever":5395,"uding":5396,"omething":5397,"ĠCast":5398,"ishes":5399,"utch":5400,"Ġ''":5401,"IG":5402,"Ġjumped":5403,"Ġhesitated":5404,"burg":5405,"Ġfeather":5406,"agn":5407,"eps":5408,"ouring":5409,"',":5410,"Ġswall":5411,"III":5412,"Ġabrupt":5413,"umes":5414,"cer":5415,"Ġcalls":5416,"Ġwarning":5417,"ella":5418,"Ġsteady":5419,"mother":5420,"Ġcollect":5421,"Ġnin":5422,"Ġunfortunate":5423,"ĠSy":5424,"irty":5425,"Ġprincess":5426,"Ġpermitted":5427,"Ġconclusion":5428,"Ġprofound":5429,"oser":5430,"Ġbeard":5431,"Ġbones":5432,"Ã¦":5433,"urance":5434,"ada":5435,"ĠTw":5436,"ĠFrancis":5437,"ifts":5438,"Ġhaste":5439,"Ġshed":5440,"ulate":5441,"Ġdoctr":5442,"ĠChe":5443,"Ġconsent":5444,"inity":5445,"Ġunl":5446,"Ġtrip":5447,"ĠRiver":5448,"has":5449,"iece":5450,"Ġrights":5451,"Ġdistrict":5452,"unning":5453,"Ġglorious":5454,"Ġcottage":5455,"Ġweakness":5456,"Ġstrict":5457,"Ġabsor":5458,"aks":5459,"Ex":5460,"Ġreign":5461,"Ġcalcul":5462,"Ġhence":5463,"Ġdescription":5464,"ĠPark":5465,"Ġmisery":5466,"order":5467,"Ġphr":5468,"Ġpage":5469,"Ġshaking":5470,"Ġdefinite":5471,"edy":5472,"Ġinsisted":5473,"geon":5474,"Ġcomposed":5475,"Ġinvited":5476,"olution":5477,"Ġbelonged":5478,"bon":5479,"Ġsounded":5480,"Ġproportion":5481,"Ġflood":5482,"Ġprotection":5483,"Ġenjoyed":5484,"ĠOl":5485,"ĠPol":5486,"Ġwondering":5487,"Ġcheck":5488,"Ġvac":5489,"Ġcompre":5490,"Ġtoss":5491,"gon":5492,"armed":5493,"ĠMargaret":5494,"Ġabroad":5495,"ĠItal":5496,"Ġwhilst":5497,"add":5498,"house":5499,"Ġsteep":5500,"**":5501,"ĠFair":5502,"Ġatmosphere":5503,"Ġawa":5504,"Ġfix":5505,"Ġmidnight":5506,"Ġfulf":5507,"Ġcontract":5508,"ĠSon":5509,"Ġvanished":5510,"aints":5511,"ĠStr":5512,"Ġecho":5513,"Ġwooden":5514,"ais":5515,"eg":5516,"Ġshone":5517,"Ġeternal":5518,"ĠCom":5519,"Ġgoods":5520,"ĠJean":5521,"Ġbosom":5522,"pent":5523,"Ġmud":5524,"Ġstair":5525,"erent":5526,"oln":5527,"Ġcries":5528,"Ġconcern":5529,"Ġanywhere":5530,"Ġsentiment":5531,"upon":5532,"Ġvers":5533,"Ġpunishment":5534,"Qu":5535,"Ġtemple":5536,"ai":5537,"Ġinhabitants":5538,"Ġloves":5539,"Ġretired":5540,"cts":5541,"Ġacquainted":5542,"Ġliqu":5543,"Ġsufficiently":5544,"awn":5545,"Ġhaunt":5546,"Ġmillion":5547,"Ġintroduced":5548,"Ġexception":5549,"iday":5550,"Ġlearning":5551,"ĠVen":5552,"ĠJune":5553,"Ġfired":5554,"Ġimage":5555,"enes":5556,"ancholy":5557,"Ġsharply":5558,"Ġproblem":5559,"held":5560,"Ġrecovered":5561,"See":5562,"Ġclock":5563,"ĠMore":5564,"ĠPh":5565,"hend":5566,"Ġstated":5567,"lers":5568,"Ġaspect":5569,"eel":5570,"standing":5571,"Ġtroubles":5572,"ĠProfessor":5573,"acon":5574,"Ġming":5575,"enger":5576,"Ġconcluded":5577,"Ġetc":5578,".]":5579,"Once":5580,"oqu":5581,"Ġbrow":5582,"Nor":5583,"ĠEmperor":5584,"Ġconven":5585,"Ġmanners":5586,"Ġax":5587,"Ġawake":5588,"Ġmistaken":5589,"ĠComp":5590,"owned":5591,"ĠJer":5592,"Ġtitle":5593,"Ġsisters":5594,"Ġridic":5595,"Ġtear":5596,"Ġforever":5597,"ĠTwo":5598,"Ġleader":5599,"ĠGreek":5600,"Ġrendered":5601,"orse":5602,"Ġnurs":5603,"ĠSqu":5604,"Ġstartled":5605,"rim":5606,"Ġstatement":5607,"Those":5608,"Ġignorant":5609,"ĠCity":5610,"Ġappeal":5611,"Ġsignific":5612,"Ġargument":5613,"Ġcrowded":5614,"Ġaffected":5615,"Ġhyp":5616,"hered":5617,"udes":5618,"Ġpatience":5619,"Ġfatal":5620,"Ġsimpl":5621,"ĠLong":5622,"Ġsang":5623,"Ġbade":5624,"Ġcounsel":5625,"Ġprivile":5626,"lest":5627,"Ġneighbor":5628,"Ġflash":5629,"ĠHol":5630,"Ġcared":5631,"Ġplat":5632,"Ġinsult":5633,"Sh":5634,"Ġcounter":5635,"Ġmelancholy":5636,"Ġdu":5637,"Ġsenses":5638,"Ġstronger":5639,"Ġrested":5640,"Ġurged":5641,"Ġdate":5642,"kerchief":5643,"ĠThy":5644,"Ġdesir":5645,"ĠHam":5646,"Ġcultiv":5647,"ĠAg":5648,"During":5649,"Ġwidow":5650,"Ġforbid":5651,"onsense":5652,"ĠGrace":5653,"ĠStep":5654,"Ġnational":5655,"ston":5656,"Ġincrease":5657,"otted":5658,"Ch":5659,"Ġartist":5660,"Ġboots":5661,"Ġgiant":5662,"Ġseries":5663,"Ġdrunk":5664,"ĠSus":5665,"Ġcities":5666,"Ġlibrary":5667,"Ġsixty":5668,"ĠAlice":5669,"Ġdesperate":5670,"Ġmagic":5671,"Ġfirmly":5672,"Ġcrack":5673,"Ġmerry":5674,"Tell":5675,"icks":5676,"Ġshake":5677,"do":5678,"ĠWood":5679,"ĠIm":5680,"iform":5681,"Ġastonishment":5682,"Ġgenerous":5683,"Ġleaf":5684,"Ġeleven":5685,"Ġsore":5686,"Ġsteel":5687,"ĠRep":5688,"Ġseparate":5689,"Ġvaluable":5690,"Ġbye":5691,"Ġhistor":5692,"Ġpoured":5693,"Ġattached":5694,"Ġirr":5695,"Ġscattered":5696,"icken":5697,"ĠBert":5698,"Ġtreasure":5699,"Ġpier":5700,"ugh":5701,"arl":5702,"Again":5703,"Ġresumed":5704,"Ġward":5705,"Ġheavily":5706,"Ġcolumn":5707,"Ġwaist":5708,"Ġhandkerchief":5709,"Ġunm":5710,"Ġprecise":5711,"Ġlin":5712,"Ġloft":5713,"mes":5714,"Ġtables":5715,"Ġdiamond":5716,"Ġhind":5717,"ĠLook":5718,"Was":5719,"Ġascend":5720,"Ġmovements":5721,"Ġcitizens":5722,"Ġlately":5723,"ĠTO":5724,"Ġexamined":5725,"Ġattended":5726,"there":5727,"Ġveget":5728,"Ġobserve":5729,"Ġswell":5730,"Ġtorn":5731,"Ġenormous":5732,"ĠMic":5733,"Ġcoach":5734,"Ġwing":5735,"Ġshelter":5736,"Ġquantity":5737,"Ġdelightful":5738,"Any":5739,"Ġstraw":5740,"ĠTe":5741,"Ġideal":5742,"Ġpound":5743,"Ġaccomplished":5744,"Ġlat":5745,"Ġincident":5746,"Ġinner":5747,"Ġhollow":5748,"ĠSpain":5749,"Ġcharm":5750,"Ġbeloved":5751,"Ġpig":5752,"Ġplants":5753,"lot":5754,"Take":5755,"Ġben":5756,"Ġbark":5757,"ki":5758,"Ġrender":5759,";\"":5760,"ĠLu":5761,"ĠGermany":5762,"Ġresc":5763,"Ġprosper":5764,"Ġrib":5765,"ĠSil":5766,"bor":5767,"Ġwarri":5768,"ĠItaly":5769,"Ġobsc":5770,"Ġhated":5771,"Ġcontempl":5772,"Ġsovere":5773,"long":5774,"Ġchain":5775,"rived":5776,"Ġleaning":5777,"Another":5778,"Ġhumble":5779,"Ġpainful":5780,"Ġmanifest":5781,"Ġdining":5782,"Ġseriously":5783,"Ġguest":5784,"Ġgown":5785,"AY":5786,"lies":5787,"rous":5788,"abbit":5789,"Ġtheat":5790,"Ġgrasp":5791,"raham":5792,"Ġdancing":5793,"Ġearlier":5794,"Ġperpet":5795,"Ġastonished":5796,"Ġpink":5797,"Ġdefend":5798,"Ġfee":5799,"Ġdestruction":5800,"Ã¨":5801,"Ġange":5802,"ĠSee":5803,"Ġabst":5804,"incoln":5805,"Ġeyed":5806,"ifying":5807,"Ġlocal":5808,"ĠFar":5809,"Ġnoon":5810,"Ġintent":5811,"Ġwriter":5812,"agger":5813,"Ġconsist":5814,"ipping":5815,"Ġslightest":5816,"Ġdeparted":5817,"Ġsource":5818,"Ġalike":5819,"ura":5820,"Ġadmin":5821,"kind":5822,"Ġplun":5823,"Ġdelivered":5824,"Ġknocked":5825,"Ġnearest":5826,"Ġgroan":5827,"sing":5828,"Ġmelt":5829,"Ġangel":5830,"Ġutmost":5831,"Ġcondu":5832,"Ġqualities":5833,"low":5834,"jud":5835,"Ġimprove":5836,"Ġwedding":5837,"Ġdifficulties":5838,"Ġages":5839,"Ġconvey":5840,"ption":5841,"Ġtones":5842,"Ġhearted":5843,"Ġbul":5844,"Ġcliff":5845,"Ġtrace":5846,"Ġdevelopment":5847,"Ġobed":5848,"Ġsuspect":5849,"conom":5850,"hether":5851,"Ġsummon":5852,"Ġcareer":5853,"Ġbadly":5854,"Ġod":5855,"Ġmild":5856,"Ġlabour":5857,"Ġexpedition":5858,"Ġconstit":5859,"Ġfolks":5860,"ĠRose":5861,"Ġsuggestion":5862,"Ġdecision":5863,"ĠMil":5864,"ums":5865,"Ġcauses":5866,"Ġtide":5867,"Ġproperly":5868,"assed":5869,"ĠEv":5870,"Ġshudd":5871,"uary":5872,"Ġdeliver":5873,"Ġproc":5874,"Ġstrongly":5875,"Ġorn":5876,"ĠRo":5877,"Ġric":5878,"Ġturns":5879,"astern":5880,"Ġcot":5881,"ĠSuch":5882,"liness":5883,"shine":5884,"Ġswim":5885,"Ġsmaller":5886,"amped":5887,"Ġpapa":5888,"Ġapplied":5889,"Ġbanks":5890,"Ġhabits":5891,"Ġwhence":5892,"Ġstout":5893,"Ġrent":5894,"Ġcreated":5895,"umbling":5896,"Ġacts":5897,"Ġabund":5898,"Ġrude":5899,"ĠBab":5900,"ĠJones":5901,"Ġadvent":5902,"Ġox":5903,"Ġrecomm":5904,"Ġcandle":5905,"Ġdragged":5906,"Ġsorts":5907,"ĠMajesty":5908,"Ġdoubtless":5909,"Ġsignal":5910,"Ġunusual":5911,"Ġwre":5912,"gly":5913,"Ġneat":5914,"Ġrenew":5915,"Ġfil":5916,"Ġscra":5917,"Ġfears":5918,"Ġsaddle":5919,"Ġeffects":5920,"Ġthread":5921,"ĠIre":5922,"ĠAfric":5923,"Ġteaching":5924,"ĠEs":5925,"Ġgas":5926,"zed":5927,"Ġchanges":5928,"riot":5929,"Ġfailure":5930,"Ġburden":5931,"fulness":5932,"Ġpup":5933,"Ġlawyer":5934,"Ġgates":5935,"Ġtowns":5936,"Ġlan":5937,"iana":5938,"Ġsteadily":5939,"Ġtin":5940,"Ġsne":5941,"Ġmaiden":5942,"Ġsurre":5943,"Had":5944,"Ġuniform":5945,"Ġovert":5946,"Ġoath":5947,"US":5948,"Ġcritic":5949,"Ġfemale":5950,"Ġacted":5951,"rer":5952,"Ġestate":5953,"Ġpowd":5954,"Ġhoriz":5955,"Ġscheme":5956,"Ġcontrib":5957,"Ġborne":5958,"Ġbond":5959,"Ġinches":5960,"Ġelectric":5961,"Ġintim":5962,"Ġkings":5963,"Jo":5964,"Ġbishop":5965,"Thank":5966,"aughters":5967,"Ġimpr":5968,"bour":5969,"Ġliterature":5970,"Ġregion":5971,"Ġheaded":5972,"ĠCorn":5973,"ores":5974,"ĠHill":5975,"Ġowner":5976,"Ġswung":5977,"Ġcommer":5978,"ĠRog":5979,"Ġthine":5980,"Ġachie":5981,"Ġantic":5982,"Ġinex":5983,"ula":5984,"Ġviolence":5985,"ĠPolly":5986,"Ġworry":5987,"Ġclimbed":5988,"isl":5989,"Ġreaching":5990,"ĠMed":5991,"Ġimagined":5992,"Ġcrept":5993,"Ġtick":5994,"Ġdarling":5995,"Ġextended":5996,"rily":5997,"Ġdriving":5998,"don":5999,"ĠLike":6000,"Ġours":6001,"Ġvoyage":6002,"Ġcountries":6003,"Ġseeking":6004,"Ġlandl":6005,"Ġdrinking":6006,"Ġoccasionally":6007,"Ġlightly":6008,"Ġpursued":6009,"Ġservices":6010,"Ġ,":6011,"Ġbeaten":6012,"Ġtower":6013,"Ġexert":6014,"Ġclergy":6015,"Ġherd":6016,"Ġshouldn":6017,"Ġnotion":6018,"Ġmixed":6019,"Ġassumed":6020,"Ġbuck":6021,"Ġafterward":6022,"aging":6023,"Ġviews":6024,"onies":6025,"ĠHal":6026,"Ġnut":6027,"Ġdeserted":6028,"ĠBible":6029,"Ġdescended":6030,"Ġdrank":6031,"arry":6032,"Ġapartment":6033,"Ġcher":6034,"keep":6035,"Ġignorance":6036,"Ġmagnificent":6037,"ĠVal":6038,"Ġinfant":6039,"Ġchim":6040,"Ġembarr":6041,"Ġgoodness":6042,"iasm":6043,"Ġmedic":6044,"aping":6045,"ĠJacob":6046,"engers":6047,"Though":6048,"Ġseparated":6049,"Ġparted":6050,"Ġgrowth":6051,"ĠCat":6052,"ĠJap":6053,"Ġsunshine":6054,"Ġ20":6055,"Ġpenet":6056,"Ġbasket":6057,"nat":6058,"Ġvisitor":6059,"Ġswiftly":6060,"ĠFin":6061,"Ġmortal":6062,"Ġens":6063,"ĠLincoln":6064,"Ġassure":6065,"Ġmanage":6066,"Ġclasses":6067,"row":6068,"Ġugly":6069,"ĠBetty":6070,"Ġinsp":6071,"ĠBer":6072,"Ġcraft":6073,"EC":6074,"eanwhile":6075,"Ġliber":6076,"icity":6077,"Ġdefence":6078,"hem":6079,"ĠSen":6080,"Ġcoo":6081,"Ġelement":6082,"Ġchiefly":6083,"Ġcas":6084,"exic":6085,"Ġagreeable":6086,"had":6087,"ÃĦ":6088,"Ġinch":6089,"^^":6090,"Ġconcealed":6091,"Ġobservation":6092,"Ġnevertheless":6093,"Re":6094,"Ġconceal":6095,"iving":6096,"Ġpolite":6097,"aver":6098,"Ġcommission":6099,"itating":6100,"Ġinstrument":6101,"Ġlap":6102,"Ġcompass":6103,"Ġge":6104,"Ġcheap":6105,"Ġfurnished":6106,"Ġreputation":6107,"cast":6108,"sm":6109,"Ġeconom":6110,"Ġbranch":6111,"ĠKe":6112,"Ġwinds":6113,"Ġremaining":6114,"Ġobserv":6115,"gu":6116,"Ġattempted":6117,"ĠItalian":6118,"Ġuncertain":6119,"ĠLat":6120,"otes":6121,"Ġprocl":6122,"Ġphot":6123,"vest":6124,"ĠCong":6125,"Ġpriests":6126,"met":6127,"Ġimpulse":6128,"Ġsafely":6129,"Ġuniversal":6130,"Ġthrowing":6131,"worth":6132,"Ġanticip":6133,"Ġfamilies":6134,"Ġlun":6135,"ĠMartin":6136,"Ġcaval":6137,"omed":6138,"Ġclerk":6139,"Ġgazing":6140,"Ġze":6141,"Ġvictim":6142,"ĠVan":6143,"Ġdeny":6144,"Ġvessels":6145,"Ġhumanity":6146,"Ġcolored":6147,"eral":6148,"iel":6149,"Ġtempor":6150,"Ġfurniture":6151,"Ġfreely":6152,"xed":6153,"ĠWould":6154,"ĠDorothy":6155,"Ġsuspected":6156,"ĠVer":6157,"Ġreadily":6158,"Ġpublished":6159,"ufact":6160,"Ġdisposed":6161,"ĠDun":6162,"ĠRev":6163,"Ġcave":6164,"Ġdegrees":6165,"ĠTem":6166,"Ġpointing":6167,"Ġrepresented":6168,"Ġnon":6169,"Ġdisease":6170,"Ġportra":6171,"Ã¢":6172,"Ġdisturbed":6173,"Ġaudience":6174,"ache":6175,"Ġenthusiasm":6176,"gest":6177,"Ġslip":6178,"Ġeaten":6179,"Ġrespond":6180,"non":6181,"Ġpolicy":6182,"Ġarticle":6183,"Ġpoetry":6184,"ĠMexic":6185,"Ġprayers":6186,"ĠDiv":6187,"ĠBell":6188,"Ġspell":6189,"Ġreflected":6190,"Ġdaughters":6191,"Ġstol":6192,"Ġreckon":6193,"eve":6194,"Ġdeveloped":6195,"ĠOct":6196,"opes":6197,"Ġpaint":6198,"Ġconviction":6199,"ggy":6200,"Ġpurple":6201,"Ġchose":6202,"Ġgranted":6203,"Ġacknowled":6204,"Ġintellectual":6205,"olation":6206,"Ġquarrel":6207,"eter":6208,"Ġusing":6209,"asm":6210,"Ġlanded":6211,"Having":6212,"Ġfires":6213,"rep":6214,"inction":6215,"ĠFirst":6216,"ĠNothing":6217,"Ġrevealed":6218,"Ġfame":6219,"ĠStill":6220,"Ġpant":6221,"Ġflashed":6222,"Ġbeings":6223,"ĠSar":6224,"Ġdressing":6225,"rael":6226,"Ġnoted":6227,"Ġoccasions":6228,"Ġphilosophy":6229,"ground":6230,"Ġfasc":6231,"Ġlift":6232,"cest":6233,"Ġentering":6234,"Ġhospital":6235,"Ġdisturb":6236,"Ġbedroom":6237,"Ġgratitude":6238,"Ġgrateful":6239,"inated":6240,"Ġwire":6241,"Ġstrangers":6242,"Tr":6243,"Would":6244,"da":6245,"Ġfolk":6246,"Ġrifle":6247,"Ġcontrast":6248,"RO":6249,"igg":6250,"Ġexecution":6251,"Ġsubstance":6252,"Ġcraw":6253,"Ġexcess":6254,"Ġstrain":6255,"Ġmamma":6256,"Ġsurv":6257,"Ġexamination":6258,"Ġlesson":6259,"Ġanch":6260,"Ġvolume":6261,"Ġlikewise":6262,"Ġmead":6263,"lict":6264,"aign":6265,"Ġnaked":6266,"Ġhoney":6267,"Ġouter":6268,"Ġfinds":6269,"Ġfairy":6270,"Ġcomment":6271,"mat":6272,"Ġmankind":6273,"Ġdeed":6274,"ago":6275,"hess":6276,"Ġessential":6277,"ĠCam":6278,"Ġleaped":6279,"Ġbewild":6280,"Ġpace":6281,"Ġmanufact":6282,"Ġscientific":6283,"Poor":6284,"ĠIndia":6285,"Ġoperation":6286,"ĠMel":6287,"Ġcleared":6288,"Ġgrandfather":6289,"ĠEr":6290,"Ġrecover":6291,"Ġbenefit":6292,"ĠJews":6293,"Ġmissed":6294,"Ġtomb":6295,"ĠJuly":6296,"ĠSal":6297,"ĠRom":6298,"leness":6299,"ĠNap":6300,"eur":6301,"ola":6302,"Ġspecul":6303,"Ġcloser":6304,"Ġchin":6305,"Ġupstairs":6306,"Therefore":6307,"''":6308,"Ġmarks":6309,"wick":6310,"ĠRos":6311,"ittee":6312,"uced":6313,"Ġrelated":6314,"iour":6315,"Ġsheet":6316,"Ġconsid":6317,"Ġseed":6318,"pri":6319,"omfort":6320,"quet":6321,"Ġshield":6322,"Ġga":6323,"Ġmaybe":6324,"Ġleis":6325,"Ġtreatment":6326,"ana":6327,"Ġ/":6328,"Ġfearful":6329,"Ġwake":6330,"Ġvel":6331,"ĠRal":6332,"Ġrecon":6333,"ĠFlore":6334,"ĠNat":6335,"Ġarticles":6336,"ĠWor":6337,"ands":6338,"ĠPier":6339,"Ġexperienced":6340,"bur":6341,"which":6342,"ĠII":6343,"Ġwash":6344,"osure":6345,"Ġinspect":6346,"ĠUnion":6347,"Ġroads":6348,"Mar":6349,"henomen":6350,"Ġthreatened":6351,"Ġbath":6352,"vert":6353,"ribly":6354,"rid":6355,"Ġhappens":6356,"ĠEn":6357,"Ġcloak":6358,"Ġnatives":6359,"cks":6360,"About":6361,"ĠRuth":6362,"Ġinev":6363,"ĠEarth":6364,"Ġcontinually":6365,"Ġthirst":6366,"Ġtransl":6367,"Ġdirections":6368,"Ġrepeat":6369,"Ġcomplex":6370,"UT":6371,"Ġhastened":6372,"Ġfrequent":6373,"iveness":6374,"ĠSher":6375,"eous":6376,"Ġfalls":6377,"bow":6378,"Ġdismiss":6379,"Ġgrant":6380,"Ġpuzzled":6381,"gram":6382,"ĠHoll":6383,"Ġgesture":6384,"Ġincred":6385,"Ġblock":6386,"vol":6387,"Ġfinish":6388,"Ġglow":6389,"ĠParliament":6390,"Ġdeeper":6391,"oration":6392,"Ġprotest":6393,"Ġsending":6394,"ID":6395,"ĠRussian":6396,"Ġsilly":6397,"Ġnegro":6398,"ccord":6399,"Ġexhausted":6400,"Ġenterpr":6401,"Ġswear":6402,"Ġvariety":6403,"Ġbeating":6404,"gent":6405,"Ġdaz":6406,"'\"":6407,"ĠNed":6408,"Ġlion":6409,"ĠBesides":6410,"liest":6411,"Ġbloom":6412,"ĠMir":6413,"Ġsoot":6414,"Ġdisposition":6415,"Ġfund":6416,"Ġaven":6417,"Ġgovernor":6418,"Ġwrath":6419,"ĠTell":6420,"athetic":6421,"Ġtravell":6422,"iated":6423,"ique":6424,"Ġconfident":6425,"Ġadopted":6426,"haw":6427,"Ġash":6428,"iring":6429,"11":6430,"Ġsecured":6431,"Ġendure":6432,"Ġapt":6433,"iverse":6434,"Certainly":6435,"Ġjack":6436,"Ġbrings":6437,"Ġabandoned":6438,"Ġtriump":6439,"Ġpossibility":6440,"Ġhiding":6441,"Ġactions":6442,"Ġstarting":6443,"Ġsailed":6444,"Ġshortly":6445,"Ġtremend":6446,"itory":6447,"Ġdirty":6448,"Ġidle":6449,"Ġlect":6450,"Ġplatform":6451,"Ġsovereign":6452,"Ġmetal":6453,"Ġreported":6454,"Ġunre":6455,"lessness":6456,"Ġdart":6457,"Ġsins":6458,"see":6459,"Ġdil":6460,"Ġoverw":6461,"Ġcorr":6462,"geant":6463,"Ġindifferent":6464,"eman":6465,"Ġheavens":6466,"Tis":6467,"Ġintr":6468,"Ġsomeone":6469,"la":6470,"ĠBefore":6471,"Ġnewspaper":6472,"izz":6473,"Ġreflection":6474,"Ġrealize":6475,"Ġstudied":6476,"Ġvolunt":6477,"Ġstirred":6478,"Ġroar":6479,"Ġcoward":6480,"Ġfarmer":6481,"Ġtun":6482,"Ġinse":6483,"pring":6484,"ĠChan":6485,"Ġmock":6486,"ends":6487,"Ġhitherto":6488,"Ġcollege":6489,"Ġpurposes":6490,"Ġhundreds":6491,"Ġselfish":6492,"ĠJapan":6493,"Ġsilently":6494,"bre":6495,"Ġregiment":6496,"Ġcompet":6497,"olate":6498,"Ġcoal":6499,"Ġdomestic":6500,"ros":6501,"Ġunple":6502,"ĠMid":6503,"Ġfed":6504,"Ġfunny":6505,"Ġbreeze":6506,"Ġfury":6507,"Ġbegins":6508,"Ġflow":6509,"Ġgrounds":6510,"abled":6511,"ĠSept":6512,"Le":6513,"ĠOnce":6514,"Ġagony":6515,"ĠLife":6516,"lets":6517,"ae":6518,"Ġdoorway":6519,"Ġdevotion":6520,"ĠApril":6521,"ĠScotland":6522,"Ġphenomen":6523,"achel":6524,"Ġknee":6525,"Ġnois":6526,"Ġboast":6527,"Ġventure":6528,"Ġtimid":6529,"Ġwearing":6530,"ression":6531,"Ġpermit":6532,"Ġprofess":6533,"Ġdistinctly":6534,"hael":6535,"Ġdisappointed":6536,"Ġbrid":6537,"Ġgenu":6538,"Ġpopulation":6539,"Ġcopy":6540,"ĠKate":6541,"Ġdescribe":6542,"Ġaccur":6543,"Ġcenturies":6544,"olt":6545,"Ġbeasts":6546,"Ġbatt":6547,"Ġchapter":6548,"Ġovercome":6549,"ĠConf":6550,"bbing":6551,"ĠSer":6552,"Ġprobable":6553,"Ġmajority":6554,"Ġprud":6555,"Ġmarched":6556,"abb":6557,"ĠBaron":6558,"Ġgifts":6559,"Ġsway":6560,"Ġrolling":6561,"Ġcompared":6562,"Ġperformed":6563,"oh":6564,"uish":6565,"Ġbeach":6566,"rels":6567,"ĠHon":6568,"Ġpover":6569,"Ġexpense":6570,"Ġdisag":6571,"ĠMill":6572,"place":6573,"Ġbushes":6574,"Ġdecide":6575,"Ġabsent":6576,"Ġbat":6577,"Ġsust":6578,"Ġjoke":6579,"Ġ186":6580,"Ġperil":6581,"ĠGrant":6582,"Ġmillions":6583,"Ġ25":6584,"Ġabruptly":6585,"Ġpoverty":6586,"Ġsen":6587,"Ġadmire":6588,"Ġtub":6589,"Ġstuck":6590,"Ġfootst":6591,"Ġdoc":6592,"Ġexceedingly":6593,"Ġsupreme":6594,"Ġdepths":6595,"arson":6596,"Ġlanding":6597,"ĠIsrael":6598,"ari":6599,"Ġinfer":6600,"Ġsmart":6601,"Ġdiscussion":6602,"Ġhomes":6603,"Ġattacked":6604,"Ġpressure":6605,"Ġdetail":6606,"Ġrules":6607,"Ġsubs":6608,"reek":6609,"elly":6610,"riet":6611,"after":6612,"Ġinsist":6613,"Ġattrib":6614,"Ġapplic":6615,"Ġcoloured":6616,"Ġdat":6617,"Ġactivity":6618,"Ġresting":6619,"Ġcutting":6620,"Art":6621,"Ġdischar":6622,"Ġshalt":6623,"Ġsensible":6624,"Ġfastened":6625,"ĠCap":6626,"Ġresolution":6627,"ĠBay":6628,"Ġavail":6629,"phy":6630,"Ġreduced":6631,"Ġliterary":6632,"Ġmirr":6633,"Ġreflect":6634,"Ġinher":6635,"Ġsincere":6636,"Ġautumn":6637,"Ġtoler":6638,"Ġminded":6639,"akened":6640,"Ġopinions":6641,"Ġcalmly":6642,"they":6643,"Ġcircumstance":6644,"ita":6645,"ĠLake":6646,"lar":6647,"ĠThough":6648,"Ġfolly":6649,"Ġapprehens":6650,"Ġraising":6651,"Ġcharged":6652,"fa":6653,"Ġmotive":6654,"Ġcru":6655,"Ġchairs":6656,"ĠDen":6657,"Besides":6658,"Ġbeheld":6659,"Ġpages":6660,"Ġeh":6661,"Ġearnestly":6662,"Ġdaylight":6663,"Ġgloomy":6664,"Ġhatred":6665,"ĠTH":6666,"Ġwashed":6667,"Ġmast":6668,"urday":6669,"ĠSaint":6670,"pherd":6671,"Ġgravely":6672,"Ġdetective":6673,"De":6674,"Ġmarble":6675,"kward":6676,"Ġmate":6677,"Ġexperiment":6678,"Ġadminist":6679,"ĠRem":6680,"gen":6681,"ĠColl":6682,"anks":6683,"Ġwagon":6684,"Ġlimbs":6685,"ĠBishop":6686,"Ġvivid":6687,"Ġsmoking":6688,"IF":6689,"Ġbuildings":6690,"Ġard":6691,"ĠCompany":6692,"Ġinquiry":6693,"Ġagent":6694,"Ġruns":6695,"Ġprejud":6696,"Ġteleph":6697,"XX":6698,"ĠCatholic":6699,"Ġloyal":6700,"ĠTherefore":6701,"Ġwandered":6702,"Ġcompleted":6703,"Ġheap":6704,"work":6705,"ribed":6706,"CH":6707,"alled":6708,"Ġfence":6709,"Ġzeal":6710,"Ġeloqu":6711,"Ġopposition":6712,"Ġleather":6713,"Ġacting":6714,"Ġappet":6715,"Ġstring":6716,"Ġunion":6717,"ĠOff":6718,"bbed":6719,"Ġreference":6720,"Ġsacrific":6721,"Ġsumm":6722,"Ġfeed":6723,"ĠWhich":6724,"Ġult":6725,"idents":6726,"Ġtrembled":6727,"Ġobvious":6728,"olf":6729,"Ġremarks":6730,"Ġhandle":6731,"Ġseas":6732,"ĠSav":6733,"Ġtrunk":6734,"Ġclimb":6735,"Ġbloss":6736,"Ġacquired":6737,"ĠDuc":6738,"EAR":6739,"Ġpursuit":6740,"Ġconstitution":6741,"ĠGovernor":6742,"Ġrefuge":6743,"Ġgrav":6744,"ooks":6745,"Ġentreat":6746,"Ġpsy":6747,"Ġambition":6748,"Ġlunch":6749,"ĠLie":6750,"Ġpine":6751,"Ġsym":6752,"Ġbatter":6753,"ĠIts":6754,"Ġgenuine":6755,"Ġmethods":6756,"Ġmoonlight":6757,"otions":6758,"Ġinvent":6759,"ÃĦÃ":6760,"Ġbreathing":6761,"this":6762,"Ġawkward":6763,"ĠDeath":6764,"Like":6765,"Ġattent":6766,"Ġdomin":6767,"Ġrival":6768,"Ġstaff":6769,"ober":6770,"ĠProv":6771,"isk":6772,"Ġprofit":6773,"ĠAgain":6774,"Ġmart":6775,"mony":6776,"Ġcards":6777,"Ġrelieved":6778,"Ġnav":6779,"Ġcontact":6780,"amation":6781,"Ġdeclare":6782,"orter":6783,"asion":6784,"Ġmarve":6785,"hand":6786,"Ġperple":6787,"ĠPen":6788,"Ġdisgrace":6789,"ĠDes":6790,"Ġharsh":6791,"Con":6792,"ĠBra":6793,"Ġgathering":6794,"oubted":6795,"isible":6796,"Ġbitterly":6797,"Ġbelongs":6798,"SE":6799,"Ġability":6800,"Ġprophe":6801,"Ġrot":6802,"Ġshru":6803,"quisite":6804,"Ġowing":6805,"_\"":6806,"Ġconstru":6807,"Ġfitted":6808,"withstanding":6809,"Ġreject":6810,"ooped":6811,"racted":6812,"Ġdisgu":6813,"asper":6814,"Ġroses":6815,"Ġdoctrine":6816,"Ġancest":6817,"leton":6818,"Ġpistol":6819,"Ġdistinction":6820,"Ġcrossing":6821,"ĠGold":6822,"Ġmale":6823,"Ġblew":6824,"Ġlust":6825,"Ġsink":6826,"ormal":6827,"Ġschol":6828,"itty":6829,"Ġheels":6830,"ĠBoy":6831,"Ġexposed":6832,"Ġangels":6833,"Ġton":6834,"Ġcharacters":6835,"Thou":6836,"Ġtouching":6837,"Upon":6838,"Ġtum":6839,"Ġbush":6840,"Ġcommenced":6841,"Ġrecent":6842,"Ġfid":6843,"iam":6844,"ĠLucy":6845,"ulgar":6846,"Ġdisappointment":6847,"ato":6848,"Ġshirt":6849,"iano":6850,"Ġunlike":6851,"Ġcampaign":6852,"Ġrevolution":6853,"piration":6854,"Ġsadly":6855,"seen":6856,"Ġcouncil":6857,"Ġnerves":6858,"Ġiv":6859,"Ġwanting":6860,"Ġblessing":6861,"Ġstrangely":6862,"usk":6863,"ica":6864,"acc":6865,"Ġaccordingly":6866,"outs":6867,"Ġaltern":6868,"Ġingen":6869,"Ġrestored":6870,"ĠArab":6871,"Ġsensation":6872,"Ġkeeps":6873,"Ġpreserved":6874,"Ġweapon":6875,"Ġwives":6876,"ĠSol":6877,"ĠIreland":6878,"Ġamused":6879,"Ġwandering":6880,"Ġindust":6881,"Ġleaders":6882,"Ġdearest":6883,"Ġconfused":6884,"Ġpermission":6885,"pers":6886,"Ġheed":6887,"ĠKat":6888,"Ġpark":6889,"Ġrevel":6890,"rod":6891,"Ġunited":6892,"uously":6893,"Ġgover":6894,"Since":6895,"Ġpractically":6896,"Ġfox":6897,"Ġscenes":6898,"Ġreasonable":6899,"Ġfavourite":6900,"ĠRoyal":6901,"Ġhunger":6902,"Ġflut":6903,"Ġlightning":6904,"10":6905,"Ġfeeble":6906,"Ġsailor":6907,"Ġdimin":6908,"Ġperman":6909,"Ġdreamed":6910,"Ġwilder":6911,"actory":6912,"ĠAny":6913,"Ġwherever":6914,"Ġgallop":6915,"Ġissue":6916,"ĠRalph":6917,"angled":6918,"Sometimes":6919,"Se":6920,"ĠSu":6921,"ĠGal":6922,"ieu":6923,"Ġmasters":6924,"Ġstole":6925,"orne":6926,"ping":6927,"Ġscarce":6928,"Ġelev":6929,"Ġpains":6930,"ĠVict":6931,"Ġapply":6932,"Ġdeeds":6933,"Ġpile":6934,"ĠTake":6935,"ĠEle":6936,"Ġtob":6937,"ĠGerm":6938,"ĠEllen":6939,"ĠBost":6940,"Ġprecip":6941,"ĠMen":6942,"Ġinterior":6943,"uer":6944,"acco":6945,"Ġinstructions":6946,"Ġexquisite":6947,"Ġintelligent":6948,"Ġflushed":6949,"Ġwolf":6950,"pled":6951,"CE":6952,"keeper":6953,"omach":6954,"Ġruined":6955,"Ġspeaks":6956,"ĠCongress":6957,"ona":6958,"Ġfanci":6959,"âĢĵ":6960,"Ġperceive":6961,"Among":6962,"Ġfest":6963,"ĠVirginia":6964,"ĠSecret":6965,"Ġveil":6966,"ĠThose":6967,"Ġwept":6968,"Ġadj":6969,"Ġchem":6970,"Ġresour":6971,"Ġwrapped":6972,"Ġreproach":6973,"sell":6974,"Ġnonsense":6975,"Ġfatig":6976,"Ġber":6977,"Ġphilosopher":6978,"Ġintimate":6979,"orable":6980,"usc":6981,"Ġmant":6982,"ĠFox":6983,"Ġchuck":6984,"Ġventured":6985,"AND":6986,"Ġduke":6987,"OT":6988,"Ġslender":6989,"Ġengagement":6990,"Ġpref":6991,"Ġbund":6992,"alem":6993,"ĠLee":6994,"Ġknights":6995,"Ġtreas":6996,"Ġeleg":6997,"Ġfortunate":6998,"Ġdriver":6999,"fortune":7000,"Ġaged":7001,"Ġgallant":7002,"sters":7003,"Ġobeyed":7004,"ĠSaturday":7005,"Ġ24":7006,"ĠDutch":7007,"Ġweeping":7008,"Ġcontents":7009,"Ġincon":7010,"Dear":7011,"icient":7012,"Ġdeadly":7013,"ĠTre":7014,"Ġreminded":7015,"ĠSeptember":7016,"Bet":7017,"Ġscore":7018,"Lord":7019,"Ġdebt":7020,"Ġanyway":7021,"Ġhorizon":7022,"Ġslavery":7023,"ĠDar":7024,"Ġfeels":7025,"Ġpool":7026,"rian":7027,"Ġhumour":7028,"Ġperfection":7029,"Ġcollected":7030,"ste":7031,"Ġmoder":7032,"Ġinterpret":7033,"Ġarrive":7034,"Ġarrangement":7035,"ĠHaw":7036,"Ġstruct":7037,"Ġcharity":7038,"icing":7039,"obody":7040,"12":7041,"Ġelements":7042,"Ġceremony":7043,"case":7044,"ĠOb":7045,"Ġtremendous":7046,"Ġreceiving":7047,"ĠThor":7048,"Ġbrush":7049,"Ġbeds":7050,"Ġimmort":7051,"Ġoak":7052,"Ġhed":7053,"Ġtraged":7054,"Ġdesires":7055,"Ġgang":7056,"Ġfetch":7057,"15":7058,"Ġglasses":7059,"ĠDay":7060,"Ġinvitation":7061,"Ġpond":7062,"Ġprevented":7063,"Ġindependent":7064,"ĠLand":7065,".'\"":7066,"ĠCoun":7067,"Ġobjection":7068,"Ġbears":7069,"ĠEve":7070,"Ġholds":7071,"Ġ22":7072,"ĠDem":7073,"Ġesteem":7074,"Ġprize":7075,"Ġdivision":7076,"Ġtrap":7077,"Ġmonarch":7078,"Ġeighteen":7079,"omer":7080,"Ġthence":7081,"Ġnorthern":7082,"ĠHugh":7083,"Ġtext":7084,"ĠMany":7085,"Ġpatter":7086,"Ġlosing":7087,"Ġped":7088,"Ġcriminal":7089,"Ġtap":7090,"ĠCH":7091,"Ġslain":7092,"ĠHowever":7093,"Ġstolen":7094,"iah":7095,"ORD":7096,"irk":7097,"Ġmingled":7098,"Ġrisen":7099,"Ġresent":7100,"Ġconflict":7101,"Ġprepare":7102,"ifully":7103,"Ġarrested":7104,"Ġcunning":7105,"Ġnep":7106,"orus":7107,"Ġbells":7108,"Ġlaying":7109,"Ġpromptly":7110,"Ġ23":7111,"ĠWalter":7112,"Ġsongs":7113,"Ġphrase":7114,"Ġprovisions":7115,"ucky":7116,"Ġcease":7117,"who":7118,"Ġcaptured":7119,"Ġshy":7120,"John":7121,"Ġislands":7122,"irmed":7123,"Ġstomach":7124,"Ġchimney":7125,"org":7126,"ĠLatin":7127,"Ġperf":7128,"inations":7129,"Ġremove":7130,"Ġfolded":7131,"Ġindignation":7132,"Ġcigaret":7133,"Cl":7134,"ĠPri":7135,"bo":7136,"Ġrespectable":7137,"Ġmars":7138,"Ġdepos":7139,"ĠRod":7140,"Ġdeem":7141,"Ġclothing":7142,"Ġrailway":7143,"Ġmisfortune":7144,"18":7145,"Ġwestern":7146,"Ġpasses":7147,"Ġanxiously":7148,"Ġcelebrated":7149,"Ġcharacteristic":7150,"aph":7151,"ĠEarl":7152,"ĠOctober":7153,"Ġfancied":7154,"isten":7155,"Ġnephew":7156,"Ġunpleasant":7157,"Ġgoin":7158,"Ġrays":7159,"eenth":7160,"Ġelsewhere":7161,"Ġbelonging":7162,"Ġresistance":7163,"natural":7164,"Ġmode":7165,"Ġvisitors":7166,"ules":7167,"Ġcontaining":7168,"ĠPers":7169,"Ġtribe":7170,"ological":7171,"ĠSea":7172,"Ġpsych":7173,"Ġattracted":7174,"Ġload":7175,"Ġbarbar":7176,"Ġintend":7177,"Ġmedicine":7178,"Ġgasped":7179,"Ġlimit":7180,"Ġmultitude":7181,"Ġfarewell":7182,"Ġcommunication":7183,"Ġsupported":7184,"Ġconducted":7185,"ĠFR":7186,"Ġcontrad":7187,"tt":7188,"Ġsolitary":7189,"Ġmotor":7190,"Ġrailroad":7191,"lla":7192,"Ġconcent":7193,"Ġreform":7194,"Ġfog":7195,"Ġfaded":7196,"ovember":7197,"Ġju":7198,"Ġpockets":7199,"Ġstag":7200,"Ġincreasing":7201,"rive":7202,"Mad":7203,"Ġintervals":7204,"usions":7205,"Ġeasier":7206,"aying":7207,"Ġfrost":7208,"Ġembr":7209,"Ġmurdered":7210,"Ġerror":7211,"olas":7212,"uppose":7213,"ÅĮ":7214,"Ġcomrades":7215,"Ġmeasures":7216,"Ġwaved":7217,"Ġx":7218,"Ġdisagree":7219,"Ġoverwhel":7220,"aire":7221,"Ġwarned":7222,"teenth":7223,"ĠCastle":7224,"Ġtraining":7225,"ĠFer":7226,"Ġexamine":7227,"Ġcream":7228,"Ġdashed":7229,"Ġawoke":7230,"Ġprayed":7231,"____":7232,"Pres":7233,"Ġsed":7234,"ĠSax":7235,"Ġalarmed":7236,"ĠAc":7237,"Ġmotionless":7238,"ĠâĢ¢":7239,"Ġblast":7240,"Ġneighbourhood":7241,"Ġcotton":7242,"Ġtid":7243,"ĠEmp":7244,"ĠWall":7245,"itan":7246,"ĠSn":7247,"Ġtore":7248,"agon":7249,"inger":7250,"ÄĨ":7251,"Ġexisted":7252,"Ġfain":7253,"ÅĮÄĨ":7254,"Ġdisappear":7255,"ĠAv":7256,"Ġcounty":7257,"Ġguessed":7258,"aus":7259,"Ġrevenge":7260,"ĠMarie":7261,"Ġpreferred":7262,"aves":7263,"ashes":7264,"Ġoutward":7265,"Ġlonging":7266,"Ġimpressed":7267,"Ġpowder":7268,"Ġwrought":7269,"ĠShall":7270,"Ġcure":7271,"ruce":7272,"ivering":7273,"Ġroused":7274,"Ġlegal":7275,"usive":7276,"Ġauthorities":7277,"Ġregarding":7278,"ĠProt":7279,"abor":7280,"ĠEls":7281,"Ġamusement":7282,"wing":7283,"Ġplot":7284,"Ġbrig":7285,"Ġtenderness":7286,"Ġdaring":7287,"irts":7288,"Ġbarr":7289,"Ġformerly":7290,"Ġmischief":7291,"ĠScott":7292,"ĠStephen":7293,"Ġconfined":7294,"inese":7295,"vet":7296,"Ġissued":7297,"Ġconsequences":7298,"Ġassembled":7299,"Ġheir":7300,"Ġyonder":7301,"elia":7302,"verted":7303,"Ġgeneration":7304,"Ġprecisely":7305,"Ġburnt":7306,"Ġpresents":7307,"Ġyer":7308,"Ġrele":7309,"ĠKent":7310,"bridge":7311,"Ġamazement":7312,"Ġvenge":7313,"ĠDev":7314,"Ġindicated":7315,"Ġseventy":7316,"Ġfashioned":7317,"Ġdenied":7318,"Ġoffering":7319,"ĠIndeed":7320,"Ġtobacco":7321,"Ġowe":7322,"Ġremote":7323,"Ġsuperst":7324,"Ġdistrib":7325,"Ġjest":7326,"Pro":7327,"Ġstroke":7328,"hin":7329,"Ġreluct":7330,"Pe":7331,"anqu":7332,"Ġshooting":7333,"Ġmodest":7334,"Ġcapacity":7335,"Ġtestim":7336,"oonful":7337,"Ġlofty":7338,"ĠSpani":7339,"oiselle":7340,"itute":7341,"gate":7342,"ctive":7343,"Ġsolic":7344,"Ġwhir":7345,"nie":7346,"ĠAust":7347,"Ġcommunity":7348,"aith":7349,"Ġ{":7350,"Ġwha":7351,"Ġmessenger":7352,"Ġ(_":7353,"ĠYe":7354,"zing":7355,"ĠAng":7356,"Ġconsidering":7357,"Ġpersist":7358,"Ġanyhow":7359,"master":7360,"ĠTra":7361,"Ġblows":7362,"Ġautom":7363,"Ġaltar":7364,"Ġmaintain":7365,"Ġscale":7366,"Ġascertain":7367,"Ġgrows":7368,"Ġeveryone":7369,"Ġpaying":7370,"Ġphysician":7371,"Ġdrops":7372,"Ġapolog":7373,"Ġdece":7374,"Ġlively":7375,"Ġvirtues":7376,"Ġsupplied":7377,"Ġstopping":7378,"Ġtrained":7379,"Ġcounted":7380,"Ġquestioned":7381,"Ġhumb":7382,"Ġaverage":7383,"Ġvine":7384,"ĠGar":7385,"Ġmajesty":7386,"gend":7387,"Ġflames":7388,"Ġdisgust":7389,"back":7390,"ĠCross":7391,"ĠFlorence":7392,"Ġrecognize":7393,"ris":7394,"Ġbuff":7395,"Ġholes":7396,"ĠNight":7397,"ifting":7398,"Ġmob":7399,"Ġcorrid":7400,"Ġslope":7401,"....\"":7402,"Ġlantern":7403,"Ġabsorbed":7404,"ĠChristians":7405,"phant":7406,"Ġpolitics":7407,"Ġpassions":7408,"Ġmap":7409,"Ġlaz":7410,"Ġrecently":7411,"ĠBarb":7412,"Ġalter":7413,"ĠChief":7414,"ino":7415,"Ġdumb":7416,"ĠJimmy":7417,"Ġretorted":7418,"Ġfount":7419,"Ġprey":7420,"Ġpersuaded":7421,"aur":7422,"Ġsket":7423,"ĠCarol":7424,"Ġmas":7425,"Ġmirror":7426,"Ġupward":7427,"ĠChinese":7428,"ilda":7429,"ĠAndrew":7430,"Ġstable":7431,"ĠJohnson":7432,"Ġillness":7433,"ements":7434,"Ġrav":7435,"Ġpositive":7436,"Ġdoth":7437,"Ġ?\"":7438,"Ġtravelling":7439,"Ġdwelling":7440,"ĠBoston":7441,"Ġtrusted":7442,"Ġtar":7443,"Ġplunged":7444,"Ġillum":7445,"Ġsummoned":7446,"Ġrarely":7447,"emoiselle":7448,"Ġcavalry":7449,"Gr":7450,"angle":7451,"ena":7452,"Ġroot":7453,"Ġglimpse":7454,"cel":7455,"UL":7456,"Ġchildhood":7457,"arrison":7458,"ATION":7459,"Ġsober":7460,"Ġpir":7461,"Ġseconds":7462,"Ġpreparing":7463,"Ġheartily":7464,"Ġreferred":7465,"ĠSun":7466,"umps":7467,"Ġgarments":7468,"Ġcollar":7469,"Ġnecessarily":7470,"Ġappropri":7471,"ester":7472,"Ġpronounced":7473,"Ġwip":7474,"Ġencl":7475,"Ġridiculous":7476,"Ġresponsible":7477,"hire":7478,"ero":7479,"ĠJudge":7480,"Ġconfession":7481,"Ġrushing":7482,"Ġgracious":7483,"Ġroots":7484,"Ġsigned":7485,"ĠCur":7486,"Ġshouting":7487,"resses":7488,"oubtedly":7489,"iate":7490,"Ġdried":7491,"Ġwarn":7492,"emon":7493,"Ġpiano":7494,"ilight":7495,"Ġfathers":7496,"Ġexchange":7497,"Ġfinest":7498,"grat":7499,"Ġbehav":7500,"icy":7501,"TH":7502,"Ġdamp":7503,"Ġdecor":7504,"ĠMoses":7505,"Ġleads":7506,"andal":7507,"Ġchanging":7508,"Ġtops":7509,"apping":7510,"Ġ26":7511,"Ġfrown":7512,"Ġpassengers":7513,"Ġhospit":7514,"ĠMur":7515,"Ġcenter":7516,"ĠNovember":7517,"Ġmourn":7518,"ĠArch":7519,"Ġinward":7520,"encies":7521,"ĠPo":7522,"Suddenly":7523,"Ġlegisl":7524,"Ġbone":7525,"Ġlend":7526,"Ġrebell":7527,"Ġdeer":7528,"agnan":7529,"uddy":7530,"umption":7531,"Ġsouthern":7532,"Ġdetermination":7533,"nces":7534,"Ġlikes":7535,"anda":7536,"Ġportrait":7537,"Ġcryst":7538,"IST":7539,"Ġcigar":7540,"Ġrecollect":7541,"Ġmagist":7542,"Ġbreathed":7543,"Ġbench":7544,"lance":7545,"Ġsunset":7546,"Ġwilderness":7547,"Ġlessons":7548,"Ġweapons":7549,"ici":7550,"Ġconquer":7551,"Ġabandon":7552,"Ġletting":7553,"Ġemotions":7554,"Ġsatisfy":7555,"Ġrepent":7556,"rick":7557,"ĠNich":7558,"Ġsubsequ":7559,"Ġselected":7560,"Ġverse":7561,"Ġillust":7562,"Ġpersec":7563,"UN":7564,"Give":7565,"Ġmasses":7566,"14":7567,"Ġmeantime":7568,"Under":7569,"ĠGur":7570,"Ġawakened":7571,"Ġconfessed":7572,"Artagnan":7573,"ua":7574,"Ġpretended":7575,"pton":7576,"Ġglit":7577,"Ġpuff":7578,"Ġsteal":7579,"Ġmaintained":7580,"Ġprocession":7581,"oming":7582,"Ġmoreover":7583,"Ġstruggling":7584,"Ġsailors":7585,"Ġlimited":7586,"Ġkid":7587,"cr":7588,"ĠEst":7589,"Ġapple":7590,"coat":7591,"Ye":7592,"Ġvulgar":7593,"Ġtransp":7594,"Ġgardens":7595,"Most":7596,"Ġduck":7597,"Nay":7598,"Ġoverl":7599,"Ġinvisible":7600,"RA":7601,"ĠPierre":7602,"Ġcontain":7603,"Ġ30":7604,"tes":7605,"Ġdram":7606,"ĠAtl":7607,"Ġenabled":7608,"Ġsear":7609,"Ġinvolved":7610,"Ġcondemned":7611,"Ġthief":7612,"ĠMat":7613,"Ġfounded":7614,"Ġrelative":7615,"Ġcongrat":7616,"Ġtribes":7617,"enses":7618,"ĠEuropean":7619,"Ġcock":7620,"Ġjewels":7621,"Ġsuitable":7622,"Ġcontented":7623,"Ġcomprehend":7624,"ills":7625,"ĠON":7626,"ESS":7627,"Ġchase":7628,"vin":7629,"Ġhopeless":7630,"Ġmedical":7631,"peak":7632,"Ġwret":7633,"ĠHard":7634,"umm":7635,"Ġexpecting":7636,"ĠEnglishman":7637,"Ġspecim":7638,"Ġopposed":7639,"Next":7640,"thren":7641,"uther":7642,"ommy":7643,"itively":7644,"Ġcurtain":7645,"Ġbrass":7646,"ĠMer":7647,"Ġ$":7648,"ĠThree":7649,"ERS":7650,"Ġindustry":7651,"ĠPope":7652,"Ġmarvel":7653,"Ġpalm":7654,"Ġfootsteps":7655,"Ġwheels":7656,"Ġrivers":7657,"ĠGil":7658,"Ġtelegra":7659,"Ġencoun":7660,"Ġashes":7661,"Ġcorrupt":7662,"Ġgrandmother":7663,"Ġchances":7664,"ocratic":7665,"Ġranks":7666,"ĠCham":7667,"Ġdepends":7668,"Ġdoubtful":7669,"ĠRoger":7670,"rage":7671,"IM":7672,"Ġwilt":7673,"Ġcivilization":7674,"ugged":7675,"ĠJeff":7676,"Ġneglect":7677,"Ġfavorite":7678,"Ġstim":7679,"Ġloaded":7680,"Ġrecalled":7681,"Ġflatter":7682,"Ġinspired":7683,"icable":7684,"onse":7685,"ĠAdam":7686,"ĠRussia":7687,"Ġgraceful":7688,"Ġthither":7689,"hast":7690,"EM":7691,"Ġuniverse":7692,"Ġobedience":7693,"roll":7694,"Ġclaims":7695,"ĠUnder":7696,"ige":7697,"Ġgrain":7698,"Ġguilt":7699,"Ġdiscipl":7700,"Ġimprison":7701,"Ġfuneral":7702,"Ġsymb":7703,"rigg":7704,"Ġcuriously":7705,"Ġresponded":7706,"ĠAfrica":7707,"Ġresidence":7708,"Ġrese":7709,"Ġcanoe":7710,"Ġpear":7711,"osy":7712,"Ġtie":7713,"lands":7714,"Ġmoist":7715,"iolet":7716,"Ġaccused":7717,"arts":7718,"rust":7719,"Ġinferior":7720,"Ġsofa":7721,"Ġclam":7722,"ĠVictor":7723,"Ġlucky":7724,"Ġpreviously":7725,"Ġshaped":7726,"Ġchamp":7727,"Ġhasn":7728,"unce":7729,"ĠGray":7730,"Each":7731,"Ġrestless":7732,"Ġtelephone":7733,"will":7734,"Ġretire":7735,"Ġlargely":7736,"ĠEach":7737,"ercy":7738,"Ġimpatient":7739,"Ġbetrayed":7740,"Ġindifference":7741,"ulations":7742,"Ġtheatre":7743,"erick":7744,"Ġvengeance":7745,"Ġuneasy":7746,"ĠMond":7747,"ushes":7748,"Ġstandard":7749,"Ġbind":7750,"uting":7751,"Ġnet":7752,"Ġdeceived":7753,"Ġded":7754,"Ġsecretary":7755,"Ġshepherd":7756,"Ġmurderer":7757,"Ġsunk":7758,"Ġbalance":7759,"udge":7760,"Ġdrag":7761,"Ġresponsibility":7762,"Ġroute":7763,"uman":7764,"Ġlonged":7765,"inks":7766,"Ġmissing":7767,"13":7768,"Ġpressing":7769,"itudes":7770,"ĠPoor":7771,"Ġenjoyment":7772,"Ġecc":7773,"Ġtrif":7774,"Ġconsequently":7775,"First":7776,"Ġsurvey":7777,"ĠMass":7778,"uming":7779,"Ġcolonel":7780,"Ġschools":7781,"Ġrejoined":7782,"icial":7783,"Ġupright":7784,"Ġsunlight":7785,"Ġsearching":7786,"Ġpreparations":7787,"Ġappar":7788,"ooping":7789,"Ġcanv":7790,"Ġsteamer":7791,"inkled":7792,"when":7793,"Ġstudent":7794,"Ġprovin":7795,"Ġviolently":7796,"Ġadmired":7797,"ibilities":7798,"Ġentit":7799,"Ġstreams":7800,"Ġsection":7801,"Ġtriumphant":7802,"'.":7803,"Ġinduced":7804,"Ġaccounts":7805,"Ġpassionate":7806,"Ġrod":7807,"ĠDi":7808,"Ġtour":7809,"Ġwithdraw":7810,"mir":7811,"Ġsanct":7812,"Ġtwilight":7813,"Ġuneas":7814,"urches":7815,"hic":7816,"ĠKen":7817,"Ġhoping":7818,"Ġthrong":7819,"Ġtorment":7820,"Ġkilling":7821,"osh":7822,"Ġcrimson":7823,"Ġprinted":7824,"ĠCont":7825,"Ġconception":7826,"Ġmurmur":7827,"usalem":7828,"Ġfishing":7829,"Ġboil":7830,"Ġbullet":7831,"ogue":7832,"Ġwages":7833,"Ġprotested":7834,"ĠDig":7835,"Ġadvised":7836,"Ġadapt":7837,"Ġpreserve":7838,"Lady":7839,"Ġbrut":7840,"Ġbrood":7841,"Ġguards":7842,"Ġloudly":7843,"Ġkick":7844,"Ġrecognised":7845,"Ġcareless":7846,"16":7847,"ĠWind":7848,"Ġsuccession":7849,"ĠChic":7850,"everal":7851,"Ġanaly":7852,"Ġtragedy":7853,"Ġclosing":7854,"Ġlinen":7855,"Ġtoil":7856,"Ġlasted":7857,"ĠAmericans":7858,"Ġfrozen":7859,"Ġparting":7860,"Ġindic":7861,"Three":7862,"Ġcoarse":7863,"Say":7864,"Ġaren":7865,"Ġmerit":7866,"Ġsecurity":7867,"Ġener":7868,"Ġpour":7869,"Ġphotograph":7870,"Ġhideous":7871,"Ġsale":7872,"inous":7873,"Out":7874,"Ġhumor":7875,"Ġcarpet":7876,"Ġcurse":7877,"ĠOs":7878,"Ġlieutenant":7879,"ĠBoth":7880,"uity":7881,"anim":7882,"ĠRepublic":7883,"Ġmoan":7884,"ĠFore":7885,"Ġprem":7886,"ĠCons":7887,"Ġcollection":7888,"Ġboxes":7889,"Ġcir":7890,"Ġspear":7891,"AB":7892,"Ġcommander":7893,"Ġ*'":7894,"Ġoccupation":7895,"Ġfeathers":7896,"cember":7897,"Ġcares":7898,"Ġfurious":7899,"Ġweep":7900,"iforn":7901,"Ġ27":7902,"ĠLieutenant":7903,"ĠÃ":7904,"ĠFanny":7905,"Ġdanced":7906,"ĠMess":7907,"Ġaccompany":7908,"din":7909,"Ġglo":7910,"Ġsurrender":7911,"Ġclasped":7912,"Ġnigh":7913,"Ġspin":7914,"âĢļ":7915,"Ġsie":7916,"Ġtrump":7917,"Ġcovering":7918,"ĠHor":7919,"Ġdiscl":7920,"Ġsolution":7921,"ĠAbb":7922,"ĠOut":7923,"Ġcentral":7924,"och":7925,"said":7926,"Ġmonster":7927,"ĠVery":7928,"Ġnewspapers":7929,"Ġbrick":7930,"Ġforests":7931,"itious":7932,"atherine":7933,"Ġgreeted":7934,"Ġfoundation":7935,"boy":7936,"Ġclad":7937,"Other":7938,"iger":7939,"Ġconceived":7940,"Ġplanet":7941,"Ġsevent":7942,"Ġcake":7943,"Ġarmies":7944,"Ġcandid":7945,"ĠTim":7946,"Ġfloating":7947,"ĠBecause":7948,"Ġperformance":7949,"Ġpeasant":7950,"Without":7951,"ucked":7952,"ante":7953,"Ġdew":7954,"Ġfifth":7955,"nut":7956,"Ġbelt":7957,"Ġcolours":7958,"ĠMichael":7959,"Ġwriters":7960,"oph":7961,"Ġrighteous":7962,"Ġwhip":7963,"Ġlawn":7964,"ĠFour":7965,"Ġwarmth":7966,"Ġtotal":7967,"Ġbust":7968,"pended":7969,"istry":7970,"Ġclay":7971,"Ġruins":7972,"Ġtestimony":7973,"Ġvote":7974,"Ġassume":7975,"Ġattain":7976,"Ġhesitation":7977,"Ġmould":7978,"Ġstove":7979,"Ġtreacher":7980,"Ġpled":7981,"Ġratt":7982,"Ġcontains":7983,"Ġarrangements":7984,"ĠAustri":7985,"Ġtrifle":7986,"Ġneglected":7987,"Ġinquire":7988,"Ġprinces":7989,"Ġincluding":7990,"Ġpitch":7991,"Ġlip":7992,"Ġsweep":7993,"Ġreception":7994,"Ġexplos":7995,"ĠCent":7996,"Ġ^^":7997,"\";":7998,"Ġbrethren":7999,"Ġoperations":8000,"Ġjury":8001,"Ġarist":8002,"Ġlandlord":8003,"Ġenable":8004,"Ġtales":8005,"itors":8006,"anche":8007,"Ġpatron":8008,"Ġpulling":8009,"Ġvanity":8010,"Ġclaimed":8011,"uk":8012,"Ġaroused":8013,"Ġclut":8014,"Ġassurance":8015,"ĠBa":8016,"Ġenterprise":8017,"Ġfoe":8018,"ĠDep":8019,"Ġrevolver":8020,"Ġwreck":8021,"aments":8022,"Ġemphas":8023,"ĠJerusalem":8024,"Ġbeer":8025,"Ġpretend":8026,"Ġshells":8027,"ĠOx":8028,"Ġminor":8029,"Ġconsisted":8030,"Ġestablishment":8031,"Ġcrushed":8032,"Ġdecent":8033,"Ġleisure":8034,"ĠIvan":8035,"Ġsnapped":8036,"ulating":8037,"ospel":8038,"Ġsimplicity":8039,"Wh":8040,"Ġreports":8041,"Ġfourteen":8042,"ĠTemple":8043,"Ġtossed":8044,"Ġinevitable":8045,"Ġtwisted":8046,"Ġuncomfort":8047,"rup":8048,"Ġprovide":8049,"ILL":8050,"Ġfisher":8051,"Ġmostly":8052,"Ġheavenly":8053,"Ġpleasures":8054,"Ġashore":8055,"illes":8056,"ĠSouthern":8057,"Ġjolly":8058,"Ġcreation":8059,"Ġtoday":8060,"Ġfranc":8061,"inkle":8062,"Ġpeaceful":8063,"oleon":8064,"Ġmans":8065,"Ġenchant":8066,"Ġ!\"":8067,"ĠBern":8068,"Ġaccomplish":8069,"ĠCaliforn":8070,"Ġappetite":8071,"peare":8072,"Ġgroups":8073,"greg":8074,"Ġcrou":8075,"Ġpush":8076,"ailing":8077,"ĠCre":8078,"Ġporch":8079,"Ġsixteen":8080,"inn":8081,"Ġbarn":8082,"Ġarise":8083,"Ġdefeat":8084,"17":8085,"Ġpropose":8086,"Ġ28":8087,"30":8088,"Ġremo":8089,"va":8090,"Ġtransport":8091,"Ġpenc":8092,"Ġappl":8093,"ĠBon":8094,"Ġadventures":8095,"Ġtradition":8096,"Ġconsists":8097,"Ġparl":8098,"Ġgoss":8099,"Ġirres":8100,"Ġwithdrew":8101,"Ġhay":8102,"Ġseats":8103,"Ġmend":8104,"inson":8105,"Ġrescue":8106,"Ġcaution":8107,"ĠThrough":8108,"Ġpall":8109,"ĠCanada":8110,"ĠArt":8111,"GE":8112,"Ġladder":8113,"Ġsolitude":8114,"Ġbutt":8115,"itect":8116,"ĠJoan":8117,"Br":8118,"ĠArmy":8119,"ĠWord":8120,"Ġplanned":8121,"Ġglowing":8122,"ĠSyl":8123,"ĠMatt":8124,"Ġdrowned":8125,"Ġannounce":8126,"ulp":8127,"Ġgladly":8128,"Ġtendency":8129,"Ġske":8130,"Ġdisagreeable":8131,"Ġinjury":8132,"Ġwander":8133,"Ġlowered":8134,"Ġrelax":8135,"Ġsul":8136,"hol":8137,"Ġfaintly":8138,"Both":8139,"Ġwounds":8140,"Ġcertainty":8141,"ĠBritain":8142,"bery":8143,"Ġstruggled":8144,"Ġprivilege":8145,"lyn":8146,"ulars":8147,"Ġmadam":8148,"urther":8149,"Ġthereby":8150,"ĠSometimes":8151,"Ġconvict":8152,"Ġflies":8153,"Ġsupplies":8154,"Presently":8155,"Ġanguish":8156,"adise":8157,"Ġthanked":8158,"Ġhalted":8159,"Ġnaught":8160,"Ġinit":8161,"arded":8162,"Ġowned":8163,"Ġdisple":8164,"urred":8165,"Ġsubtle":8166,"Ġromantic":8167,"Ġwishing":8168,"agle":8169,"Ġstrengthen":8170,"Ġaffl":8171,"obe":8172,"Ġchecked":8173,"Ġwarriors":8174,"Ġembarrass":8175,"Ġdug":8176,"Ġsaving":8177,"ĠSecretary":8178,"ĠMonday":8179,"orton":8180,"Ġimpart":8181,"Ġenthusi":8182,"Ġgig":8183,"Ġclung":8184,"Ġacknowledged":8185,"Ġforming":8186,"ĠGermans":8187,"Ġpurchase":8188,"Ġplanted":8189,"ensity":8190,"ded":8191,"ĠFel":8192,"Ġblown":8193,"ĠEll":8194,"Ġdict":8195,"Ġoccasional":8196,"Meanwhile":8197,"ĠYoung":8198,"Ġaboard":8199,"Its":8200,"Ġparish":8201,"Ġmusical":8202,"Ġextrem":8203,"Ġvest":8204,"Ġgleam":8205,"/'":8206,"Old":8207,"achment":8208,"arf":8209,"Through":8210,"Ġalas":8211,"ĠWorld":8212,"ĠMax":8213,"Ġprovince":8214,"Bl":8215,"Soon":8216,"Ġtranqu":8217,"Ġlovers":8218,"rol":8219,"Ġsatisfactory":8220,"Ġhunter":8221,"Ġelephant":8222,"Ġnormal":8223,"illery":8224,"Ġangrily":8225,"Ġcomparison":8226,"Ġjun":8227,"Ġdownstairs":8228,"Ġquit":8229,"Ġnotwithstanding":8230,"ĠLaura":8231,"icians":8232,"ĠWild":8233,"Ġkneel":8234,"Ġinstit":8235,"Ġyielded":8236,"Ġechoed":8237,"Ġdivers":8238,"Ġpartner":8239,"Ġdeserve":8240,"Ġdun":8241,"Ġregards":8242,"Ġcannon":8243,"atus":8244,"Ġtort":8245,"ĠAnother":8246,"oir":8247,"ĠDecember":8248,"Ġwars":8249,"Ġstructure":8250,"Ġpacked":8251,"Ġcorners":8252,"aration":8253,"Ġwheat":8254,"Ġdisplayed":8255,"ĠTill":8256,"Ġawe":8257,"Ġmail":8258,"Ġmodel":8259,"Pr":8260,"Ġness":8261,"Ġregions":8262,"estion":8263,"ĠTime":8264,"Ġwoe":8265,"ĠJerry":8266,"Shall":8267,"gle":8268,"Ġmadness":8269,"Ġelection":8270,"Ġpillow":8271,"Ġdelicious":8272,"Ġanchor":8273,"Ġstores":8274,"Ġemployment":8275,"Ġinnocence":8276,"Ġrequires":8277,"Ġaltered":8278,"inder":8279,"Ġestim":8280,"Ġcitizen":8281,"Ġjealousy":8282,"Ġcu":8283,"Ġpeas":8284,"Ġpositively":8285,"Ġdemands":8286,"inence":8287,"Ġdeaf":8288,"ĠTar":8289,"force":8290,"ĠBuck":8291,"Ġwi":8292,"ĠCamp":8293,"Ġpoem":8294,"Ġplays":8295,"Ġwrites":8296,"Ġsettlement":8297,"Ġlur":8298,"Ġadorn":8299,"Ġdollar":8300,"Ġbehalf":8301,"Ġsecrets":8302,"Ġstretch":8303,"Ġtom":8304,"Ġrhy":8305,"Ġshaken":8306,"EST":8307,"Ġhappily":8308,"necess":8309,"Ġfortnight":8310,"Ġsalvation":8311,"ORY":8312,"eries":8313,"Ġeducated":8314,"Ġanswering":8315,"Ġneighbors":8316,"Ġerect":8317,"Ġjoint":8318,"Ġtrous":8319,"Ġplains":8320,"ĠTommy":8321,"Ġniece":8322,"ĠPeople":8323,"Ġenqu":8324,"Ġendless":8325,"alls":8326,"Ġresponse":8327,"Ġadvantages":8328,"ĠIII":8329,"ĠCould":8330,"yard":8331,"Ġtorture":8332,"Ġattempts":8333,"via":8334,"ĠFle":8335,"ommon":8336,"Ġleap":8337,"hanks":8338,"Ġtrim":8339,"Ġcrazy":8340,"Ġblowing":8341,"rane":8342,"rical":8343,"Ġchapel":8344,"Ġvillages":8345,"Ġentitled":8346,"Ġweigh":8347,"Ġcourtes":8348,"berg":8349,"wr":8350,"Ġbreathe":8351,"Ġlegend":8352,"ĠJanuary":8353,"Ġboiling":8354,"ĠAss":8355,"Ġterribly":8356,"Ġstare":8357,"Ġinjured":8358,"ĠJackson":8359,"uated":8360,"icious":8361,"Ġwhereas":8362,"Ġcapture":8363,"Ġdropping":8364,"Ġachieve":8365,"ado":8366,"Ġresign":8367,"Ġvisits":8368,"ocracy":8369,"Ġbord":8370,"Ġfiring":8371,"ym":8372,"Ġcouch":8373,"sp":8374,"some":8375,"pson":8376,"Ġinstruments":8377,"Ġprel":8378,"ĠGuru":8379,"Ġbutton":8380,"Ġhumil":8381,"Does":8382,"Ġflock":8383,"Ġhaw":8384,"gging":8385,"Ġvelvet":8386,"orthy":8387,"ĠSince":8388,"Ġempire":8389,"Ġsensitive":8390,"Ġincome":8391,"Ġexagger":8392,"Ġscarlet":8393,"Ġmotives":8394,"ĠCouncil":8395,"Ġfaster":8396,"ĠWolf":8397,"ĠNicholas":8398,"Ġtimber":8399,"Ġwaving":8400,"vag":8401,"Ġimpatiently":8402,"Ġneighborhood":8403,"Ġgorge":8404,"Ġcombat":8405,"ĠHas":8406,"Ġundoubtedly":8407,"Ġtravelled":8408,"Ġrigid":8409,"Ġconvenient":8410,"Ġupset":8411,"Ġarchitect":8412,"Ġprofessional":8413,"Ġassault":8414,"Ġfruits":8415,"elie":8416,"pter":8417,"Ġincap":8418,"Ġlargest":8419,"Ġchurches":8420,"Nevertheless":8421,"Ġhaz":8422,"Ġadding":8423,"gie":8424,"Ġchallen":8425,"ĠSte":8426,"ĠFeb":8427,"Ġslipp":8428,"Ġmixture":8429,"Ġhoarse":8430,"Ġromance":8431,"alo":8432,"Ġbrisk":8433,"Ġdiscour":8434,"ĠSociety":8435,"za":8436,"inating":8437,"ĠBal":8438,"ĠProtest":8439,"Ġbee":8440,"ĠRay":8441,"Ġeldest":8442,"Ġstudies":8443,"Ġcellar":8444,"Ġoffence":8445,"ĠInt":8446,"ĠNan":8447,"Ġbackward":8448,"Ġartific":8449,"Ġinterfere":8450,"Ġdefect":8451,"Ġdistinguish":8452,"Ġproposition":8453,"ĠMaria":8454,"Ġmarvell":8455,"inery":8456,"Ġmutual":8457,"Ġcolony":8458,"Ġdisplay":8459,"Ġlots":8460,"Ġsummit":8461,"Ġsinking":8462,"Ġhorrid":8463,"ĠOther":8464,"cia":8465,"Ġarts":8466,"Ġwasted":8467,"Ġdense":8468,"ruary":8469,"olph":8470,"Ġbars":8471,"Ġfollowers":8472,"Ġhealthy":8473,"Ġcombined":8474,"Ġcurtains":8475,"Ġchill":8476,"Ġwitch":8477,"asting":8478,"Ġadvancing":8479,"olk":8480,"Ġsolemnly":8481,".âĢĶ":8482,"Ġpunish":8483,"Ġwalks":8484,"ĠWestern":8485,"Ġdoubts":8486,"Ġformal":8487,"Ġfanc":8488,"Ġnatured":8489,"Ġreserve":8490,"Ġthoughtfully":8491,"ĠGard":8492,"Ġdestined":8493,"Ġinduce":8494,"Ġsearched":8495,"lock":8496,"ĠGall":8497,"ĠPut":8498,"ĠJohnny":8499,"Ġferv":8500,"ĠArm":8501,"Ġabstract":8502,"Ġrespects":8503,"Ġwax":8504,"ĠHimself":8505,"Me":8506,"Ġincomp":8507,"allel":8508,"ouch":8509,"Ġamusing":8510,"ĠLight":8511,"OS":8512,"dess":8513,"Ġemperor":8514,"Ġwoke":8515,"Ġstaying":8516,"Ġbees":8517,"Ġapplication":8518,"Ġpha":8519,"Ġmeanwhile":8520,"CT":8521,"Ġshaft":8522,"Ġrecollection":8523,"Ġwildly":8524,"Ġcents":8525,"Ġpip":8526,"Ġinquiries":8527,"era":8528,"Ġmustn":8529,"Ġearthly":8530,"Ġrein":8531,"Ġinsol":8532,"Ġcars":8533,"Ġthresh":8534,"Ġbred":8535,"Ġmusk":8536,"ban":8537,"Ġeastern":8538,"Ġdishon":8539,"Ġshine":8540,"Ġting":8541,"Ġanswers":8542,"ĠEmily":8543,"ĠSusan":8544,"Ġdwelt":8545,"Ġmemories":8546,"Ġpurse":8547,"addy":8548,"Ġdiver":8549,"Ġrenewed":8550,"ĠMorr":8551,"Ġindividuals":8552,"atoes":8553,"urre":8554,"Ġunnecess":8555,"ĠDown":8556,"Ġconvention":8557,"ta":8558,"artment":8559,"Ġsullen":8560,"Ġink":8561,"ĠPan":8562,"ĠPap":8563,"ria":8564,"ĠMos":8565,"Ġgallery":8566,"Get":8567,"ĠGive":8568,"umble":8569,"Ġhearth":8570,"Ġboldly":8571,"Ġfacing":8572,"unken":8573,"Ġbother":8574,"erring":8575,"Ġscent":8576,"Ġimpatience":8577,"kespeare":8578,"Ġinterval":8579,"Ġrings":8580,"ĠChina":8581,"Ġceiling":8582,"Ġnarrative":8583,"agues":8584,"ĠCape":8585,"Ġeighty":8586,"Ġlimits":8587,"ĠMost":8588,"Ġelbow":8589,"Ġengage":8590,"Ġlic":8591,"Moreover":8592,"Something":8593,"ounted":8594,"HT":8595,"Ġstaircase":8596,"Ġoffices":8597,"Ġderived":8598,"ental":8599,"Ġguarded":8600,"Ġsubmit":8601,"Ġbasis":8602,"Ġmonot":8603,"Ġthoughtful":8604,"Ġrubbed":8605,"Ġshrew":8606,"Ġtyr":8607,"AV":8608,"lying":8609,"Ġpatriot":8610,"Ġscreamed":8611,"Ġbrute":8612,"Ġlane":8613,"Ġlandsc":8614,"Ġdangers":8615,"Ġagitation":8616,"ĠUpon":8617,"Ġcorridor":8618,"Ġsailing":8619,"Ġcy":8620,"Ġdisaster":8621,"Ġexperiences":8622,"Ġvice":8623,"Ġindustri":8624,"Ġexists":8625,"Ġprecaut":8626,"Ġcomparatively":8627,"Ġbonn":8628,"Â«":8629,"ĠNapoleon":8630,"Ġbending":8631,"Ġfoul":8632,"ĠDale":8633,"Ġappointment":8634,"Ġextravag":8635,"Ġcigarette":8636,"Ġbrains":8637,"Ġ29":8638,"Ġtemptation":8639,"Ġstricken":8640,"ints":8641,"Ġcopper":8642,"Ġfeature":8643,"uster":8644,"Ġunjust":8645,"ĠTurn":8646,"urious":8647,"Ġrepose":8648,"Ġswore":8649,"uffled":8650,"chard":8651,"Ġlace":8652,"Ġpole":8653,"ĠFOR":8654,"Ġscandal":8655,"ĠSuddenly":8656,"Ġneighbours":8657,"Ġpainting":8658,"Ġseeming":8659,"Ġentertained":8660,"Ġretain":8661,"Ġsickness":8662,"Ġdiscussed":8663,"Ġdru":8664,"Ġbelieving":8665,"Ġaffectionate":8666,"Ġcrest":8667,"Accord":8668,"Ġbits":8669,"Ġputs":8670,"ĠDou":8671,"ĠJu":8672,"Ġsho":8673,"Ġworried":8674,"Ġspared":8675,"Ġelabor":8676,"Ġarea":8677,"Ġcatching":8678,"Ġom":8679,"Ġlearnt":8680,"velope":8681,"nold":8682,"apsed":8683,"Ġsecretly":8684,"Ġspeaker":8685,"Ġbargain":8686,"utter":8687,"Ġsem":8688,"Ġfrancs":8689,"Ġtact":8690,"Ġmothers":8691,"Ġenvy":8692,"Ġlament":8693,"Ġyourselves":8694,"Ġaccess":8695,"Ġmiracle":8696,"IA":8697,"Ġcash":8698,"ĠWilson":8699,"ĠMolly":8700,"Ġbacks":8701,"Ġambit":8702,"Ġseverely":8703,"Ġbowl":8704,"Ġninet":8705,"Ġfiercely":8706,"ida":8707,"ĠWater":8708,"Ġproceeding":8709,"Ġray":8710,"izes":8711,"Ġgriev":8712,"Ġshrugged":8713,"Ġconceive":8714,"olved":8715,"Ġavo":8716,"adel":8717,"Ġnerve":8718,"Ġwhither":8719,"Ġwhistle":8720,"Ġtune":8721,"Ġthreshold":8722,"ighted":8723,"Ġwitnesses":8724,"Ġwhit":8725,"Ġpreparation":8726,"ĠKnight":8727,"alm":8728,"arc":8729,"Ġsmiles":8730,"ĠGreg":8731,"eline":8732,"Ġconspir":8733,"Ġcompassion":8734,"20":8735,"Ġharder":8736,"berry":8737,"Ġsaint":8738,"ingham":8739,"Ġcheerfully":8740,"bby":8741,"ĠDra":8742,"ĠDivine":8743,"ĠCalifornia":8744,"Ġopenly":8745,"Ġcolors":8746,"Ġglancing":8747,"Ġconj":8748,"ĠRock":8749,"ĠRobin":8750,"Ġpoliceman":8751,"Ġpleasing":8752,"Ġaddressing":8753,"Ġcolon":8754,"Ġattractive":8755,"ĠBas":8756,"Ġnic":8757,"chn":8758,"Ġpermanent":8759,"atisf":8760,"Ġconsented":8761,"Ġscreen":8762,"Ġjail":8763,"Ġprosperity":8764,"Ġmanager":8765,"oner":8766,"Ġridge":8767,"Ġwherein":8768,"Ġsituated":8769,"bably":8770,"Ġah":8771,"Ġnamely":8772,"Ġprolong":8773,"ĠPeters":8774,"Ġtempted":8775,"forth":8776,"cent":8777,"ELL":8778,"Ġbundle":8779,"Ġterritory":8780,"Ġpreceding":8781,"Ġpenny":8782,"Ġborder":8783,"Father":8784,"Ġdiscipline":8785,"isation":8786,"Ġbite":8787,"ighty":8788,"Ġhaught":8789,"Ġharmony":8790,"Ġdisciples":8791,"Ġ185":8792,"ommod":8793,"aux":8794,"Ġhurriedly":8795,"Ġpersuade":8796,"ĠFre":8797,"Ġconfirmed":8798,"grim":8799,"Ġhaired":8800,"Ġreass":8801,"Ġparlour":8802,"Ġcris":8803,"Ġseize":8804,"Ġseal":8805,"Ġcorpse":8806,"herent":8807,"Ġinsc":8808,"Ġacknowledge":8809,"Ġconnect":8810,"Ġdiamonds":8811,"dig":8812,"Ġsaints":8813,"oral":8814,"Ġavoided":8815,"Ġplane":8816,"ĠColumb":8817,"Ġmoss":8818,"Ġsheer":8819,"Ġdine":8820,"Ġdepartment":8821,"Ġreleased":8822,"Ġnay":8823,"Ġsticks":8824,"Ġetern":8825,"Ġshores":8826,"sis":8827,"ador":8828,"ĠLamb":8829,"Ġencouraged":8830,"Ġtransfer":8831,"Ġsurrounding":8832,"soever":8833,"Ġkeeper":8834,"orney":8835,"Ġlifting":8836,"Ġtemperature":8837,"Ġexternal":8838,"Ġbewildered":8839,"Although":8840,"ĠKn":8841,"arian":8842,"Ġinval":8843,"owl":8844,"Little":8845,"Ġdegr":8846,"ĠDur":8847,"ĠAngel":8848,"ĠLeon":8849,"Ġcommonly":8850,"Ġirre":8851,"course":8852,"igs":8853,"Ġpassages":8854,"ships":8855,"Ġawhile":8856,"19":8857,"ĠRich":8858,"Ġcomplain":8859,"ĠMabel":8860,"Ġjustified":8861,"Ġchildish":8862,"Ġsuspicious":8863,"Ġsoup":8864,"Ġenvelope":8865,"Ġdishes":8866,"Ġluxury":8867,"Ġfant":8868,"Ġamazed":8869,"Ġfrightful":8870,"Ġmaterials":8871,"Ġtheirs":8872,"Ġbarely":8873,"inth":8874,"gers":8875,"ĠScript":8876,"Ġeditor":8877,"urst":8878,"rene":8879,"ĠAsh":8880,"Ġhaunted":8881,"Ġconquered":8882,"Hence":8883,"Ġcriticism":8884,"Ġdeliberately":8885,"ĠRabbit":8886,"Ġreaders":8887,"Ġplac":8888,"wl":8889,"Ġoft":8890,"ĠFebruary":8891,"Ġpave":8892,"Ġnewly":8893,"Ġswallowed":8894,"riend":8895,"Ġadmirable":8896,"Ġdismissed":8897,"ĠCart":8898,"regular":8899,"Ġlav":8900,"Ġpromises":8901,"iner":8902,"Ġabode":8903,"Ġteam":8904,"Dr":8905,"Which":8906,"Ġattained":8907,"Ġdoubted":8908,"Ġhelping":8909,"Ġflowing":8910,"ĠIV":8911,"ĠXX":8912,"ĠBre":8913,"Ġscream":8914,"Ġrat":8915,"Ġseam":8916,"ĠSchool":8917,"Ġarrow":8918,"Ã±":8919,"Ġyo":8920,"Ġ184":8921,"Ġgamb":8922,"Ġrows":8923,"Ġbeef":8924,"uns":8925,"ĠHarr":8926,"ĠEdith":8927,"Ġlordship":8928,"riages":8929,"Ġdusk":8930,"Ġsets":8931,"Ġvigor":8932,"unks":8933,"âĸ":8934,"Ġsauce":8935,"bl":8936,"Ġliquid":8937,"Ġfug":8938,"Ġrecommend":8939,"Ġfrankly":8940,"cheon":8941,"Ġselect":8942,"Ġshri":8943,"Ġdazz":8944,"ĠRE":8945,"ĠAlexander":8946,"Ġgrasped":8947,"Ġpotatoes":8948,"Ġfors":8949,"Ġdeserved":8950,"Ġremembr":8951,"Ġbitterness":8952,"Ġverses":8953,"abri":8954,"Ġinstances":8955,"ĠLo":8956,"AIN":8957,"ountered":8958,"Ġacid":8959,"Ġrestore":8960,"ĠSid":8961,"Ġproduction":8962,"Ġembrace":8963,"Men":8964,"Ġvigorous":8965,"Ġjudged":8966,"Ġdreaming":8967,"Ġstirring":8968,"ĠEmpire":8969,"ĠSant":8970,"Ġ187":8971,"Ġmonsieur":8972,"Ġasks":8973,"Ġwillingly":8974,"ceiving":8975,"Ġuncomfortable":8976,"Ġtramp":8977,"Ġreverence":8978,"Ġencountered":8979,"Ġpony":8980,"ini":8981,"Ġcruelty":8982,"Ġhaul":8983,"ĠSarah":8984,"Ġrapt":8985,"Ġpropriet":8986,"OD":8987,"ensions":8988,"Ġsubdu":8989,"Ġimperfect":8990,"Ġbrows":8991,"Ġcorps":8992,"ĠSimon":8993,"amental":8994,"ĠConfeder":8995,"ĠElsie":8996,"Ġjer":8997,"Ġindef":8998,"Ġneedle":8999,"ressing":9000,"Ġdreary":9001,"mie":9002,"Ġsack":9003,"ĠValley":9004,"Pl":9005,"vy":9006,"acific":9007,"ungle":9008,"quar":9009,"Ġoffended":9010,"ĠCy":9011,"Ġawfully":9012,"Ġearliest":9013,"Ġdemonstr":9014,"Ġboiled":9015,"Ay":9016,"Ġthumb":9017,"Tw":9018,"ĠDuring":9019,"Ġenlight":9020,"Ġadvise":9021,"Ġencounter":9022,"Ġdeclined":9023,"Ġdislike":9024,"Ġroared":9025,"Ġflee":9026,"Ġbef":9027,"ĠJapanese":9028,"Ġvital":9029,"Ġproceedings":9030,"Ġfilling":9031,"Ġimpuls":9032,"Ġrecognition":9033,"Ġcourts":9034,"Ġsignificance":9035,"ecil":9036,"ĠCHAPTER":9037,"Ġconcert":9038,"Ġmachinery":9039,"Ġhostile":9040,"ĠShakespeare":9041,"Fr":9042,"ĠScotch":9043,"Ġcanvas":9044,"Ġcheese":9045,"Ġsails":9046,"_;":9047,"ĠSpaniards":9048,"Ġbloody":9049,"Ġstamp":9050,"Ġconvent":9051,"Ã´":9052,"OUR":9053,"heart":9054,"Ġverd":9055,"Ġbrook":9056,"gic":9057,"Ġcompliment":9058,"Ġample":9059,"Ġcommands":9060,"ĠDigit":9061,"Ġboot":9062,"Ġcommit":9063,"eches":9064,"Ġresolute":9065,"Ġafforded":9066,"Ġraw":9067,"ials":9068,"ribe":9069,"Ġshrewd":9070,"ĠBu":9071,"Could":9072,"Char":9073,"Ġaccum":9074,"Ġcritical":9075,"Ġsnake":9076,"Ġspoil":9077,"Ġmelted":9078,"ĠBurn":9079,"Ġjudges":9080,"ĠTy":9081,"Ġbrand":9082,"Ġwelcom":9083,"Ġexisting":9084,"Ġoccupy":9085,"Ca":9086,"Ġcub":9087,"Ġknelt":9088,"Ġspectacle":9089,"Sc":9090,"Ad":9091,"Ġtracks":9092,"AK":9093,"erving":9094,"Ġproposal":9095,"ĠDave":9096,"Ġneedn":9097,"Ġtemp":9098,"adem":9099,"Ġ\\":9100,"ĠHy":9101,"ĠThee":9102,"Ġrobbed":9103,"Ġbough":9104,"ĠChristianity":9105,"Ġholiday":9106,"_.\"":9107,"Ġpersisted":9108,"Ġclimate":9109,"Ġlecture":9110,"Ġincluded":9111,"Ġspeedily":9112,"Ġpoets":9113,"Ġstrictly":9114,"ĠLev":9115,"ÅĮÄĨÃ":9116,"Ġvoc":9117,"eers":9118,"Ġbaron":9119,"Ġterrified":9120,"Ġfragments":9121,"Ġvib":9122,"En":9123,"Sid":9124,"Ġtumult":9125,"Ġplacing":9126,"Ġcontest":9127,"Ġstudents":9128,"ography":9129,"Ġhearty":9130,"zes":9131,"Ġgravity":9132,"ĠCON":9133,"fold":9134,"kers":9135,"Ġdraught":9136,"aneous":9137,"zan":9138,"inine":9139,"Ġpunished":9140,"alty":9141,"Ġeagerness":9142,"olves":9143,"Ġresources":9144,"âĸł":9145,"Ġobservations":9146,"ummer":9147,"Ġexchanged":9148,"gered":9149,"Ġowners":9150,"ĠGeorg":9151,"Ġswords":9152,"Ġtemporary":9153,"chers":9154,"Ġconspic":9155,"Ġpursue":9156,"Ġshops":9157,"ĠAnna":9158,"ĠBrother":9159,"Ġgn":9160,"Ġpeep":9161,"Ġsuited":9162,"Ġtrousers":9163,"ĠAT":9164,"Ġexpert":9165,"ĠIsabel":9166,"rating":9167,"ĠCard":9168,"plain":9169,"Ġirregular":9170,"Ġtenderly":9171,"ĠMinister":9172,"Ġskies":9173,"Ġborr":9174,"Ġsphere":9175,"ĠNick":9176,"AP":9177,"Ġfiery":9178,"yes":9179,"Ġvaried":9180,"Ġfert":9181,"esar":9182,"Ġringing":9183,"ĠClara":9184,"ANT":9185,"iser":9186,"Ġpresident":9187,"Ġfitting":9188,"Surely":9189,"ĠSand":9190,"ĠOri":9191,"Ġarguments":9192,"Ġpatch":9193,"Ġlads":9194,"ĠOver":9195,"iations":9196,"fare":9197,"Ġbunch":9198,"Ġwoo":9199,"ositions":9200,"aired":9201,"Ġec":9202,"Ġchiefs":9203,"IE":9204,"ĠHans":9205,"Ġfortunes":9206,"Ġwool":9207,"break":9208,"Ġfurnish":9209,"hable":9210,"usal":9211,"Ġcautiously":9212,"ga":9213,"uv":9214,"Ġcommercial":9215,"Ġremainder":9216,"ĠMexico":9217,"Ġcommittee":9218,"Ġfloated":9219,"iless":9220,"ĠRomans":9221,"ĠDE":9222,"Ġmeadow":9223,"Ġmak":9224,"asses":9225,"Mary":9226,"Ġshrill":9227,"alling":9228,"Ġobviously":9229,"Ġwretch":9230,"Ġgossip":9231,"OV":9232,"Ġnowhere":9233,"Ġprotected":9234,"Ġshared":9235,"Ġuncon":9236,"Ġprofessor":9237,"Ġrabbit":9238,"Ġcustoms":9239,"rates":9240,"ĠSay":9241,"Ġpainter":9242,"Ġhammer":9243,"Ġimmortal":9244,"Ġvault":9245,"Ġsergeant":9246,"Ġmeasured":9247,"ĠHerbert":9248,"Ġmedium":9249,"Ġprosec":9250,"Ġwont":9251,"Ġenjoying":9252,"Ġmathe":9253,"Ġpurely":9254,"Ġbron":9255,"Ġta":9256,"ops":9257,"Ġbills":9258,"ĠStan":9259,"Ġdoctors":9260,"ĠCharlie":9261,"ĠSpring":9262,"Ġembro":9263,"ĠGreeks":9264,"erers":9265,"Ġnobles":9266,"Ġsentiments":9267,"Ġsuspicions":9268,"Ġprevailed":9269,"Ġsurprising":9270,"Ġlamps":9271,"ĠWhether":9272,"Great":9273,"Ġsorr":9274,"Ġhurrying":9275,"Ġpencil":9276,"ĠHenri":9277,"agan":9278,"neath":9279,"ĠBig":9280,"Ġballs":9281,"Ġrobe":9282,"Ġexecuted":9283,"Ġlandscape":9284,"ĠSwed":9285,"Ġculture":9286,"Ġtalent":9287,"Ġpious":9288,"Ġgrip":9289,"ĠCountess":9290,"Ġclergyman":9291,"ettle":9292,"Ġcage":9293,"ata":9294,"Fin":9295,"Ġindisp":9296,"ĠAL":9297,"ĠPart":9298,"Ġsympt":9299,"Ġrelease":9300,"ĠChicago":9301,"ĠWy":9302,"Ġceremon":9303,"Ġmeek":9304,"ĠMiriam":9305,"Ġraces":9306,"Ġsurroundings":9307,"erton":9308,"utor":9309,"Ġvener":9310,"irect":9311,"ĠFe":9312,"Ġpleaded":9313,"Ġdespite":9314,"03":9315,"equ":9316,"Ġinvention":9317,"ĠSpe":9318,"gro":9319,"Ġtip":9320,"ĠSk":9321,"ĠHot":9322,"Ġstatue":9323,"Ġappreciate":9324,"Ġsher":9325,"Ġrecords":9326,"ĠCro":9327,"Ġessence":9328,"Ġexult":9329,"wart":9330,"Ġperpetual":9331,"ĠLion":9332,"Ġalert":9333,"Ġsprings":9334,"hedral":9335,"Ġprett":9336,"ellow":9337,"uscript":9338,"Ġformid":9339,"ĠEug":9340,"Everything":9341,"Ġaccommod":9342,"Ġsubl":9343,"Ġmagaz":9344,"OP":9345,"ĠGib":9346,"Ġpilot":9347,"Ġfountain":9348,"Ġunwilling":9349,"Ġspots":9350,"Ġperish":9351,"ĠUnivers":9352,"Ġjar":9353,"Ġmarvellous":9354,"Ġful":9355,"itations":9356,"ĠPur":9357,"ĠApp":9358,"Ġbapt":9359,"Ġdismay":9360,"Ġcursed":9361,"Ġrises":9362,"Ġhymn":9363,"ĠAbraham":9364,"Ġbol":9365,"hor":9366,"Ġvap":9367,"Ġwhirl":9368,"Ġintroduction":9369,"Ġcalculated":9370,"Ġaccus":9371,"Ġswinging":9372,"rained":9373,"Ġvary":9374,"ĠDiana":9375,"Ġindependence":9376,"Ġcrisis":9377,"Ġtreasures":9378,"ĠRef":9379,"Ġjournal":9380,"Ġconsiderably":9381,"asping":9382,"Ġprophet":9383,"maid":9384,"Ġannoyed":9385,"Ġawaiting":9386,"Ġfatigue":9387,"ĠSally":9388,"Ġwan":9389,"Ġshill":9390,"Ġunnecessary":9391,"ĠDigitized":9392,"Ġflu":9393,"Ġstately":9394,"Ġgloves":9395,"urable":9396,"Ġapprehension":9397,"rons":9398,"burn":9399,"ĠBull":9400,"ĠDuchess":9401,"ĠOxford":9402,"rice":9403,"lection":9404,"Ġgames":9405,"Ġquaint":9406,"smith":9407,"why":9408,"Ġthankful":9409,"ĠCarr":9410,"Ġgrowled":9411,"Ġministers":9412,"Ġvillain":9413,"Ġprodig":9414,"Ġbigger":9415,"dale":9416,"Ġtightly":9417,"ques":9418,"Ġwealthy":9419,"Quite":9420,"Ġcush":9421,"Ġerrand":9422,"Ġcoldly":9423,"ĠHa":9424,"Ġsubstant":9425,"Ġfunction":9426,"ok":9427,"Ġdiscont":9428,"Ġsurgeon":9429,"ĠClub":9430,"gage":9431,"Ġprimitive":9432,"Ġveins":9433,"ez":9434,"Ġinvolunt":9435,"Ġporter":9436,"Ġwist":9437,"Ġscared":9438,"None":9439,"Ġtram":9440,"Ġintol":9441,"Ġintercourse":9442,"Ġquart":9443,"Ġpersonally":9444,"Ġgarrison":9445,"Ġsmallest":9446,"ĠMist":9447,"Ġconstruction":9448,"plom":9449,"ĠCow":9450,"Ġthreatening":9451,"ĠPre":9452,"Ġvisiting":9453,"Ġgenerations":9454,"ĠXV":9455,"ITH":9456,"Ġoverhead":9457,"ĠGrey":9458,"Ke":9459,"Ġtreaty":9460,"Ġdirt":9461,"Ġsufferings":9462,"Ġexhaust":9463,"uh":9464,"Ġuncommon":9465,"Ġobscure":9466,"Ġstained":9467,"Ġpicturesque":9468,"Ġtelegraph":9469,"die":9470,"Ġdesirable":9471,"Ġmuscles":9472,"Ġformidable":9473,"Ġorange":9474,"Ġlodge":9475,"Ġmanuscript":9476,"Ġartillery":9477,"Ġcove":9478,"Alas":9479,"ariably":9480,"OUN":9481,"Ġcam":9482,"Ġhired":9483,"ĠSel":9484,"ĠNav":9485,"Ġmanufacture":9486,"unities":9487,"Ġrelatives":9488,"ĠCra":9489,"lfred":9490,"Ġremorse":9491,"Ġperplex":9492,"Ġscant":9493,"Ġhasty":9494,"Ġidol":9495,"Ġtraces":9496,"Ġdestiny":9497,"Ġsweetness":9498,"UM":9499,"Ġpersonality":9500,"Ġcooking":9501,"Ġcourtesy":9502,"Ġpreacher":9503,"Ġbestowed":9504,"intend":9505,"Ġbodily":9506,"Ġglittering":9507,"Ġwashing":9508,"Ġelegant":9509,"IAN":9510,"gings":9511,"iend":9512,"Ġrocky":9513,"Ġtricks":9514,"Ġworsh":9515,"Ġsire":9516,"Ġdrunken":9517,"Ġinvestigation":9518,"Ġinherit":9519,"Wait":9520,"inkling":9521,"ĠBarbara":9522,"Ġrepair":9523,"rain":9524,"ĠDam":9525,"Ġstudying":9526,"Ġcombination":9527,"Ġspy":9528,"Has":9529,"Ġdealing":9530,"ĠAtlantic":9531,"Ġimproved":9532,"inda":9533,"utive":9534,"weet":9535,"anor":9536,"ceptible":9537,"Ġreserved":9538,"Ġeyebr":9539,"Ġgroaned":9540,"ĠProvidence":9541,"Ġdeemed":9542,"Ġbackground":9543,"Ġagreement":9544,"Ġliken":9545,"hind":9546,"Ġcultivated":9547,"Ġpushing":9548,"Ġchains":9549,"ĠMiddle":9550,"!âĢĶ":9551,"Ġamiable":9552,"Ġinspiration":9553,"Ġjacket":9554,"Ġdispute":9555,"Ġgrinned":9556,"Ġsheets":9557,"Ġcrimes":9558,"gn":9559,"mble":9560,"ĠLORD":9561,"Ġheroes":9562,"Ġdisguise":9563,"Ġawaited":9564,"Ġeffective":9565,"water":9566,"Ġrasc":9567,"ĠAdmir":9568,"OC":9569,"Ġorganization":9570,"Ġconveyed":9571,"Ġwinding":9572,"ifications":9573,"ĠBart":9574,"Ġshocked":9575,"*'":9576,"Sure":9577,"Ġdost":9578,"Ġspecially":9579,"Ġprominent":9580,"Ġbased":9581,"Ġassass":9582,"mark":9583,"Ġtermin":9584,"Ġparallel":9585,"Ġkeys":9586,"Ġriches":9587,"Ġjewel":9588,"Ġremembrance":9589,"Ġinstruction":9590,"Ġcreep":9591,"Neither":9592,"Ġsnatched":9593,"Ġcows":9594,"Ġapost":9595,"Ġliberal":9596,"Ġdetermine":9597,"ĠWithout":9598,"Ġsits":9599,"Ġstooped":9600,"borough":9601,"leg":9602,"ĠIS":9603,"Ġliterally":9604,"ĠMAR":9605,"Ġhappier":9606,"ĠJon":9607,"Ġconsolation":9608,"Ġinvariably":9609,"indle":9610,"Ġnod":9611,"Ġinvented":9612,"Ġobserving":9613,"Ġgrie":9614,"retion":9615,"Ġdreaded":9616,"Ġpolished":9617,"Ġtwist":9618,"Ġyouthful":9619,"Ġsavages":9620,"ĠRachel":9621,"urrection":9622,"Ġlouder":9623,"ĠHay":9624,"ripp":9625,"Ġfinan":9626,"Ġdescent":9627,"Ġstrained":9628,"Ġvictims":9629,"Please":9630,"Ġdrift":9631,"Ġhedge":9632,"Ġmask":9633,"Ġshrie":9634,"Ġbrandy":9635,"Ġswing":9636,"Ġremedy":9637,"Ġbriefly":9638,"Ġtorrent":9639,"Ġerected":9640,"Ġyawn":9641,"Ġagitated":9642,"Ġtemples":9643,"ĠAlexand":9644,"Ġplates":9645,"ĠCanad":9646,"Ġshan":9647,"Ġfist":9648,"Ġmonstr":9649,"iary":9650,"fit":9651,"Ġlodging":9652,"iac":9653,"Ġundertake":9654,"ogy":9655,"ball":9656,"Ġdesolate":9657,"Ġcommerce":9658,"Ġcomposition":9659,"Ġlined":9660,"IX":9661,"lings":9662,"ĠSatan":9663,"Ġincredible":9664,"ervation":9665,"Ġcorpor":9666,"Mother":9667,"ĠRevolution":9668,"Ġcens":9669,"Ġdisd":9670,"Ġincapable":9671,"Ġclearing":9672,"heard":9673,"ello":9674,"Ġcomplexion":9675,"Ġbreed":9676,"ĠSomething":9677,"Ġretained":9678,"hab":9679,"Ġcandles":9680,"Ġpupils":9681,"Ġexpectation":9682,"ĠTown":9683,"ĠPenny":9684,"lder":9685,"Ġseeds":9686,"Ġsquad":9687,"Ġwitnessed":9688,"Ġblade":9689,"ĠSaxon":9690,"ĠChild":9691,"oting":9692,"ĠGet":9693,"Ġgreatness":9694,"Ġlent":9695,"ĠMem":9696,"Ġshillings":9697,"Ġgigantic":9698,"Ġoppon":9699,"quarters":9700,"Ġvaguely":9701,"ĠSquare":9702,"oked":9703,"Ġcrash":9704,"oche":9705,"foot":9706,"Ġdivide":9707,"obb":9708,"Ġdresses":9709,"Ġconject":9710,"Ġawaken":9711,"Ġintroduce":9712,"ĠTay":9713,"Ġrecorded":9714,"Ġheroic":9715,"udding":9716,"Ġofficials":9717,"ĠConstitution":9718,"Ġdisorder":9719,"ĠLouise":9720,"Ġancestors":9721,"Ġpaths":9722,"uation":9723,"ĠNational":9724,"Ġremembering":9725,"Ġhoof":9726,"Over":9727,"harine":9728,"Ġenlar":9729,"Ġpicking":9730,"oos":9731,"bear":9732,"vial":9733,"Ġcontrived":9734,"...\"":9735,"Ġpattern":9736,"iron":9737,"Ġtread":9738,"azar":9739,"Ġforbidden":9740,"Ġthie":9741,"Ġarrows":9742,"ĠGen":9743,"ĠKitty":9744,"Ġdwarf":9745,"Ġshouts":9746,"ulously":9747,"ĠPass":9748,"Ġcharms":9749,"Ġreveal":9750,"Ġimprovement":9751,"Ġtraveller":9752,"Ġunseen":9753,"Ġbehaviour":9754,"Ġsubdued":9755,"Ġly":9756,"ĠAnton":9757,"Ġcarved":9758,"Ġadministration":9759,"Ġgran":9760,"Ġmoderate":9761,"icit":9762,"Ġexamining":9763,"Ġshat":9764,"inet":9765,"Ġstrongest":9766,"Ġclimbing":9767,"ĠÂ£":9768,"ĠAmb":9769,"Ġcolumns":9770,"Ġtions":9771,"ĠTurk":9772,"Ġwholes":9773,"Ġstillness":9774,"Ġrightly":9775,"Ġflav":9776,"Ġtomorrow":9777,"dened":9778,"Ġdiplom":9779,"occ":9780,"keys":9781,"Ġcrowned":9782,"Ġragged":9783,"Ġsurm":9784,"Ġinjust":9785,"ĠWere":9786,"Ġwiped":9787,"Ġstartling":9788,"Ġangle":9789,"ĠHart":9790,"ronic":9791,"rov":9792,"Ġworkers":9793,"ĠMoon":9794,"Ġcavern":9795,"Ġinclination":9796,"Ġcler":9797,"Ġlords":9798,"Ġbands":9799,"Ġwits":9800,"ĠBook":9801,"ĠMY":9802,"Ġtherein":9803,"Tom":9804,"Ġdamned":9805,"Ġthorn":9806,"Ġexclamation":9807,"ĠDear":9808,"ĠDougl":9809,"Ġhem":9810,"Ġhesitate":9811,"Ġcoin":9812,"Ġdrown":9813,"thony":9814,"Ġserving":9815,"enote":9816,"asty":9817,"Ġecst":9818,"Ġlam":9819,"Ġbliss":9820,"ipl":9821,"Ġsunny":9822,"Ġglances":9823,"ieties":9824,"Ġsuspended":9825,"Ġclothed":9826,"ĠSur":9827,"Whatever":9828,"Ġdiscourse":9829,"ĠPacific":9830,"Ġthrill":9831,"Ġmun":9832,"Ġelected":9833,"ĠBruce":9834,"ĠJe":9835,"ĠAct":9836,"ĠJulia":9837,"Ġreview":9838,"chester":9839,"Ġfaults":9840,"Ġteachers":9841,"Ġparlor":9842,"vant":9843,"Ġthyself":9844,"Ġescort":9845,"lem":9846,"Ġapples":9847,"Ġforgetting":9848,"Ġprime":9849,"Ġmadame":9850,"Ġrosy":9851,"ĠGw":9852,"Sidenote":9853,"Ġdash":9854,"Ġbehaved":9855,"Ġengineer":9856,"Ġtents":9857,"Ġglac":9858,"Ge":9859,"ĠMademoiselle":9860,"Ġol":9861,"omon":9862,"ĠHur":9863,"ĠCOM":9864,"Ġaxe":9865,"Ġlatest":9866,"Ġimpressions":9867,"Ġhistorical":9868,"Ġhunted":9869,"Ġliquor":9870,"IP":9871,"Ġdealt":9872,"ĠGra":9873,"Ġbeggar":9874,"Ġinfinitely":9875,"Ġwonderfully":9876,"IFE":9877,"Ġsusp":9878,"Ġcats":9879,"ĠFriday":9880,"Ġadditional":9881,"Ġbattles":9882,"Ġtelegram":9883,"Ġrefer":9884,"Ġparticulars":9885,"anging":9886,"Ġcostume":9887,"Ġprovision":9888,"Ġmourning":9889,"Ġemerged":9890,"Ġvex":9891,"ĠPresently":9892,"Ġcommanding":9893,"Ġdares":9894,"Ġpad":9895,"Ġaffections":9896,"Ġhears":9897,"ĠFitz":9898,"Ġshoe":9899,"Ġdeprived":9900,"Ġthirteen":9901,"Ġgoddess":9902,"Ġblanket":9903,"Ġgrove":9904,"ĠDu":9905,"ĠChat":9906,"istics":9907,"ĠJoy":9908,"ĠCarl":9909,"Ġinconven":9910,"Ġbeautifully":9911,"ĠCommission":9912,"ĠAdams":9913,"Ġyoungest":9914,"Ġuses":9915,"Ġhats":9916,"Ġpleasantly":9917,"Ġcommunic":9918,"ĠHolland":9919,"Ġcooked":9920,"icide":9921,"Ġgreeting":9922,"ĠCecil":9923,"Ġexciting":9924,"Ġrequested":9925,"Ġmansion":9926,"Ġmirth":9927,"Ġchorus":9928,"Ġpresume":9929,"Ġ189":9930,"Ġtremble":9931,"Ġidentity":9932,"Ġlikeness":9933,"Ġcorrespondence":9934,"ieth":9935,"Ġ188":9936,"ĠTad":9937,"Ġincons":9938,"ĠEgyptian":9939,"Ġbarrel":9940,"ĠIsa":9941,"ĠAustral":9942,"Ġfulfil":9943,"Ġreasoning":9944,"Ġassociated":9945,"Ġrelieve":9946,"thy":9947,"Ġflowed":9948,"ersed":9949,"Ġrepublic":9950,"ĠFrancisco":9951,"Ġequip":9952,"Ed":9953,"Ġwarrant":9954,"atching":9955,"Ġwarrior":9956,"Ġinjustice":9957,"Ġvit":9958,"enched":9959,"elled":9960,"Ġhen":9961,"lotte":9962,"Ġcourte":9963,"Ġprair":9964,"Ġdamn":9965,"Ġoriginally":9966,"Ġharvest":9967,"Ġirresist":9968,"Ġpanic":9969,"Ġpurchased":9970,"Ġamidst":9971,"ito":9972,"ĠTheod":9973,"Ġpeop":9974,"ĠBess":9975,"Ġintentions":9976,"ipper":9977,"ifies":9978,"Ġcomrade":9979,"Ġartificial":9980,"Ġmule":9981,"ĠBeat":9982,"Ġunworthy":9983,"ĠNancy":9984,"Ġsquee":9985,"Ġconstructed":9986,"utable":9987,"ĠAst":9988,"Ġsung":9989,"ĠWard":9990,"Ġcel":9991,"Ġunity":9992,"cile":9993,"Ġinstitution":9994,"rec":9995,"Ġhorns":9996,"Ġcommence":9997,"Ġabundance":9998,"ĠGent":9999,"Ġphenomena":10000,"Ġjungle":10001,"Ġvehic":10002,"Ġpouring":10003,"Ġroaring":10004,"ran":10005,"ĠAsia":10006,"ĠDoes":10007,"Ġslumber":10008,"Ġassisted":10009,"Ġwonders":10010,"Ġghast":10011,"lves":10012,"Ġsiege":10013,"itably":10014,"ĠEver":10015,"Ġmechanical":10016,"mbre":10017,"Ġfools":10018,"Ġdilig":10019,"Ġscold":10020,"Ġskull":10021,"Jack":10022,"Ġbeam":10023,"Ġrevere":10024,"Ġcondemn":10025,"LD":10026,"Ġdocument":10027,"Ġtechn":10028,"Rem":10029,"Ġstamped":10030,"ĠEmma":10031,"Ġincess":10032,"ulties":10033,"Im":10034,"Ġdarted":10035,"ĠHope":10036,"Ġsymbol":10037,"ĠPenn":10038,"Ġguided":10039,"Ġtools":10040,"ordon":10041,"Ġtlie":10042,"Ġdepended":10043,"Ġantiqu":10044,"Ġsweeping":10045,"Finally":10046,"ĠAbout":10047,"Ġasserted":10048,"ĠJove":10049,"Ġpepper":10050,"aneously":10051,"ARD":10052,"Ġstrife":10053,"Ġharbour":10054,"ĠEp":10055,"ĠLes":10056,"ĠEnd":10057,"oust":10058,"Ġguardian":10059,"True":10060,"ĠGraham":10061,"Ġhospitality":10062,"ilful":10063,"Ġthereof":10064,"Ġwaiter":10065,"Ġinsects":10066,"Ġbud":10067,"Ġcomprehens":10068,"Ġrevelation":10069,",)":10070,"Ġfrontier":10071,"Ġshrub":10072,"Ġcontinent":10073,"Ġreturns":10074,"Ġrice":10075,"Up":10076,"ĠWed":10077,"Ġvalleys":10078,"Ġdefeated":10079,"Ġgrunt":10080,"ĠSurely":10081,"ĠStar":10082,"Ġpatiently":10083,"Ġbags":10084,"inement":10085,"Ġartistic":10086,"Ġbarren":10087,"Ġproblems":10088,"Ġtrop":10089,"ĠBE":10090,"Ġconsol":10091,"ĠFrederick":10092,"Ġspreading":10093,"Ġendeavour":10094,"Ġeyebrows":10095,"ĠCaesar":10096,"ĠPR":10097,"Ġresemblance":10098,"Ġmonstrous":10099,"Hal":10100,"arly":10101,"Ġlowest":10102,"ounding":10103,"ĠClare":10104,"Ġcups":10105,"Ġchannel":10106,"ainty":10107,"Ġexpenses":10108,"Ġinstitutions":10109,"cus":10110,"Ġluncheon":10111,"ĠUp":10112,"Ġskins":10113,"Ġdefense":10114,"Ġadvers":10115,"ĠHome":10116,"ĠNorman":10117,"icker":10118,"Ġbidding":10119,"Ġdignified":10120,"Ġnegot":10121,"Man":10122,"Ġsquire":10123,"Ġexpressions":10124,"ĠNorthern":10125,"Ġphant":10126,"Ġcongreg":10127,"iciency":10128,"25":10129,"Ġmeals":10130,"Ġtidings":10131,"Maybe":10132,"cker":10133,"Ġcomfortably":10134,"Ġgoose":10135,"Ġseparation":10136,"Ġladen":10137,"oster":10138,"Ġendeavoured":10139,"Ġblazing":10140,"wed":10141,"Ġpi":10142,"Ġvag":10143,"Ġglare":10144,"Ġfaculty":10145,"Ġfret":10146,"Ġaccent":10147,"Ġpresc":10148,"Ġworldly":10149,"Ġdiffer":10150,"Ġexhibited":10151,"Ġextensive":10152,"Ġduc":10153,"asonable":10154,"Ġgale":10155,"Ġdrum":10156,"eyond":10157,"jac":10158,"Ġextract":10159,"Ġcomplaint":10160,"Ġowed":10161,"Ġfeminine":10162,"Ġindignant":10163,"Ġunin":10164,"Ġpiled":10165,"Ġlingered":10166,"Ġpump":10167,"Ġlemon":10168,"ĠHarold":10169,"Ġdeceive":10170,"OOK":10171,"Ġmarching":10172,"ĠInst":10173,"Ġsleeve":10174,"Ġimpert":10175,"annah":10176,"agne":10177,"Ġsplit":10178,"EW":10179,"ĠStu":10180,"imately":10181,"gency":10182,"Ġexperiments":10183,"Ġnour":10184,"ĠBlue":10185,"Ġbru":10186,"ĠIll":10187,"Ġlazy":10188,"Ġcomprom":10189,"Ġwidely":10190,"Ġflashing":10191,"Ġpearls":10192,"Ġhousekeeper":10193,"Ġassigned":10194,"ĠMartha":10195,"Ġassembly":10196,"Ġgross":10197,"Ġranch":10198,"lace":10199,"pen":10200,"Ġghastly":10201,"Ġparson":10202,"Ġbonnet":10203,"Ġhunters":10204,"ĠMarquis":10205,"ĠLew":10206,"oyd":10207,"Ġsermon":10208,"Ġjoyous":10209,"ucc":10210,"Ġauthors":10211,"cible":10212,"Ġbottles":10213,"Ġbows":10214,"etic":10215,"Ġweren":10216,"ĠLib":10217,"Ġcrystal":10218,"Ġcliffs":10219,"Ġheel":10220,"Ġroast":10221,"Ġpavement":10222,"ca":10223,"Ġadjo":10224,"Ġcalam":10225,"Ġpupil":10226,"Ġserpent":10227,"Ġmines":10228,"Ġreplaced":10229,"mar":10230,"Ġcordial":10231,"Captain":10232,"ĠHead":10233,"HAT":10234,"Ġglor":10235,"Ġscul":10236,"Ġchoked":10237,"Ġrejoice":10238,"ouncing":10239,"ĠBernard":10240,"Ġsteward":10241,"gence":10242,"Ġrug":10243,"Ġabol":10244,"Ġmeetings":10245,"Ġfashionable":10246,"Ġdramatic":10247,"Ġseventeen":10248,"onstr":10249,"ĠCab":10250,"Ġappealed":10251,"Ġrepresentative":10252,"Ġdrifted":10253,"ĠFaith":10254,"Ġbeck":10255,"Ġstake":10256,"Ġcarelessly":10257,"ĠAlm":10258,"ĠWH":10259,"Ġprow":10260,"Ġfeeding":10261,"ĠSylvia":10262,"ĠĠĠĠĠĠĠĠ":10263,"Ġwarmly":10264,"Ġruled":10265,"ĠFrenchman":10266,"ĠVic":10267,"Ġbulk":10268,"did":10269,"Ġcough":10270,"Ġconvuls":10271,"Ġblaze":10272,"Ġclinging":10273,"Also":10274,"Ġabundant":10275,"Ġsculpt":10276,"hings":10277,"Ġprobability":10278,"have":10279,"Ġpaces":10280,"Ġpoems":10281,"inding":10282,"Ġradiant":10283,"bel":10284,"Ġlil":10285,"urt":10286,"Ġapproval":10287,"Ġnavig":10288,"ĠBeaut":10289,"Ġperception":10290,"Ġdies":10291,"urally":10292,"Ġsealed":10293,"ĠPlace":10294,"Ġrash":10295,"Ġcul":10296,"ĠServ":10297,"Ġearned":10298,"Ġregularly":10299,"asse":10300,"stri":10301,"ĠEN":10302,"ĠMorris":10303,"ntil":10304,"ĠSoon":10305,"Ġperse":10306,"Ġslay":10307,"AST":10308,"Ġindicate":10309,"gone":10310,"Ġlung":10311,"Ġspeeches":10312,"Ġspake":10313,"urned":10314,"Ġeyel":10315,"ĠBrand":10316,"ĠConstant":10317,"_,\"":10318,"ridge":10319,"Ġdoom":10320,"OND":10321,"Ġpint":10322,"Ġgleaming":10323,"Ġmagistrate":10324,"Ġconspicuous":10325,"Ġbomb":10326,"Ġbacked":10327,"Ġbenevol":10328,"Ġgrimly":10329,"Ġfulfilled":10330,"time":10331,"Ġdesigned":10332,"Ġevenings":10333,"odd":10334,"Ġfoes":10335,"Ġsternly":10336,"ĠMorgan":10337,"Ġslim":10338,"Ġvacant":10339,"Were":10340,"Ġjuice":10341,"ĠWhit":10342,"Ġsworn":10343,"ĠBelg":10344,"umerable":10345,"Ġconvince":10346,"Ġmouths":10347,"ishly":10348,"Ġflush":10349,"Ġmol":10350,"Ġrespected":10351,"uration":10352,"rot":10353,"ilton":10354,"bot":10355,"Ġpayment":10356,"spect":10357,"ĠMAN":10358,"Ġkin":10359,"Ġsurp":10360,"ĠAlthough":10361,"ĠEli":10362,"ursday":10363,"oft":10364,"Ġglobe":10365,"Ġeffected":10366,"Ġopportunities":10367,"Cha":10368,"Ġcomplained":10369,"ĠSamuel":10370,"riety":10371,"nest":10372,"Ġstalk":10373,"Ġcreek":10374,"Ġjaw":10375,"sar":10376,"Ġbreathless":10377,",_":10378,"Whether":10379,"Ġtren":10380,"Ġti":10381,"omy":10382,"Ġmysteries":10383,"Ġshallow":10384,"rett":10385,"Ġdecidedly":10386,"Ġdeepest":10387,"ippi":10388,"ĠRa":10389,"orks":10390,"ĠHell":10391,"ALL":10392,"ĠLow":10393,"ovitch":10394,"Ġtransm":10395,"rah":10396,"aste":10397,"ivities":10398,"Ġbonds":10399,"Ġtack":10400,"amin":10401,"Ġcrowds":10402,"Ġtu":10403,"Ġquarre":10404,"ĠBudd":10405,"Ġrejected":10406,"Ġsignificant":10407,"Ġtravellers":10408,"Ġmemor":10409,"arrow":10410,"Ġwreat":10411,"raft":10412,"Ġascended":10413,"Ġdragon":10414,"ĠHan":10415,"Ġchoo":10416,"Ġhorseback":10417,"Ġappearing":10418,"ico":10419,"Ġimages":10420,"ĠRoss":10421,"Ġmisunder":10422,"Ġeloquence":10423,"istory":10424,"ineas":10425,"Ġorchard":10426,"Ġresort":10427,"Ġblankets":10428,"Ġhyster":10429,"Ġpert":10430,"Ġhood":10431,"ĠBarn":10432,"Ġwolves":10433,"Ġexclaim":10434,"Ġsob":10435,"Ġhandful":10436,"Ġstealing":10437,"Ġcolonies":10438,"Ġchicken":10439,"Ġpreach":10440,"Ġweighed":10441,"Ġtongues":10442,"Ġtowers":10443,"Ġsaith":10444,"Ġunacc":10445,"arming":10446,"Ġruff":10447,"rawn":10448,"Ġtotally":10449,"Ġdismal":10450,"Ġfuss":10451,"Ġhook":10452,"Ġendured":10453,"uz":10454,"Ġlimb":10455,"ĠPot":10456,"phan":10457,"Ġprovinces":10458,"Ġcoffin":10459,"IGHT":10460,"ĠGhost":10461,"anded":10462,"ĠPoint":10463,"ĠStand":10464,"Ġdesperately":10465,"Ġmerchants":10466,"Ġbrim":10467,"Ġhonourable":10468,"bec":10469,"Ġprocure":10470,"ĠMah":10471,"Ġshower":10472,"Ġcreate":10473,"rise":10474,"Ġjustly":10475,"Ġsympathetic":10476,"Ġentertainment":10477,"Ġresentment":10478,"rations":10479,"ĠJewish":10480,"Ġshuddered":10481,"Ġswallow":10482,"Ġfaculties":10483,"got":10484,"RY":10485,"Ġtract":10486,"Think":10487,"iage":10488,"phia":10489,"Ġhanged":10490,"OG":10491,"Ġrepeating":10492,"rag":10493,"Ġbabies":10494,"Ġcarries":10495,"Ġhostess":10496,"Ġgit":10497,"Ġstretching":10498,"Ġcontradict":10499,"Ġwelcomed":10500,"âĢĶâĢĶ\"":10501,"ĠUN":10502,"Ġcakes":10503,"Ġentr":10504,"Ġchanced":10505,"eys":10506,"Ġdefin":10507,"Ġembraced":10508,"ĠPray":10509,"oni":10510,"Ġsprung":10511,"Ġinfantry":10512,"itched":10513,"ittered":10514,"Ġremonstr":10515,"Ġknot":10516,"Ġvolumes":10517,"ĠAnnie":10518,"ĠEverything":10519,"ĠHeb":10520,"anke":10521,"Ġvow":10522,"Ġtragic":10523,"Ġwinning":10524,"Ġsubsequent":10525,"Ġstrings":10526,"Ġworkmen":10527,"Ġmonkey":10528,"Ġreadiness":10529,"Ġdownward":10530,"People":10531,"Ġfactory":10532,"ras":10533,"ĠAmong":10534,"ĠHug":10535,"Ġelaborate":10536,"Ġastron":10537,"Ġdamage":10538,"Ġrealised":10539,"ĠBright":10540,"lfare":10541,"Ġoutline":10542,"ĠGregory":10543,"Ġrefresh":10544,"Ġpurity":10545,"ĠAgnes":10546,"ĠHotel":10547,"ammed":10548,"ĠAnthony":10549,"Ġvon":10550,"Ġprejudice":10551,"Listen":10552,"Ġinsens":10553,"Ġdespised":10554,"etta":10555,"ilian":10556,"Ġexting":10557,"Ġapproved":10558,"Ġassociation":10559,"_)":10560,"Ġquivering":10561,"Ġrelate":10562,"Ġadver":10563,"ĠDis":10564,"Ġconsulted":10565,"Ġoars":10566,"Ġswimming":10567,"Ġmanagement":10568,"ĠRow":10569,"Ġshudder":10570,"ĠRichmond":10571,"Ġrack":10572,"ffic":10573,"Ġrejoiced":10574,"Ġexercised":10575,"your":10576,"erted":10577,"Ġsequ":10578,"Ġbefall":10579,"Ġeverl":10580,"Ġattendant":10581,",[":10582,"ĠTest":10583,"Ġsniff":10584,"ĠProtestant":10585,"Ġoven":10586,"avia":10587,"ĠAlbert":10588,"Ġcreeping":10589,"Ġponder":10590,"Ġcharges":10591,"Ġproducing":10592,"Ġwrest":10593,"Ġfring":10594,"Ġroughly":10595,"Ġexal":10596,"Ġcasual":10597,"ĠPete":10598,"Ġinnumerable":10599,"ĠAM":10600,"Ġbravely":10601,"Ġdainty":10602,"Ġripp":10603,"Ġreckless":10604,"Ġcircles":10605,"bishop":10606,"Ġjaws":10607,"ĠPruss":10608,"unci":10609,"Ġfailing":10610,"Ġapartments":10611,"arers":10612,"Ġrebellion":10613,"isons":10614,"ĠNobody":10615,"Ġslid":10616,"gre":10617,"Ġvale":10618,"ĠNeither":10619,"Â»":10620,"Ġsadness":10621,"Ġrational":10622,"ĠMcC":10623,"Ġformation":10624,"Ġagents":10625,"Ġ183":10626,"Ġyach":10627,"Ġsubmitted":10628,"Ġsweat":10629,"ĠHorace":10630,"Ġopera":10631,"Â¬":10632,"Ġtempest":10633,"AG":10634,"Ġlamb":10635,"ĠLl":10636,"Ġsleepy":10637,"Ġjoys":10638,"ĠAmy":10639,"Ġkicked":10640,"Ġsoci":10641,"versed":10642,"Ġunconsciously":10643,"ĠRoad":10644,"Ġshelf":10645,"ĠTower":10646,"Ġchant":10647,"Ġbored":10648,"Ġardent":10649,"ĠDal":10650,"Ġ21":10651,"Ġvile":10652,"Ġpraying":10653,"Ġvolcan":10654,"Ġheights":10655,"Ġfab":10656,"Ġbrutal":10657,"Ġwaking":10658,"Ġcolle":10659,"Col":10660,"Ġstamm":10661,"Ġobjected":10662,"Ġejac":10663,"Ġwelfare":10664,"Ġintently":10665,"Ġstaggered":10666,"Ġbutler":10667,"Ġbasin":10668,"Ġattacks":10669,"Ġidiot":10670,"Ġdrawer":10671,"Ġconquest":10672,"Ġfavourable":10673,"Ġpositions":10674,"ĠSign":10675,"Ġscrut":10676,"Ġdrama":10677,"Ġwiser":10678,"useum":10679,"Ġwrist":10680,"ĠCharlotte":10681,"ĠSolomon":10682,"Ġdusty":10683,"Ġ'*":10684,"ĠEastern":10685,"appy":10686,"ĠOt":10687,"isive":10688,"Ġhypocr":10689,"Gl":10690,"\"_":10691,"Ġau":10692,"ĠCook":10693,"Ġghosts":10694,"Ġboss":10695,"Ġsixth":10696,"Ġdevils":10697,"Ġspectacles":10698,"Ġadvoc":10699,"ĠJun":10700,"Ġdamsel":10701,"Ġserene":10702,"from":10703,"Ġimpet":10704,"Ġstrikes":10705,"Ġsketch":10706,"23":10707,"Ġcells":10708,"bell":10709,"sman":10710,"Ġmaj":10711,"amble":10712,"ĠBear":10713,"Ġambass":10714,"ĠBol":10715,"Ġpulp":10716,"iley":10717,"Ġinsign":10718,"Ġnotions":10719,"uesday":10720,"egr":10721,"Ġoffers":10722,"24":10723,"Ġpadd":10724,"ela":10725,"Ġassented":10726,"Ġladyship":10727,"Ġhonestly":10728,"Ġdischarge":10729,"lton":10730,"Ġhurled":10731,"iating":10732,"Ġmonk":10733,"Ġnails":10734,"Ġtraced":10735,"Ġmoves":10736,"Ġending":10737,"Ġproudly":10738,"Ġpromising":10739,"Ġrefres":10740,"Ġmarrying":10741,"Ġhappening":10742,"Ġorg":10743,"Ġmachines":10744,"Ġplead":10745,"Ġbursting":10746,"ĠOliver":10747,"Ġeternity":10748,"Ġexplore":10749,"Ġsam":10750,"Ġcloset":10751,"ĠMet":10752,"Ġsupposing":10753,"Ġgarment":10754,"Ġantagon":10755,"Ġsuccessfully":10756,"Ġappropriate":10757,"quer":10758,"Ġsparkling":10759,"Ġobli":10760,"Ġparaly":10761,"Ġbelieves":10762,"Ġastonishing":10763,"ĠTor":10764,"Ġscound":10765,"Ġconverted":10766,"Ġfoam":10767,"Ġunfortunately":10768,"wich":10769,"idences":10770,"ĠAven":10771,".[":10772,"ĠTrist":10773,"Ġcoinc":10774,"oil":10775,"Ġwritings":10776,"pool":10777,"Ġdearly":10778,"Ġpractised":10779,"Ġwhoever":10780,"ĠMaggie":10781,"Ġimagin":10782,"ĠGreece":10783,"Ġalongside":10784,"Ġoutrage":10785,"Ġtrunks":10786,"Ġoldest":10787,"Ġsuppressed":10788,"Long":10789,"ĠOffice":10790,"Ġconsec":10791,"Ġenvelop":10792,"gus":10793,"ĠNext":10794,"ĠUniversity":10795,"Ġprudent":10796,"Ġshots":10797,"Ġconfirm":10798,"ĠAth":10799,"Ġrider":10800,"Ġfearing":10801,"roken":10802,"Ġcasting":10803,"Ġupwards":10804,"Ġkeenly":10805,"ima":10806,"Ġpartial":10807,"angs":10808,"Ġcaptive":10809,"Sp":10810,"Ġstab":10811,"agged":10812,"Ġeminent":10813,"Ġhighway":10814,"ĠDean":10815,"ĠTro":10816,"Ġresolve":10817,"Ġbirthday":10818,"Ġcivilized":10819,"Ġtraveling":10820,"Ġvicinity":10821,"Ġpeasants":10822,"Ġassistant":10823,"wen":10824,"ĠGordon":10825,"ĠPortug":10826,"Int":10827,"Several":10828,"mont":10829,"Ġcompens":10830,"Ġstumbled":10831,"xton":10832,"agers":10833,"Ġcompanies":10834,"Ġsorrows":10835,"Ġblush":10836,"Ġarriving":10837,"penter":10838,"Ġstammered":10839,"ĠFeder":10840,"ĠRes":10841,"usively":10842,"Ġdidst":10843,"aved":10844,"ĠMississ":10845,"Ġaccordance":10846,"Ġnervously":10847,"ĠMus":10848,"ĠRue":10849,"ĠSix":10850,"Ġexamples":10851,"Ġsuperiority":10852,"ĠFairy":10853,"Ġharness":10854,"Ġlodgings":10855,"ĠObj":10856,"Ã¼":10857,"enery":10858,"Ġrespecting":10859,"ĠPalace":10860,"Ġterrace":10861,"ĠBow":10862,"igan":10863,"Ġdined":10864,"ĠPick":10865,"Ġexcurs":10866,"burgh":10867,"iy":10868,"Ġacquire":10869,"ĠSaviour":10870,"othes":10871,"Ġacute":10872,"Ġwhispering":10873,"ĠCass":10874,"Fort":10875,"Ġdefiance":10876,"Ġchallenge":10877,"Ġconfron":10878,"Ġsquir":10879,"ĠDouglas":10880,"fly":10881,"ĠWay":10882,"Ġheadquarters":10883,"Ġbrightly":10884,"Ġborrowed":10885,"ĠGerald":10886,"Ġquoth":10887,"Ġtoast":10888,"Ġincidents":10889,"Ġelderly":10890,"Ġstem":10891,"Ġshapes":10892,"Ġreprodu":10893,"Ġstrode":10894,"ensed":10895,"imer":10896,"olated":10897,"elp":10898,"Ġmouse":10899,"Ġdifferences":10900,"ĠLyd":10901,"Ġdimly":10902,"Ġperished":10903,"Ġmainly":10904,"Suppose":10905,"Ġreaction":10906,"ĠAra":10907,"lle":10908,"Ġvirtuous":10909,"ĠThink":10910,"ĠOrle":10911,"Ġrab":10912,"Ġposts":10913,"Ġliable":10914,"Ġanticipated":10915,"ĠEX":10916,"Ġadjoining":10917,"Ġtrot":10918,"ĠCollege":10919,"mouth":10920,"ĠHaving":10921,"Ġfuriously":10922,"oubt":10923,"Ġdependent":10924,"Ġmathemat":10925,"Ġevils":10926,"Ġexter":10927,"Ġexpensive":10928,"ĠCommittee":10929,"Ġrobes":10930,"Ġstool":10931,"bes":10932,"Ġunkind":10933,"Ġsustained":10934,"ĠNegro":10935,"Phil":10936,"Ġapparatus":10937,"Ġgoat":10938,"Ġoppress":10939,"ĠTal":10940,"ĠArnold":10941,"ĠBeing":10942,"ĠSecond":10943,"Ġtalents":10944,"ceptions":10945,"Ġnap":10946,"Ġlogs":10947,"ĠBlake":10948,"ĠBridge":10949,"Ġambitious":10950,"Ġmos":10951,"Ġna":10952,"Ġsobbed":10953,"Ġquoted":10954,"Ġeman":10955,"ĠCatherine":10956,"Ġinvite":10957,"Ġrubbing":10958,"THER":10959,"vous":10960,"Ġemphat":10961,"ĠVenus":10962,"ĠVenice":10963,"Ġboards":10964,"Ġsadd":10965,"Ġpraised":10966,"Ġemphasis":10967,"Ġfaire":10968,"give":10969,"Ġlocks":10970,"Ġstrip":10971,"Ġdespise":10972,"Ġnobility":10973,"Ġorganized":10974,"ĠCraw":10975,"adelphia":10976,"oa":10977,"would":10978,"Ġpossessions":10979,"Ġtemperament":10980,"Ġjustify":10981,"Ġpossibilities":10982,"Ġsmoked":10983,"Ġpubl":10984,"Ġpetition":10985,"ĠHence":10986,"Ġcoats":10987,"26":10988,"Ġdiscern":10989,"oland":10990,"Ġdistressed":10991,"Ġtyp":10992,"Ġcoolly":10993,"Ġthieves":10994,"Put":10995,"END":10996,"Ġspoiled":10997,"Ġinternal":10998,"elf":10999,"Ġcontempor":11000,"riptions":11001,"Ġalien":11002,"Ġtrifling":11003,"Ġfrowned":11004,"ĠLIFE":11005,"ĠMississippi":11006,"range":11007,"Ġpoo":11008,"line":11009,"Ġunderneath":11010,"Ġ<":11011,"Ġbot":11012,"Ġpitched":11013,"Madame":11014,"IES":11015,"Ġaught":11016,"Ġunqu":11017,"ĠOz":11018,"Ġestimate":11019,"Ġapplause":11020,"Ġpic":11021,"Ġfantastic":11022,"urdy":11023,"Ġunnatural":11024,"entially":11025,"Ġinstructed":11026,"Ġkins":11027,"Ġdragging":11028,"Ġripe":11029,"Ġsoothing":11030,"ĠThursday":11031,"bly":11032,"ano":11033,"Ġninety":11034,"Ġinhab":11035,"Ġharmless":11036,"Ġrounded":11037,"Rep":11038,"Ġdyn":11039,"Ġlid":11040,"Ġparliament":11041,"Ġvigil":11042,"ĠLuke":11043,"Ġdisappro":11044,"Ġropes":11045,"ĠCall":11046,"oons":11047,"Ġstubb":11048,"Ġscrew":11049,"Ġfarmers":11050,"Ġloos":11051,"Ġmomentary":11052,"Ġcustomary":11053,"Ġaffirm":11054,"Ġtastes":11055,"ĠEsther":11056,"Ġvexed":11057,"yers":11058,"ĠAR":11059,"hara":11060,"Ġextend":11061,"!...":11062,"Ġagric":11063,"ctic":11064,"Ġselling":11065,"Ġtooth":11066,"Ġresigned":11067,"lesi":11068,"Ġliking":11069,"Ġsheriff":11070,"ĠJasper":11071,"ithe":11072,"Ġattorney":11073,"Ġarmour":11074,"Ġtiger":11075,"Rob":11076,"Ġtrades":11077,"Ġvisions":11078,"Ġbreaks":11079,"ĠTed":11080,"ĠMadam":11081,"ĠMack":11082,"ĠWel":11083,"Ġsymptoms":11084,"olis":11085,"50":11086,"wh":11087,"Ġpluck":11088,"Ġimposed":11089,"Ġmassive":11090,"asked":11091,"ĠBurg":11092,"Ġpunct":11093,"Ġpetty":11094,"Ġavailable":11095,"Ġenthusiastic":11096,"Ġtasted":11097,"Ġattending":11098,"Ġdisli":11099,"Ġoverth":11100,"imp":11101,"ĠBry":11102,"Ġclue":11103,"Ġintensity":11104,"El":11105,"Ġcert":11106,"Ġnuts":11107,"Ġembarrassment":11108,"ogs":11109,"ĠTex":11110,"nesday":11111,"Ġblossoms":11112,"Ġembarrassed":11113,"Ġdarkened":11114,"ĠWinter":11115,"Ġtrains":11116,"Ġscru":11117,"Ġquer":11118,"Ġdelicacy":11119,"ĠFinally":11120,"Ġlighter":11121,"Ġpomp":11122,"Ġstrove":11123,"Ġtumbled":11124,"ĠBall":11125,"Ġcane":11126,"idly":11127,"Ġpathetic":11128,"Ġraid":11129,"ĠGoo":11130,"Ġagricult":11131,"Ġmax":11132,"Ġbaggage":11133,"Ġsummons":11134,"Ġsped":11135,"Ġunint":11136,"Ġapron":11137,"Ġbounds":11138,"Ġallowing":11139,"Ġtro":11140,"\",":11141,"inted":11142,"Ġmaids":11143,"Ġinterposed":11144,"Ġlum":11145,"Ġanimated":11146,"Ġeagle":11147,"Ġacres":11148,"Ġquantities":11149,"idity":11150,"oys":11151,"lig":11152,"ala":11153,"Ġprohib":11154,"Ġchambers":11155,"Ġphenomenon":11156,"Te":11157,"ĠTen":11158,"ĠShould":11159,"ients":11160,"ĠCreek":11161,"psy":11162,"Ġdesirous":11163,"Ġticket":11164,"Ġnoisy":11165,"ĠHerm":11166,"Ġrecommended":11167,"Ġharmon":11168,"ĠDora":11169,"Ġblocks":11170,"Ġpeered":11171,"Ġfireplace":11172,"Ġmare":11173,"Ġdisdain":11174,"ĠDepartment":11175,"ani":11176,"ranean":11177,"ĠBed":11178,"Ġfiend":11179,"Ġpanting":11180,"Ġnaval":11181,"Ġgird":11182,"Ġmerits":11183,"Ġrefined":11184,"ĠMeanwhile":11185,"Ġsalary":11186,"ĠOrleans":11187,"Ġouts":11188,"Ġshrank":11189,"Ġsuperintend":11190,"ĠReg":11191,"Ġultimate":11192,"Ġdecre":11193,"Ġgau":11194,"ĠPeggy":11195,"lay":11196,"Ġlonel":11197,"Ġcounting":11198,"Ġphilosoph":11199,"Ġtonight":11200,"Ġmute":11201,"unately":11202,"Ġcontinuous":11203,"west":11204,"Ġrealm":11205,"ĠBeau":11206,"Ġshades":11207,"Ġattendants":11208,"iddy":11209,"Ġineff":11210,"Ġfavorable":11211,"ĠFurther":11212,"ĠPhiladelphia":11213,"Ġfrail":11214,"Ġunfold":11215,"Ġmanhood":11216,"Ġtraitor":11217,"ĠFrances":11218,"inarily":11219,"Ġdefined":11220,"ĠSquire":11221,"Ġproclaimed":11222,"ĠCrow":11223,"Ġruler":11224,"ĠJO":11225,"Ġargued":11226,"unned":11227,"ĠInstead":11228,"Ġwhar":11229,"ubert":11230,"ulent":11231,"Ġrif":11232,"ĠFlor":11233,"ĠHolmes":11234,"udence":11235,"Ġdesigns":11236,"Ġmanly":11237,"Ġpatients":11238,"Ob":11239,"Ġbon":11240,"Ġriot":11241,"ĠRam":11242,"Ġattempting":11243,"Ġspending":11244,"Ġharbor":11245,"Ġextending":11246,"icking":11247,"Ġexalted":11248,"Ġprolonged":11249,"ickens":11250,"ĠFif":11251,"Ġcommunicate":11252,"Ġencouragement":11253,"col":11254,"Ġtribute":11255,"Ġtalks":11256,"Ġsaloon":11257,"Ġdeliberate":11258,"Ġrever":11259,"Ġsage":11260,"Ġcrust":11261,"Ġseventh":11262,"Ġuneasiness":11263,"Ġmorality":11264,"ĠCharley":11265,"icket":11266,"Ġcrawled":11267,"Ġumbre":11268,"Ġprudence":11269,"Ġduly":11270,"Ġobtaining":11271,"Ġted":11272,"version":11273,"elity":11274,"Ġsentences":11275,"ĠDaniel":11276,"ĠMerc":11277,"Ġreflections":11278,"athed":11279,"Ġpolitely":11280,"zo":11281,"ĠPil":11282,"Ġinfluences":11283,"Ġadapted":11284,"woman":11285,"Ġbaff":11286,"ĠWITH":11287,"Ġimpass":11288,"twas":11289,"Ġweird":11290,"Ġterrific":11291,"stein":11292,"ĠCanadian":11293,"Ġtheories":11294,"Ġassent":11295,"Ġfren":11296,"Ġvegetables":11297,"ĠGolden":11298,"New":11299,"Ġhumility":11300,"Ġcommunicated":11301,"Ġstockings":11302,"Ġweariness":11303,"eded":11304,"Ġabuse":11305,"Ġsubord":11306,"ĠApost":11307,"Ġrestaur":11308,"Ġrecess":11309,"INE":11310,"Down":11311,"Ġhereafter":11312,"Ġworm":11313,"Ġbury":11314,"Ġank":11315,"Ġfeeb":11316,"Ġstepping":11317,"ba":11318,"Ġportions":11319,"Ġsuits":11320,"Ġtrenches":11321,"ĠNay":11322,"ĠSoph":11323,"Ġungr":11324,"Ġhelmet":11325,"Ġslee":11326,"ĠGabri":11327,"mund":11328,"Ġalliance":11329,"anton":11330,"Ġneighbouring":11331,"icular":11332,"Ġcourty":11333,"tr":11334,"ĠSP":11335,"Ġbeams":11336,"Ġbuzz":11337,"Ġmyth":11338,"Ã¡":11339,":âĢĶ":11340,"Ġchuckled":11341,"aze":11342,"Ġstubborn":11343,"Ġties":11344,"Ġdivor":11345,"Ġswamp":11346,"Ġadvertis":11347,"Ġcrad":11348,"Ġsublime":11349,"Ġhounds":11350,"Ġintolerable":11351,"Ġsincer":11352,"Ġprosperous":11353,"Ġsobbing":11354,"ĠLawrence":11355,"erity":11356,"Ġdelayed":11357,"onia":11358,"ĠSabb":11359,"Ġtube":11360,"Ġscholars":11361,"Ġtransform":11362,"Ġhaughty":11363,"ĠClay":11364,"ĠHalf":11365,"Ġdecline":11366,"Ġexplosion":11367,"Ġscout":11368,"ĠFive":11369,"Ġsyll":11370,"Ġbreadth":11371,"Ġencourage":11372,"Ġcardinal":11373,"Ġpierced":11374,"Ġsincerity":11375,"Ġoppressed":11376,"ĠField":11377,"Ġintox":11378,"Ġdisreg":11379,"Ġdescending":11380,"Ġmissionary":11381,"Ġviz":11382,"Ġbullets":11383,"ĠBird":11384,"Ġworlds":11385,"Being":11386,"Ġswam":11387,"ĠCommons":11388,"ĠGlen":11389,"ulus":11390,"Ġleaping":11391,"Ġacquaintances":11392,"Ġgaily":11393,"ingale":11394,"Ġschoon":11395,"Ġspectators":11396,"raph":11397,"Ha":11398,"raged":11399,"Ġfiction":11400,"Ġtenth":11401,"Ġdreadfully":11402,"Ġneut":11403,"ĠOR":11404,"Ġprocured":11405,"pence":11406,"shire":11407,"Ġsends":11408,"Ġnom":11409,"Ġoverfl":11410,"Ġcompare":11411,"Ġdeclaration":11412,"UE":11413,"Ġrim":11414,"Ġlogical":11415,"Ġshove":11416,"Ġbolt":11417,"Ġdetected":11418,"ĠInn":11419,"Ġforgiven":11420,"Ġtunnel":11421,"Ġproves":11422,"Ġtearing":11423,"Ġeverlasting":11424,"Ġloaf":11425,"Ġpeculiarly":11426,"Ġknocking":11427,"Ġgrieved":11428,"press":11429,"Ġsarc":11430,"Ġtray":11431,"Ġgenerosity":11432,"Ġheathen":11433,"Ġbehave":11434,"ĠRoy":11435,"ousins":11436,"actor":11437,"poonful":11438,"Ġorphan":11439,"Ġtoes":11440,"Ġomn":11441,"Ġtoken":11442,"Ġwestward":11443,"vent":11444,"Ġdiscretion":11445,"Ġshadowy":11446,"Ãª":11447,"Love":11448,"Ġundertaking":11449,"Ġskirt":11450,"Ġraft":11451,"Ġwhale":11452,"rich":11453,"Ġ|":11454,"Ġdecay":11455,"Ġsoftened":11456,"Ġconclude":11457,"anth":11458,"Ġtroop":11459,"Ġonward":11460,"ĠDin":11461,"Ġstu":11462,"Ġfaithfully":11463,"Ġbi":11464,"Ġhesitating":11465,"oug":11466,"Ġconsumed":11467,"ĠMatthew":11468,"Ġshattered":11469,"Ġbattery":11470,"ĠBenj":11471,"Ġcurled":11472,"Ġslack":11473,"Ġtraffic":11474,"Ġbald":11475,"ulsion":11476,"undered":11477,"acr":11478,"Ġrefusal":11479,"Ġmalice":11480,"Ġsuicide":11481,"ĠTuesday":11482,"Ġpipes":11483,"Ġassertion":11484,"Ġbrushed":11485,"ench":11486,"Ġintrig":11487,"Ġgoal":11488,"Ġimperial":11489,"ĠImper":11490,"utt":11491,"ĠGirl":11492,"inqu":11493,"ĠStone":11494,"Ġfalsehood":11495,"Ġnegative":11496,"ĠGilbert":11497,"icism":11498,"mates":11499,"Ġsmote":11500,"Ġamazing":11501,"Ġcomplicated":11502,"ĠTerr":11503,"!)":11504,"Ġenerget":11505,"Ġsuspense":11506,"Ġreel":11507,"ĠSenate":11508,"Ġeloquent":11509,"Ġavenue":11510,"Ġfancies":11511,"Ġcountrymen":11512,"TS":11513,"Ġcrop":11514,"ĠHunt":11515,"Ġfores":11516,"Ġdisposal":11517,"cca":11518,"Ġeventually":11519,"Ġexile":11520,"Ġtorch":11521,"ustrious":11522,"ĠHebrew":11523,"Ġoy":11524,"Ġmeadows":11525,"Sm":11526,"emen":11527,"Ġslopes":11528,"Ġadvert":11529,"ĠForest":11530,"Ġaer":11531,"ĠYanke":11532,"leigh":11533,"urbed":11534,"ĠGlad":11535,"Ġawait":11536,"Ġlass":11537,"Ġloneliness":11538,"Ġplough":11539,"ften":11540,"ĠSocial":11541,"ĠJimmie":11542,"ĠLis":11543,"Ġimitation":11544,"Ġdistrust":11545,"good":11546,"renched":11547,"Ġstif":11548,"Ġribbon":11549,"Ġther":11550,"ĠHo":11551,"Ġstrang":11552,"Ġlump":11553,"izard":11554,"ĠVol":11555,"Ġrags":11556,"ĠIda":11557,"ĠArist":11558,"Ġtheme":11559,"Ġhusbands":11560,"ĠLeg":11561,"Ġtips":11562,"Fl":11563,"ĠFire":11564,"Ġdischarged":11565,"urning":11566,"ĠLuci":11567,"Ġartists":11568,"Ġedges":11569,"Ġyelled":11570,"Ġsources":11571,"Ġreceipt":11572,"Ġcarriages":11573,"Ġrecognise":11574,"ĠIng":11575,"Ġcontinual":11576,"Ġcaps":11577,"Ġsly":11578,"Ġattraction":11579,"Ġrenown":11580,"because":11581,"Ġplague":11582,"ltered":11583,"Ġwisely":11584,"ĠLily":11585,"ppers":11586,"abouts":11587,"ciences":11588,"Ġapprehend":11589,"Ġquestioning":11590,"Ġinquis":11591,"URE":11592,"Ġcautious":11593,"ĠBless":11594,"Ġgenerals":11595,"Ġirresistible":11596,"ĠCas":11597,"Ġstorms":11598,"Ġautomob":11599,"Ġdisob":11600,"Ġblushed":11601,"Ġfinancial":11602,"adays":11603,"Ġblunt":11604,"ĠMake":11605,"Ġkissing":11606,"Ġinspection":11607,"Ġabide":11608,"Ġunexpectedly":11609,"Ġcured":11610,"Ġkettle":11611,"Ġwagons":11612,"ĠVI":11613,"Ġexasper":11614,"Ġrebel":11615,"Ġkneeling":11616,"Ġcommonplace":11617,"Ġcousins":11618,"Ġplum":11619,"Ġappoint":11620,"ovna":11621,"Ġnegroes":11622,"Ġmic":11623,"Ġfortress":11624,"Last":11625,"Ġcad":11626,"Ġstealth":11627,"Ġsolely":11628,"Ġharp":11629,"Ġpenit":11630,"Ġachieved":11631,"Ġhail":11632,"Ġspecimen":11633,"ombre":11634,"ĠLane":11635,"Ġrecl":11636,"Ġape":11637,"ĠRus":11638,"Ġâĸł":11639,"Ġloyalty":11640,"Ġlame":11641,"Ġprices":11642,"Ġcable":11643,"Ġpearl":11644,"Ġcracked":11645,"Ġpainfully":11646,"Ġledge":11647,"Ġtails":11648,"Ġcurve":11649,"Ġreappe":11650,"ĠConn":11651,"pin":11652,"Ġdoomed":11653,"Ġhonesty":11654,"Ġfiner":11655,"Ġkisses":11656,"!_":11657,"Ġboughs":11658,"Gu":11659,"Ġshabby":11660,"Ġslaughter":11661,"Ġaccurate":11662,"sex":11663,"Ġrobb":11664,"Ġglist":11665,"oths":11666,"Ġprivileges":11667,"vis":11668,"ĠAtt":11669,"tery":11670,"Ġfoliage":11671,"LY":11672,"Ġlungs":11673,"Ġtough":11674,"Ġcrooked":11675,"only":11676,"ĠCousin":11677,"Ġpartners":11678,"Ġapprove":11679,"Ġannual":11680,"Ġappreciation":11681,"sett":11682,"ĠSabbath":11683,"ĠEric":11684,"âĢĶâĢĶ":11685,"Ġargue":11686,"Ġnoiseless":11687,"lement":11688,"Ġrequis":11689,"ĠKings":11690,"Ġbrightness":11691,"uddled":11692,"Ġding":11693,"Ġutterance":11694,"Ġlandlady":11695,"Ġadjust":11696,"Ġmules":11697,"Ġunusually":11698,"Ġwickedness":11699,"ĠSE":11700,"Ġmiser":11701,"ĠRad":11702,"Ġurge":11703,"away":11704,"ruly":11705,"Ġintensely":11706,"Ġprogram":11707,"ĠMarian":11708,"ĠMistress":11709,"mann":11710,"Ġoccurrence":11711,"ĠKeep":11712,"ĠAustria":11713,"ĠUt":11714,"Ġhyd":11715,"lemen":11716,"Ġscenery":11717,"aman":11718,"Ġhue":11719,"Ġnursery":11720,"Ġprelim":11721,"ĠMme":11722,"Ġcourtyard":11723,"Ġpigs":11724,"Ġnu":11725,"Ġproduct":11726,"Ġrip":11727,"Ġclaws":11728,"Ġinterven":11729,"Ġsimult":11730,"Ġpilgrim":11731,"Ġingenious":11732,"ĠNi":11733,"Ġparticip":11734,"Ġbronze":11735,"ĠMason":11736,"ĠAccord":11737,"27":11738,"Ġdeclaring":11739,"onge":11740,"Ġsubstantial":11741,"uty":11742,"Ġexpressing":11743,"ĠLang":11744,"ĠAdmiral":11745,"Ġdefended":11746,"Ġdeposited":11747,"Ġprostr":11748,"ĠProp":11749,"ĠStuart":11750,"offrey":11751,"tical":11752,"ĠIslands":11753,"ĠHud":11754,"Ġentry":11755,"Ġeconomy":11756,"Ġnostri":11757,"ĠMarion":11758,"Ġshawl":11759,"aude":11760,"Ġremarkably":11761,"Ġorgans":11762,"Ġquitted":11763,"assing":11764,"Ġseemingly":11765,"Ã¶":11766,"Ġjumping":11767,"Ġroofs":11768,"Ġwithdrawn":11769,"Ġverdict":11770,"bation":11771,"Ġwhereupon":11772,"Ġproofs":11773,"arious":11774,"Ġbounded":11775,"Ġselection":11776,"ilet":11777,"Ġupro":11778,"Ġbrighter":11779,"ĠCour":11780,"Ġinfam":11781,"ocity":11782,"Ġopens":11783,"Ġscatter":11784,"Ġproduces":11785,"Ġsensations":11786,"Ġwider":11787,"irs":11788,"Ġbrace":11789,"Ġinvalid":11790,"Ġbisc":11791,"ĠHind":11792,"Ġfunctions":11793,"Ġfaltered":11794,"Ġfolds":11795,"Ġreigned":11796,"ĠVinc":11797,"Ġsacrificed":11798,"HN":11799,"Ġpreaching":11800,"Ġbuying":11801,"ĠBY":11802,"Ġyon":11803,"Ġdeserves":11804,"Ġbestow":11805,"Ġstripped":11806,"Ġadequ":11807,"Ġinsane":11808,"rad":11809,"Ġunmist":11810,"ĠBour":11811,"Ġreckoned":11812,"vered":11813,"Ġinsignific":11814,"piring":11815,"ĠFord":11816,"izzie":11817,"Ġincor":11818,"Ġafar":11819,"Ġnostrils":11820,"ĠPlease":11821,"Ġpitiful":11822,"Ġtreachery":11823,"ĠScar":11824,"Ġattendance":11825,"Ġoverp":11826,"Ġpassionately":11827,"Ġessentially":11828,"ĠPost":11829,"ĠJanet":11830,"Half":11831,"ĠWalk":11832,"Ġgorgeous":11833,"Ġsleeves":11834,"Â£":11835,"ennes":11836,"Ġscramb":11837,"Ġheated":11838,"Ġbegging":11839,"Ġsentimental":11840,"Ġoffensive":11841,"Ġgoverned":11842,"La":11843,"Ġornament":11844,"riv":11845,"Ġalleg":11846,"ĠAlb":11847,"Ġgy":11848,"nels":11849,"Nobody":11850,"Ġsund":11851,"Ġpeer":11852,"Pray":11853,"Ġbom":11854,"ĠParadise":11855,"Ġneatly":11856,"_!":11857,"Ġriv":11858,"Ġseasons":11859,"Ġadmission":11860,"Ġfrighten":11861,"Ġarbit":11862,"Ġgotten":11863,"Ġskirts":11864,"Ġannouncement":11865,"Ġrobbers":11866,"ira":11867,"Ġdiscussing":11868,"Ġecclesi":11869,"Ġstormy":11870,"ĠSilver":11871,"Ġfi":11872,"enson":11873,"Ġexcite":11874,"Ġconcentrated":11875,"Ġtrumpet":11876,"ĠMall":11877,"Ġmonument":11878,"Ġprior":11879,"aciously":11880,"unction":11881,"ĠNell":11882,"Ġscor":11883,"Ġ40":11884,"Ġsemi":11885,"Ġspur":11886,"going":11887,"ĠWales":11888,"ĠNone":11889,"rude":11890,"UD":11891,"Ġevolution":11892,"Ġbuffalo":11893,"Ġhelm":11894,"Ġengra":11895,"Ġattributed":11896,"Ġdestination":11897,"idd":11898,"rary":11899,"Ġinstinctively":11900,"borne":11901,"Ġbarrier":11902,"Ġridden":11903,"Ġerrors":11904,"worthy":11905,"Ġscholar":11906,"Ġmonks":11907,"Ġforemost":11908,"28":11909,"Ġleagues":11910,"ĠMexican":11911,"Ġillustrious":11912,"Ġtrivial":11913,"itimate":11914,"Ġperiods":11915,"Ġoverwhelmed":11916,"Much":11917,"Ġblend":11918,"Ġextremity":11919,"oric":11920,"Ġexplo":11921,"Ġphrases":11922,"Ġprairie":11923,"Ġexplaining":11924,"ĠOhio":11925,"Ġsandy":11926,"ĠJustice":11927,"Ġcherished":11928,"Ġfuel":11929,"ĠAlfred":11930,"ĠSergeant":11931,"ĠSanta":11932,"Ġreaches":11933,"Ġcompact":11934,"Ġfeud":11935,"Ġtrials":11936,"elson":11937,"ĠNik":11938,"Ġrapidity":11939,"ĠRand":11940,"ĠAthen":11941,"ĠBroad":11942,"Ġsubsc":11943,"Ġwithered":11944,"Should":11945,"Ġlakes":11946,"Ġstudio":11947,"Ġshivered":11948,"Ġwhereby":11949,"Ġperplexed":11950,"po":11951,"Ġgospel":11952,"Ġspecific":11953,"ĠPa":11954,"Ġclenched":11955,"entric":11956,"Instead":11957,"âĢ¢":11958,"Ġpenalty":11959,"Ġlawyers":11960,"Ġrotten":11961,"Ġlugg":11962,"Ġvegetable":11963,"ĠPeace":11964,"ĠRemember":11965,"ouri":11966,"Stop":11967,"Ġbanquet":11968,"Keep":11969,"atically":11970,"Ġhandled":11971,"Ġtransferred":11972,"Ġlou":11973,"Ġallies":11974,"augh":11975,"ACE":11976,"Ġreins":11977,"Ġseverity":11978,"Ġpledge":11979,"Ġdevote":11980,"Christ":11981,"dal":11982,"Ġhamm":11983,"Ġspecimens":11984,"bons":11985,"mun":11986,"unny":11987,"hs":11988,"ĠFra":11989,"Ġannoyance":11990,"Ġjur":11991,"ĠTR":11992,"Ġlions":11993,"ĠSub":11994,"Ġfits":11995,"Ġfundamental":11996,"ĠHE":11997,"ĠTer":11998,"Car":11999,"ĠWednesday":12000,"otic":12001,"Ġchemical":12002,"Ġfrantic":12003,"Ġnavy":12004,"Ġwhim":12005,"roft":12006,"arant":12007,"Ġaloft":12008,"nedy":12009,"Twas":12010,"Ġcovers":12011,"Thanks":12012,"Ġoutfit":12013,".''":12014,"Ġlighting":12015,"Ġmoust":12016,"Ġselves":12017,"Ġpreached":12018,"mans":12019,"ĠTaylor":12020,"Ġivory":12021,"Ġmournful":12022,"occup":12023,"Ġobstinate":12024,"Ġwhirled":12025,"Ġrestraint":12026,"ĠHun":12027,"Ġvind":12028,"Ġchal":12029,"voc":12030,"Ġft":12031,"ĠTha":12032,"Ġsting":12033,"Ġplunge":12034,"Ġmantle":12035,"Ġbutcher":12036,"Ġplaint":12037,"Ġspringing":12038,"Ġsheltered":12039,"otto":12040,"ĠJuan":12041,"Em":12042,"thm":12043,"ĠAllah":12044,");":12045,"ĠDub":12046,"ivable":12047,"Ġconfounded":12048,"ĠWilliams":12049,"Ġpiety":12050,"Ġconcerns":12051,"ĠBad":12052,"Ġappearances":12053,"Ġtoy":12054,"Ġseizing":12055,"Ġintimacy":12056,"Ġtame":12057,"Ġscept":12058,"uts":12059,"Ġsoap":12060,"Ġearnestness":12061,"ĠFen":12062,"forced":12063,"yon":12064,"Ġextingu":12065,"Four":12066,"Ġsuperstition":12067,"Ġlumber":12068,"Ġnovels":12069,"Ġyacht":12070,"ĠIsaac":12071,"ĠJess":12072,"Ġchronic":12073,"ĠFranklin":12074,"frey":12075,"ĠRight":12076,"ĠNevertheless":12077,"Ġbackwards":12078,"Ġrecovery":12079,"Ġcathedral":12080,"Really":12081,"Ġestates":12082,"Ġrestrain":12083,"Ġinhabited":12084,"nty":12085,"Right":12086,"ĠStra":12087,"Later":12088,"ĠAthos":12089,"Ġraven":12090,"rat":12091,"Ġ0":12092,"stra":12093,"Ġditch":12094,"ĠDavis":12095,"point":12096,"Ġdod":12097,"Ġoccurs":12098,"Ġsecl":12099,"ords":12100,"Ġcontemplation":12101,"ĠCentral":12102,"stration":12103,"ĠRel":12104,"Ġadorned":12105,"ĠJenn":12106,"Ġinfern":12107,"Ġsewing":12108,"Ġvainly":12109,"Ġgrotes":12110,"Ġwarfare":12111,"rehens":12112,"Ġbeforehand":12113,"Ġlain":12114,"nex":12115,"Ġmonaster":12116,"ĠSister":12117,"Ġrests":12118,"amis":12119,"Ġsombre":12120,"umsy":12121,"Young":12122,"ĠInf":12123,"Ġtraveled":12124,"craft":12125,"Ġtense":12126,"ĠLewis":12127,"ĠDer":12128,"Ġfrock":12129,"Ġcripp":12130,"jection":12131,"yram":12132,"Ġcabinet":12133,"inals":12134,"Ġguid":12135,"fortunes":12136,"Ġunmistak":12137,"Ġconform":12138,"Ġdigging":12139,"mering":12140,"Ġdazed":12141,"ĠDevil":12142,"ĠAvenue":12143,"29":12144,"Ġtrench":12145,"Ġconference":12146,"Ġboarding":12147,"ĠWhatever":12148,"ĠâĢļ":12149,"Ġgulf":12150,"PH":12151,"Ġemergency":12152,"Ġsplendour":12153,"Ġinheritance":12154,"ĠThank":12155,"Ġtruths":12156,"umer":12157,"Ġassail":12158,"ITY":12159,"Ġsite":12160,"Ġhare":12161,"Ġchival":12162,"Ġprevail":12163,"Ġsupernatural":12164,"ĠClem":12165,"Ġrect":12166,"roc":12167,"ographer":12168,"ĠSi":12169,"Ġbleeding":12170,"ĠTestament":12171,"Ġwaistcoat":12172,"Ġstriving":12173,"Ġheaps":12174,"Ġdrows":12175,"ĠFelix":12176,"ĠGoogle":12177,"Ġconverse":12178,"Ġcharacteristics":12179,"Ġstrolled":12180,"Ġdisturbance":12181,"Â°":12182,"ĠRh":12183,"uate":12184,"ĠGods":12185,"Ġurgent":12186,"atches":12187,"Ġchast":12188,"sworth":12189,"ĠFarmer":12190,"Ġdistricts":12191,"ĠBR":12192,"Ġje":12193,"Ġrejoicing":12194,"lorn":12195,"Ġrepet":12196,"Ġpreceded":12197,"Ġconsisting":12198,"Ġdebts":12199,"Ġtended":12200,"Ġfloat":12201,"ĠId":12202,"Ġhasten":12203,"Ġcrouched":12204,"Ġeve":12205,"Ġinstincts":12206,"rants":12207,"Ġreverse":12208,"Ġsult":12209,"Ġgrandeur":12210,"Ġapology":12211,"Ġredeem":12212,"Ġtransparent":12213,"ART":12214,"Ġshriek":12215,"ollen":12216,"giving":12217,"Ġgild":12218,"Ġtablespoonful":12219,"iche":12220,"Ġwears":12221,"Ġlingering":12222,"40":12223,"ĠBank":12224,"Jim":12225,"ui":12226,"ĠJem":12227,"Ġcrush":12228,"Ġsubjected":12229,"Ġsaluted":12230,"Ġstatements":12231,"rers":12232,"Ġfraud":12233,"ĠRobinson":12234,"Ġobligation":12235,"Ġtempered":12236,"ĠMonte":12237,"Ġsubmar":12238,"othe":12239,"Ġknives":12240,"Ġattachment":12241,"ĠMow":12242,"ĠTruth":12243,"Ġtab":12244,"Ġresembled":12245,"Ġphilosophers":12246,"Ġretreated":12247,"Ġornaments":12248,"ties":12249,"Ġbluff":12250,"ĠTri":12251,"ĠViolet":12252,"Ġwhistling":12253,"Ġrevolt":12254,"ĠImperial":12255,"aton":12256,"Ġgardener":12257,"Ġeth":12258,"Ġfortunately":12259,"Time":12260,"Ġtel":12261,"ĠTrue":12262,"Ġstain":12263,"Ġbesie":12264,"Ġcontrolled":12265,"ĠJen":12266,"Ġvenerable":12267,"Ġath":12268,"ĠPy":12269,"Ġlacking":12270,"Ġproprietor":12271,"Ġschooner":12272,"Ġced":12273,"escend":12274,"\"âĢĶ":12275,"odge":12276,"Ġcontinues":12277,"Ġforgiveness":12278,"Ġpartially":12279,"Ġbesee":12280,"Ġcomforted":12281,"PER":12282,"ioned":12283,"iry":12284,"Ġprover":12285,"Ġemig":12286,"Ġcausing":12287,"vo":12288,"Ġrepaired":12289,"Ġconclusions":12290,"Ġsands":12291,"BER":12292,"Ġsyn":12293,"Ġproceeds":12294,"ĠSing":12295,"Ġsession":12296,"Ġtypes":12297,"Ġpulse":12298,"Ġgust":12299,"Ġmistakes":12300,"Ġobstin":12301,"Ġpenetrated":12302,"Nat":12303,"Ġmusket":12304,"Ġobstacle":12305,"thought":12306,"Ġhush":12307,"Ã«":12308,"Ġunaw":12309,"Ġclumsy":12310,"Ġdoings":12311,"Ġbreach":12312,"Ġfascinating":12313,"Ġmartyr":12314,"Ġpines":12315,"erties":12316,"Ġdiet":12317,"Ġcircular":12318,"Ġpossesses":12319,"Ġforthwith":12320,"Ġgaining":12321,"Ġorderly":12322,"ĠAlmighty":12323,"Ġdial":12324,"umped":12325,"ĠHighness":12326,"Ġflank":12327,"Ġlaun":12328,"Ġafore":12329,"Ġpursuing":12330,"bird":12331,"Ġtire":12332,"Ġprospects":12333,"UST":12334,"human":12335,"Ġenters":12336,"Ġdiam":12337,"Ġtailor":12338,"Ġbuttons":12339,"ĠHudson":12340,"eau":12341,"Ġrealise":12342,"Ġactor":12343,"Ġengines":12344,"Ġcostly":12345,"Per":12346,"wa":12347,"Ġpassenger":12348,"Ġsounding":12349,"ĠAllan":12350,"Ġrebu":12351,"ademy":12352,"Ġsobs":12353,"Ġremn":12354,"Ġballoon":12355,"Ġdrifting":12356,"Ġchariot":12357,"Ġinterruption":12358,"Ġgal":12359,"ureau":12360,"Ġscreaming":12361,"Ġ]":12362,"osa":12363,"ĠClar":12364,"Ġshift":12365,"Ġadds":12366,"Ġrefusing":12367,"arte":12368,"Ġguarant":12369,"Ġdistributed":12370,"ĠCardinal":12371,"agraph":12372,"Ġoppose":12373,"wall":12374,"Ġwhipped":12375,"Hold":12376,"Ġprecept":12377,"Ġslop":12378,"Ġuncertainty":12379,"Ġmonoton":12380,"mediately":12381,"Ġsinister":12382,"pan":12383,"ĠWhe":12384,"Ġplunder":12385,"Ġhonoured":12386,"Ġrighteousness":12387,"otha":12388,"upiter":12389,"Ġblossom":12390,"Ġfath":12391,"asmuch":12392,"HER":12393,"Ġallowance":12394,"bage":12395,"ĠPercy":12396,"Ġrelating":12397,"Ġmisfortunes":12398,"ĠCe":12399,"Ġaug":12400,"Ġpoliteness":12401,"Ġpaw":12402,"itches":12403,"Ġwherefore":12404,"retty":12405,"Ġpleases":12406,"Isn":12407,"Ġeccentric":12408,"rell":12409,"Ġtho":12410,"Ġdisappearance":12411,"Ġhonorable":12412,"Ġnail":12413,"Ġviolin":12414,"Ġgenial":12415,"Ġbridle":12416,"Ġclust":12417,"Ġcrumb":12418,"Ġscrub":12419,"ĠBabyl":12420,"Ġprecaution":12421,"Ġinflicted":12422,"Far":12423,"Ġhorrors":12424,"Ġmiracles":12425,"ĠRou":12426,"ĠBrook":12427,"Ġgoverness":12428,"Ġanalysis":12429,"car":12430,"ĠChris":12431,"ĠEleanor":12432,"Ġweeds":12433,"Ġabomin":12434,"Ġdoctrines":12435,"Ġtreason":12436,"Ġrevived":12437,"Ġmerrily":12438,"Ġgravel":12439,"Ġii":12440,"Ġdey":12441,"ĠToo":12442,"Ġelapsed":12443,"Ġequality":12444,"Ġadmiring":12445,"ĠSandy":12446,"Ġcanal":12447,"Ġhoofs":12448,"Ġindefinite":12449,"ĠKirk":12450,"Ġrugged":12451,"Ġhomeward":12452,"Ġburgl":12453,"uset":12454,"Ġregretted":12455,"yss":12456,"Ġmultipl":12457,"Ġrelaxed":12458,"Ġsatin":12459,"Ġspaces":12460,"Ġomin":12461,"isen":12462,"Ġsingularly":12463,"Ġspears":12464,"Ġdraws":12465,"Ġicy":12466,"Ġsincerely":12467,"udent":12468,"ĠAlas":12469,"Ġdeceased":12470,"ĠSem":12471,"ĠAlt":12472,"Ġcountess":12473,"ixt":12474,"Ġsuggestions":12475,"ĠWhose":12476,"Ġmicro":12477,"Ġconfronted":12478,"ĠPE":12479,"ignant":12480,"munition":12481,"Ġvirgin":12482,"Ġsweetly":12483,"ndy":12484,"minster":12485,"Ġpeoples":12486,"Ġimprisoned":12487,"itia":12488,"ĠBrig":12489,"Ġsubmission":12490,"Ġrifles":12491,"Ġfile":12492,"ĠMaid":12493,"ĠTrent":12494,"Ġenviron":12495,"Ġvicious":12496,"ĠHast":12497,"Ġcoachman":12498,"Ġsledge":12499,"Ġpoles":12500,"illiam":12501,"Within":12502,"Ġblessings":12503,"dinand":12504,"Ġobserver":12505,"Ġclutched":12506,"ylvan":12507,"Ġrewarded":12508,"Ġcomplac":12509,"Ġuntr":12510,"acre":12511,"Ġenl":12512,"Ġmodesty":12513,"Ġmaker":12514,"asha":12515,"ĠRaven":12516,"Ġlimp":12517,"Ġcontributed":12518,"Ġschemes":12519,"Ġale":12520,"Ġoxen":12521,"Ġnowadays":12522,"Ġvehicle":12523,"Ġcongregation":12524,"Ġcruc":12525,"Ġdelir":12526,"isms":12527,"Ġverb":12528,"Ġgleamed":12529,"Ġrattle":12530,"Ġwig":12531,"Ġcompliments":12532,"Ġshroud":12533,"ĠMaybe":12534,"Ġendowed":12535,"Ġenclosed":12536,"Ġsacrifices":12537,"Ġtouches":12538,"Ġdazzling":12539,"Ġelevated":12540,"ĠVictoria":12541,"Near":12542,"lit":12543,"imble":12544,"ocation":12545,"Ġrobbery":12546,"General":12547,"Ġshrieked":12548,"Ġforlorn":12549,"ĠFate":12550,"Ġsorrowful":12551,"Ġcrow":12552,"Ġnicely":12553,"Ġtravels":12554,"Ġeconomic":12555,"ĠNic":12556,"NE":12557,"Ġslipping":12558,"Ġdiscoveries":12559,"Ġoffend":12560,"Ġpeering":12561,"ACK":12562,"Ġdefinitely":12563,"ĠME":12564,"Ġflaming":12565,"Ġelb":12566,"rum":12567,"Ġhuts":12568,"Ġtranslated":12569,"\".":12570,"Ġplent":12571,"ĠJenny":12572,"ĠTroy":12573,"Ġdevice":12574,"Ġinterference":12575,"osm":12576,"Ġyielding":12577,"Ġexh":12578,"Ġdaresay":12579,"Ġclatter":12580,"Ġtransformed":12581,"actly":12582,"Better":12583,"Ġcargo":12584,"Ġreared":12585,"Ġcommod":12586,"kered":12587,"ĠAle":12588,"Ġwondrous":12589,"aron":12590,"fig":12591,"ws":12592,"ells":12593,"Ġexcessive":12594,"Ġisolated":12595,"Ġcupboard":12596,"Ġdissip":12597,"Ġnobleman":12598,"uy":12599,"ĠSa":12600,"ĠRick":12601,"Ġoccasioned":12602,"Ġnodding":12603,"Ġglee":12604,"rying":12605,"ĠMade":12606,"Ġshivering":12607,"Ġpiercing":12608,"ĠRoche":12609,"ĠAch":12610,"Hen":12611,"ometer":12612,"ĠBrun":12613,"Ġcorresponding":12614,"Ġresignation":12615,"ĠYear":12616,"ĠAfrican":12617,"Ġost":12618,"Ġammunition":12619,"Ġ179":12620,"Ġwhites":12621,"ourn":12622,"upin":12623,"Ġimaginary":12624,"Ġundertaken":12625,"Ġbreeding":12626,"Ġjoyful":12627,"Ġbriskly":12628,"oat":12629,"Ġ`":12630,"cession":12631,"Ġsighted":12632,"ĠCarly":12633,"Ġdecisive":12634,"Ġramp":12635,"Ã¨re":12636,"Ġbeet":12637,"Ġproportions":12638,"Ġhound":12639,"OOD":12640,"Ġrespectful":12641,"Ġ50":12642,"Ġappreciated":12643,"oria":12644,"ogical":12645,"Life":12646,"ĠCertainly":12647,"Ġillusion":12648,"21":12649,"Ġfishes":12650,"Ġdifferently":12651,"ĠCreat":12652,"Ġpirates":12653,"Ġsnuff":12654,"Dick":12655,"Ġshilling":12656,"Ã©e":12657,"Ġrestrict":12658,"VI":12659,"Ġproclaim":12660,"Ġnineteen":12661,"ĠPin":12662,"Ġindulgence":12663,"ollo":12664,"Ġlifet":12665,"pling":12666,"Ġgerm":12667,"Ġpatent":12668,"Ġhenceforth":12669,"ĠWallace":12670,"Ġrichly":12671,"Ġsinner":12672,"Ġimpressive":12673,"Ġfetched":12674,"Ġsion":12675,"Ġmagazine":12676,"aug":12677,"ĠJos":12678,"Ġcurls":12679,"Ġ=":12680,"ĠRat":12681,"Ġimprisonment":12682,"about":12683,"Ġliv":12684,"Ġhumbly":12685,"xter":12686,"Ġparagraph":12687,"Ġgrotesque":12688,"Ġfern":12689,"Ġprophecy":12690,"ĠCecilia":12691,"oult":12692,"Ġhered":12693,"Ġlaboratory":12694,"Ġrestrained":12695,"ĠGeoffrey":12696,"bie":12697,"Ġinherited":12698,"Ġtyranny":12699,"obs":12700,"inently":12701,"irch":12702,"Ġviv":12703,"Ġmanifested":12704,"Ġborders":12705,"orthos":12706,"Ġprocesses":12707,"ĠKennedy":12708,"ĠFran":12709,"ĠAllen":12710,"ĠRoland":12711,"Ġ35":12712,"Ġposted":12713,"Ġpite":12714,"osis":12715,"Ġviolet":12716,"Ġlogic":12717,"Ġpretence":12718,"Ġearthqu":12719,"Ġidentical":12720,"Ġsauc":12721,"Ġconsiderations":12722,"Ġcontrovers":12723,"Ġrescued":12724,"ĠMerr":12725,"Ġanal":12726,"Ġprete":12727,"ĠBat":12728,"Ġrobber":12729,"'*":12730,"Ġmaidens":12731,"Ġpacket":12732,"Ġ'^":12733,"Ġstages":12734,"ĠCher":12735,"Ġcrude":12736,"ĠMarj":12737,"Ġwheeled":12738,"akers":12739,"Ġumbrella":12740,"ĠCare":12741,"Remember":12742,"Ġhailed":12743,"Ġframed":12744,"Ġindulge":12745,"Ġexaggerated":12746,"Ġpretending":12747,"Ġlabours":12748,"sequently":12749,"ĠParker":12750,"Ġcust":12751,"Ġparcel":12752,"Ġstations":12753,"Ġdocuments":12754,"].":12755,"ĠEnglishmen":12756,"Ġcyn":12757,"Ġvehe":12758,"OME":12759,"ĠLizzie":12760,"Ġpest":12761,"Ġdripping":12762,"Ġsettlers":12763,"llow":12764,"encing":12765,"Ġmorals":12766,"Ġwearily":12767,"Ġsham":12768,"ĠCarlyle":12769,"Ġborrow":12770,"Ġsunrise":12771,"Ġhorsemen":12772,"ĠBeth":12773,"udley":12774,"Ġlanguages":12775,"hers":12776,"Ġindispens":12777,"Ġsuck":12778,"inea":12779,"ĠCounty":12780,"Ġdivisions":12781,"sels":12782,"Ġmerciful":12783,"Ġsecre":12784,"Ġrubber":12785,"aunted":12786,"ĠPall":12787,"ĠArk":12788,"ĠMayor":12789,"ĠQuix":12790,"Ġjerked":12791,"Ã¤":12792,"Ġhorribly":12793,"Ġ177":12794,"Ġhinted":12795,"Ġbedside":12796,"Ġcourteous":12797,"Ġque":12798,"Ġproperties":12799,"Ġlifetime":12800,"acies":12801,"istered":12802,"Ġperfume":12803,"Ġsouthward":12804,"________":12805,"Ġhinder":12806,"tically":12807,"OLD":12808,"Ġsexual":12809,"Too":12810,"Ġslew":12811,"Ġnorthward":12812,"Ġconfidential":12813,"Ġindisc":12814,"ĠJoel":12815,"Ġedition":12816,"Ġfork":12817,"Ġrecru":12818,"Ġ00":12819,"enet":12820,"Ġexhibition":12821,"ouched":12822,"ĠSwift":12823,"Ġextravagant":12824,"Ġmoor":12825,"Ġmelody":12826,"ĠBenjamin":12827,"rd":12828,"ĠHistory":12829,"rophe":12830,"ĠAld":12831,"Ġepis":12832,"erences":12833,"bled":12834,"aby":12835,"Ġbachel":12836,"Ġhire":12837,"Ġtries":12838,"Ġthickly":12839,"Ġsmoot":12840,"ernon":12841,"ancho":12842,"ĠMort":12843,"Ġaimed":12844,"jected":12845,"Ġbiggest":12846,"Ġsweetest":12847,"ĠMis":12848,"Ġshrink":12849,"Ġdiseases":12850,"ĠSuppose":12851,"ellig":12852,"Ġ178":12853,"Ġwhistled":12854,"ĠMeth":12855,"ĠShar":12856,"Ġarmor":12857,"Ġspirited":12858,"chet":12859,"Ġlodged":12860,"Ġwholesome":12861,"ĠNev":12862,"rable":12863,"ihil":12864,"itous":12865,"Ġcate":12866,"anned":12867,"Ġstarved":12868,"ĠPont":12869,"ĠBrad":12870,"],":12871,"Ġonto":12872,"Ġinvasion":12873,"Ġthicket":12874,"Ġemptied":12875,"ĠLuther":12876,"Ġdisint":12877,"Ġcircus":12878,"Ġbount":12879,"ĠWoman":12880,"Ġfunds":12881,"Ġspeculation":12882,"onc":12883,"ĠMust":12884,"ĠCrown":12885,"folk":12886,"ĠThan":12887,"ĠGert":12888,"Ġscoundrel":12889,"ĠTristram":12890,"ĠPower":12891,"ĠEverybody":12892,"Ġodor":12893,"Ġrefrain":12894,"Ġsettling":12895,"Ġinterpretation":12896,"scar":12897,"ĠCaroline":12898,"Ġfertile":12899,"run":12900,"Ġshifted":12901,"ylvania":12902,"Ġfestival":12903,"Ġshorter":12904,"Ġdenial":12905,"Ġdisappoint":12906,"Ġstrengthened":12907,"Ġsuccessor":12908,"Ġsings":12909,"Ġdistracted":12910,"Ġ33":12911,"Almost":12912,"ĠMountain":12913,"wer":12914,"ĠBald":12915,"Ġpudding":12916,"ĠZe":12917,"Ġexercises":12918,"Ġprofessed":12919,"Ġgaunt":12920,"Ġtyrant":12921,"Ġbeauties":12922,"Five":12923,"Ġinfirm":12924,"ĠMead":12925,"Ġraging":12926,"Ġtavern":12927,"riers":12928,"matic":12929,"Ġindulged":12930,"ĠScripture":12931,"Ġmuddy":12932,"Ġkindred":12933,"Ġsurrend":12934,"Ġoverlook":12935,"ĠTexas":12936,"Ġlull":12937,"Ġaggress":12938,"Ġfooting":12939,"ĠMaur":12940,"Accordingly":12941,"Ġcatast":12942,"mean":12943,"Ġreceives":12944,"mons":12945,"Ġadvis":12946,"Ġensued":12947,"ĠEugene":12948,"Ġsled":12949,"ĠSin":12950,"ĠLaunce":12951,"Ġluggage":12952,"Make":12953,"ĠJupiter":12954,"thel":12955,"Ġfairies":12956,"Ġexcellence":12957,"ĠErnest":12958,"Ġlasting":12959,"ĠLloyd":12960,"Ġcradle":12961,"Ġhalls":12962,"Ġtraditions":12963,"Ġtas":12964,"Ġhagg":12965,"Ġpeaks":12966,"Ġdarker":12967,"Ġbubb":12968,"ĠBertram":12969,"ĠBindle":12970,"Ġsubur":12971,"Ġherds":12972,"aren":12973,"note":12974,"Ġcommented":12975,"Ġexpend":12976,"Ġresulted":12977,"Ġsupporting":12978,"Ġtons":12979,"ĠAdd":12980,"Ġflocks":12981,"anity":12982,"ĠAD":12983,"Ġvictorious":12984,"Ġstrive":12985,"Ġinspector":12986,"Ġdow":12987,"Ġlev":12988,"Ġmargin":12989,"Ġfreight":12990,"Ġemployer":12991,"ĠPersian":12992,"Ġecclesiast":12993,"Ġvehement":12994,"apse":12995,"Ġster":12996,"Ġ.\"":12997,"Ġsag":12998,"Ġblackness":12999,"ocrates":13000,"Ġescaping":13001,"Ġcrops":13002,"Ġconstituted":13003,"ĠKatharine":13004,"?âĢĶ":13005,"ardly":13006,"usetts":13007,"Ġcontracted":13008,"ios":13009,"ĠYOU":13010,"Ġconserv":13011,"Ġpoisoned":13012,"ATE":13013,"Ġdecree":13014,"Ġgraves":13015,"Ġneighboring":13016,"Ġdagger":13017,"Ġturf":13018,"Ġstew":13019,"Ġsteer":13020,"ĠHend":13021,"Ġpistols":13022,"Ġvoid":13023,"Ġmand":13024,"Ġalternative":13025,"ĠPop":13026,"ĠVIII":13027,"Ġregiments":13028,"writing":13029,"itching":13030,"Ġstump":13031,"ĠBenn":13032,"Ġconspiracy":13033,"Ġalco":13034,"ISH":13035,"Ġtypical":13036,"Ġeyelids":13037,"Ġnothin":13038,"Ġdepl":13039,"Ġfabric":13040,"Ġwhatsoever":13041,"Ġpropriety":13042,"ĠGospel":13043,"Ġante":13044,"Between":13045,"Ġdock":13046,"Ġplump":13047,"Ġplanning":13048,"Ġdecorated":13049,"lev":13050,"ĠLind":13051,"Ġconscient":13052,"Ġcoax":13053,"Ġdome":13054,"stru":13055,"berries":13056,"ulch":13057,"Ġthreats":13058,"Ġcalamity":13059,"Ġtelesc":13060,"ĠMR":13061,"ji":13062,"Ġstall":13063,"Ġthirsty":13064,"Ġrans":13065,"Ġwarmed":13066,"Ġally":13067,"George":13068,"OUS":13069,"Ġfragrant":13070,"arms":13071,"ĠMissouri":13072,"Ġsuffice":13073,"ĠBou":13074,"ĠLarry":13075,"Ġtroublesome":13076,"Ġrely":13077,"Ġtortured":13078,"ansas":13079,"Ġcondescend":13080,"ĠCL":13081,"Ġskilful":13082,"Ġpalms":13083,"ÃĦÃº":13084,"Ġuneasily":13085,"Ġclerks":13086,"Ġcant":13087,"ĠShort":13088,"ĠExcell":13089,"Ġstray":13090,"ĠTwain":13091,"Ġoutst":13092,"Ġoverwhelming":13093,"Monsieur":13094,"Ġunequ":13095,"Ġafflicted":13096,"urous":13097,"Ġalle":13098,"Ġrud":13099,"Ġpion":13100,"castle":13101,"Ġrascal":13102,"Ġgratified":13103,"Ġexertion":13104,"Ġanew":13105,"Ġillustration":13106,"fortunately":13107,"Ġsubsist":13108,"Ġhazard":13109,"bro":13110,"Ġsnap":13111,"Ġenerg":13112,"Ġcarbon":13113,"Ġmelod":13114,"ĠHung":13115,"ptuous":13116,"_!\"":13117,"Ġbowing":13118,"olics":13119,"Ġhomage":13120,"Ġindignantly":13121,"Ġvicar":13122,"Ġascertained":13123,"coming":13124,"ĠFederal":13125,"Ġbanished":13126,"Ġunbroken":13127,"Ġsubstitute":13128,"Ġfeverish":13129,"ĠDad":13130,"Ġstreaming":13131,"Ġguidance":13132,"Ġdistract":13133,"Ġmonop":13134,"Ġsucceeding":13135,"Ġvigorously":13136,"ĠLad":13137,"Ġglided":13138,"achusetts":13139,"Ġaccounted":13140,"ĠLydia":13141,"inton":13142,"Ġsturdy":13143,"Ġbarred":13144,"Ġnoises":13145,"22":13146,"Paul":13147,"Ġprose":13148,"ĠButler":13149,"Ġbou":13150,"Ġdisad":13151,"ĠNorm":13152,"Ġsums":13153,"ursed":13154,"Ġaudible":13155,"Ġremoval":13156,"Ġdaybreak":13157,"Ġmessages":13158,"Ġpraises":13159,"bod":13160,"Ġdiscovering":13161,"Ġpreference":13162,"Ġceremonies":13163,"Ġperplexity":13164,"bable":13165,"Ġsteed":13166,"Ġmechanically":13167,"Ġtedious":13168,"hi":13169,"ĠAy":13170,"Ġgranite":13171,"ĠAustralia":13172,"Ġhermit":13173,"Ġideals":13174,"Ġmirac":13175,"cony":13176,"Ġdiscreet":13177,"Ġvarying":13178,"Ġgripped":13179,"ĠTurkish":13180,"Ġindispensable":13181,"spring":13182,"Ġlink":13183,"Ġsplendor":13184,"ĠHector":13185,"Ġswayed":13186,"Ġdy":13187,"Ġpillars":13188,"Ġindustrial":13189,"Ġspray":13190,"Ġecl":13191,"Ġsubsequently":13192,"Ġmused":13193,"Ġexceeding":13194,"ea":13195,"Ġpatches":13196,"Ġremoving":13197,"nings":13198,"Ġcharmed":13199,"cular":13200,"Ġobliv":13201,"iph":13202,"ĠIsn":13203,"Ġupl":13204,"Ġresisted":13205,"Ġcrowns":13206,"Ġfails":13207,"Ġstruggles":13208,"ĠSenator":13209,"landers":13210,"Ġinsuff":13211,"Ġcreed":13212,"bster":13213,"aria":13214,"Ġuttering":13215,"dney":13216,"ĠBalt":13217,"Ġglowed":13218,"Ġcountless":13219,"Ġworthless":13220,"Sim":13221,"Ġvir":13222,"Ġpersonage":13223,"Ġperilous":13224,"Ġreluctantly":13225,"ĠUrs":13226,"Ġstarving":13227,"Bless":13228,"Ġshiver":13229,"Ġconstable":13230,"Ġlabors":13231,"Ġais":13232,"Ġelevation":13233,"Ġveiled":13234,"Ġdrinks":13235,"Ġejaculated":13236,"gue":13237,"roying":13238,"Ġarray":13239,"Ġcompanionship":13240,"Ġherald":13241,"Ġdetached":13242,"ĠConfederate":13243,"Ġalight":13244,"Ġsorely":13245,"Ġpots":13246,"ĠSup":13247,"Ġperv":13248,"forward":13249,"ĠMun":13250,"Ġdiminished":13251,"ĠVII":13252,"Ġdepression":13253,"Ġ100":13254,"Ġinfernal":13255,"Ġmonotonous":13256,"Ġware":13257,"Ġsentin":13258,"Ġultimately":13259,"Ġplayer":13260,"istle":13261,"Ġclapped":13262,"Ġlabou":13263,"Ġbalcony":13264,"Ġthreaten":13265,"iram":13266,"ĠFig":13267,"Ġspoon":13268,"Ġdevout":13269,"ĠOak":13270,"ĠBobby":13271,"Ġmoisture":13272,"';":13273,"Ġequipment":13274,"Ġexpressive":13275,"groom":13276,"Ġbacon":13277,"Ġfib":13278,"Peter":13279,"Ġtribun":13280,"Ġdub":13281,"Ġparas":13282,"oning":13283,"Ġmuffled":13284,"Ġbeads":13285,"Ġcoroner":13286,"Ġpublication":13287,"Ġtopic":13288,"Ġrepresenting":13289,"ĠSweet":13290,"Ġfascinated":13291,"Ġtaxes":13292,"Ġvi":13293,"spector":13294,"Ġpleading":13295,"ĠRosal":13296,"Ġribs":13297,"Ġtruck":13298,"Ġgladness":13299,"Ġheavier":13300,"Ġmatches":13301,"ĠFinn":13302,"actions":13303,"Ġinterrog":13304,"Ġtank":13305,"Ġreef":13306,"Ġpenn":13307,"Ġurging":13308,"Ġvegetation":13309,"Ġrestaurant":13310,"ĠPorthos":13311,"Ġinsect":13312,"Sil":13313,"Ġsom":13314,"Ġseeks":13315,"Ġdissatisf":13316,"Ġfidelity":13317,"itus":13318,"Ġcanoes":13319,"ONG":13320,"ugs":13321,"ĠContinent":13322,"ĠAbbey":13323,"Ġangles":13324,"ĠKentucky":13325,"Ġoverheard":13326,"Ġpasture":13327,"Ġhateful":13328,"Ġecstasy":13329,"bra":13330,"Ġfres":13331,"Ġnasty":13332,"ĠCirc":13333,"Ġunite":13334,"Ġodds":13335,"Ġflattered":13336,"sylvania":13337,"Ġspont":13338,"Ġrats":13339,"Ġsque":13340,"ĠJulian":13341,"Ġdisadvant":13342,"ĠAugustus":13343,"ĠHeart":13344,"Ġblasp":13345,"Ġendurance":13346,"Ġsubstances":13347,"Ġrubb":13348,"Ġrulers":13349,"Ġreconc":13350,"ĠTart":13351,"Ġhardened":13352,"Ġobjections":13353,"ENCE":13354,"ĠBrid":13355,"Ġsuccessive":13356,"Ġirritated":13357,"Ġdanc":13358,"Ġmotions":13359,"ĠJeanne":13360,"ĠCut":13361,"Ġverge":13362,"Ġchestnut":13363,"Ġswaying":13364,"athy":13365,"Ġlivel":13366,"Ġpenetrate":13367,"Ġluminous":13368,"Ġdepressed":13369,"Ġdisliked":13370,"Ġlawful":13371,"ĠPitt":13372,"ĠTarzan":13373,"Ġenvironment":13374,"sen":13375,"Ġpremises":13376,"ĠBag":13377,"Ġcommend":13378,"Ġpreservation":13379,"ĠGran":13380,"Ġveter":13381,"Ġcompetition":13382,"ĠFerdinand":13383,"ĠBabylon":13384,"idays":13385,"Ġblushing":13386,"Ġvarieties":13387,"chance":13388,"ĠMaud":13389,"ĠLords":13390,"idious":13391,"Ġrepresents":13392,"Ġarises":13393,"Ġsights":13394,"Ġdisgusted":13395,"Ġatom":13396,"ĠMike":13397,"child":13398,"Ġwatches":13399,"Ġacquies":13400,"Ġoverboard":13401,"Ġhumiliation":13402,"Ġdiameter":13403,"Ġreads":13404,"Ġteasp":13405,"Ġfragment":13406,"tin":13407,"ĠPast":13408,"ĠRO":13409,"Ġdetained":13410,"Ġanti":13411,"ĠChamber":13412,"Ġpars":13413,"ĠSnow":13414,"Ġprejudices":13415,"ĠLauncelot":13416,"ota":13417,"Ġswollen":13418,"Ġfactor":13419,"Ġchickens":13420,"Ġprofits":13421,"Ġunhapp":13422,"must":13423,"Ġshaded":13424,"Ġfavoured":13425,"Ġdetest":13426,"Ġburial":13427,"Ġdonkey":13428,"Ġtoe":13429,"Ġdelights":13430,"Ġtires":13431,"esp":13432,"Ġperceiving":13433,"Ġcomposure":13434,"ĠQuixote":13435,"âĢĲ":13436,"ĠCatholics":13437,"otte":13438,"ĠTrans":13439,"Ġunanim":13440,"ĠClark":13441,"Ġproverb":13442,"45":13443,"ĠBud":13444,"Ġiniqu":13445,"Ġcanst":13446,"ishable":13447,"ĠHER":13448,"Ġundertook":13449,"Ġdetailed":13450,"Ġattentive":13451,"Ġesp":13452,"Ġenchanted":13453,"icent":13454,"ĠCiv":13455,"Ġsticking":13456,"Ġfinely":13457,"Ġassuredly":13458,"Ġscrap":13459,"Ġdestroying":13460,"Ġsurrendered":13461,"requ":13462,"ĠLanc":13463,"ylum":13464,"Ġenergetic":13465,"organ":13466,"estial":13467,"Ġdebate":13468,"Ġweaker":13469,"Ġtranquil":13470,"Har":13471,"Ġfurnace":13472,"Ġtil":13473,"ĠFrog":13474,"oga":13475,"Ġstationed":13476,"Ġaccuracy":13477,"Ġembroidered":13478,"Ġcyl":13479,"Ġforb":13480,"Ġleve":13481,"Ġresume":13482,"Ġstarve":13483,"ĠLiver":13484,"ĠHerr":13485,"oux":13486,"Ġarc":13487,"Ġwhisky":13488,"Ġprophets":13489,"Ġrepentance":13490,"Ġendeavor":13491,"Ġefficient":13492,"Ġsnar":13493,"Ġqueried":13494,"Ġobedient":13495,"Ġleisurely":13496,"ĠMarsh":13497,"ĠPetersburg":13498,"Ġaided":13499,"Ġstables":13500,"ĠHIS":13501,"Ġblamed":13502,"Ġcheered":13503,"OOQ":13504,"Ġphase":13505,"orry":13506,"Ġbishops":13507,"Ġdefinition":13508,"Ġcarpenter":13509,"Ġyoke":13510,"Ġcode":13511,"Ġrece":13512,"Ġdrain":13513,"Ġhopeful":13514,"Ġprofitable":13515,"Ġdiscouraged":13516,"Ġinland":13517,"ĠDAY":13518,"Ġblot":13519,"Ġrelationship":13520,"itzer":13521,"ĠAS":13522,"ĠFisher":13523,"Ġpam":13524,"Ġpreliminary":13525,"Dav":13526,"Ġdissolved":13527,"ĠBerlin":13528,"ĠDet":13529,"riving":13530,"Ġloan":13531,"hent":13532,"ĠPRO":13533,"Ġcultivation":13534,"Ġpretext":13535,"ĠSic":13536,"walk":13537,"Ġwires":13538,"Ġpeak":13539,"ienna":13540,"Ġtoilet":13541,"Ġlime":13542,"ĠImp":13543,"Ġstress":13544,"eller":13545,"Ġairs":13546,"Ġgestures":13547,"ĠMoreover":13548,"imore":13549,"Ġinfluenced":13550,"ĠMurray":13551,"oward":13552,"aza":13553,"hov":13554,"iat":13555,"Ġtangled":13556,"ĠAndre":13557,"Ġhowling":13558,"Ġinstruct":13559,"ĠJosh":13560,"umbered":13561,"ĠSev":13562,"ĠCrom":13563,"Ġnurses":13564,"yrus":13565,"Ġrhythm":13566,"ĠDaw":13567,"Ġheadlong":13568,"Ġ36":13569,"Ġconventional":13570,"Ġrepetition":13571,"Ġconver":13572,"Ġignored":13573,"ĠGabriel":13574,"Ġconfided":13575,"Ġundist":13576,"Ġcopies":13577,"Ġsurveyed":13578,"Ġenlightened":13579,"Ġjoining":13580,"Ġprede":13581,"Ġrecovering":13582,"ĠUr":13583,"pels":13584,"Ġresembling":13585,"ĠRail":13586,"Ġbathed":13587,"Ġsenior":13588,"Ġthrilling":13589,"burst":13590,"Ġattentively":13591,"Ġdove":13592,"Ġflows":13593,"Ġcircuit":13594,"Ġowl":13595,"ĠNaples":13596,"Ġoutstretched":13597,"ĠFerr":13598,"Ġrespective":13599,"ĠAdela":13600,"Ġopt":13601,"Ġcruelly":13602,"Ġay":13603,"Ġsalute":13604,"enz":13605,"Ġfainted":13606,"Ġhonored":13607,"Ġinsignificant":13608,"ĠTa":13609,"vie":13610,"Ġstatues":13611,"Ġnecklace":13612,"UB":13613,"ream":13614,"Ġslippers":13615,"MAN":13616,"Ġrouse":13617,"ĠAB":13618,"ĠCad":13619,"Ġentertaining":13620,"ĠNEW":13621,"Ġexclusively":13622,"Hello":13623,"Ġeastward":13624,"Ġinquiring":13625,"Ġresource":13626,"Hush":13627,"ussy":13628,"ĠMassachusetts":13629,"Ġcontinuing":13630,"ĠWestminster":13631,"ede":13632,"Ġintending":13633,"AIR":13634,"Ġplea":13635,"Ġespecial":13636,"Ġbeans":13637,"ĠPlato":13638,"orts":13639,"mate":13640,"Ġexhibit":13641,"ront":13642,"Ġwrinkled":13643,"Ġesteemed":13644,"ilion":13645,"Ġgreed":13646,"Ġsquadron":13647,"Cons":13648,"Ġsubmarine":13649,"Ġlegitimate":13650,"apes":13651,"Ġroutine":13652,"irectly":13653,"ĠHand":13654,"Ġprompted":13655,"Ġbattal":13656,"Ġlacked":13657,"ĠBax":13658,"Ġcontemplated":13659,"Ġautomobile":13660,"Ġgait":13661,"Ġimposing":13662,"ĠCÃ¦":13663,"Ġspinning":13664,"court":13665,"ĠRon":13666,"Ġleague":13667,"ocolate":13668,"mare":13669,"ĠSult":13670,"ĠBOOK":13671,"hetic":13672,"Ġcustomers":13673,"Ġconvenience":13674,"Ġabyss":13675,"ĠOwen":13676,"Ġbatteries":13677,"Ġinvoluntarily":13678,"Ġconductor":13679,"Ġequipped":13680,"Ġrubbish":13681,"ĠEust":13682,"Uncle":13683,"Ġskeleton":13684,"vention":13685,"ousing":13686,"ĠGro":13687,"Ġdoubled":13688,"Ġrepeatedly":13689,"nor":13690,"ĠAlso":13691,"Ġsulph":13692,"ĠHarriet":13693,"Ġobstacles":13694,"Ġsecrecy":13695,"ĠMild":13696,"odox":13697,"Ġgalloped":13698,"ĠPho":13699,"ĠDist":13700,"ĠAthens":13701,"Ġcalf":13702,"Ġdrug":13703,"Ġdominion":13704,"ĠFull":13705,"Ġquad":13706,"Ġsanction":13707,"Ġplank":13708,"Ġovercoat":13709,"Ġacceptance":13710,"Ġforcing":13711,"Ġarrog":13712,"Ġstored":13713,"Ġextinguished":13714,"Ġdashing":13715,"Ġcoals":13716,"Ġenergies":13717,"ĠBenson":13718,"Ġlesser":13719,"Ġrebels":13720,"Ġrains":13721,"ĠSie":13722,"unciation":13723,"ĠHold":13724,"Ġpose":13725,"Ġserves":13726,"ĠSTORY":13727,"ĠNile":13728,"hart":13729,"Ġpatri":13730,"escrib":13731,"Ġpu":13732,"ifer":13733,"ĠPed":13734,"Ġpope":13735,"ĠEdgar":13736,"ĠBL":13737,"Ġvices":13738,"Ġadmon":13739,"ĠHannah":13740,"ĠCair":13741,"Ġapprent":13742,"Ġattentions":13743,"Ġenact":13744,"Ġduel":13745,"Ġpersever":13746,"Ġallusion":13747,"SON":13748,"Ġsnug":13749,"Ġrichest":13750,"Ġreverent":13751,"ĠFROM":13752,"stood":13753,"Ġchased":13754,"Ġcoco":13755,"Ġtranslation":13756,"Ġunim":13757,"Ġdrooping":13758,"Ġshrine":13759,"Ġsustain":13760,"enches":13761,"ĠBoard":13762,"Ġjokes":13763,"choes":13764,"ĠWag":13765,"Ġsolve":13766,"Ġcollecting":13767,"Ġstunned":13768,"fts":13769,"ĠKnow":13770,"Ġwhiskers":13771,"ĠMiller":13772,"Ġalley":13773,"Ġequival":13774,"Ġdispleasure":13775,"Ġwinged":13776,"Ġtwinkling":13777,"ĠLast":13778,"Ġhypothes":13779,"Ġpredecess":13780,"Ġ01":13781,"Ġfinishing":13782,"Ġtossing":13783,"Ġdivorce":13784,"DER":13785,"jah":13786,"ĠPalmer":13787,"Ġunreasonable":13788,"ummy":13789,"Ġlabore":13790,"ĠTurks":13791,"haraoh":13792,"imum":13793,"ourge":13794,"ĠSaw":13795,"Ġsized":13796,"Ġcrawl":13797,"Ġwot":13798,"Ġcarav":13799,"Ġmoustache":13800,"ĠNelson":13801,"Ġmocking":13802,"nic":13803,"Ġasp":13804,"Ġdiscomfort":13805,"Ġdeceit":13806,"Ġrehe":13807,"ĠChin":13808,"Ġsports":13809,"zer":13810,"ossibly":13811,"Ġoxy":13812,"VER":13813,"Ġberries":13814,"jOOQ":13815,"Ġstragg":13816,"Ġplantation":13817,"etty":13818,"Ġvines":13819,"ĠLE":13820,"Ġwatchful":13821,"ĠVincent":13822,"Ġinviting":13823,"Ġmemorable":13824,"Ġrecip":13825,"Ġcurved":13826,"Ġelbows":13827,"hurst":13828,"Ġoverlooked":13829,"Ġcosts":13830,"Ġlark":13831,"Ġaccidents":13832,"Ġtermed":13833,"cling":13834,"ĠHamilton":13835,"Ġforfe":13836,"Ġclearer":13837,"Ġforeigners":13838,"look":13839,"isy":13840,"Ġoffspring":13841,"TLE":13842,"ulsed":13843,"Ġarisen":13844,"uba":13845,"Ġfutile":13846,"Ġparr":13847,"upert":13848,"Ġsteadfast":13849,"ĠSydney":13850,"Ġcorruption":13851,"Ġravine":13852,"Ġarchitecture":13853,"ĠIX":13854,"Ġhover":13855,"angling":13856,"Ġinsulted":13857,"Ġfoundations":13858,"Ġstrokes":13859,"zar":13860,"Ġef":13861,"Ġslide":13862,"Ġstraightened":13863,"ĠCambridge":13864,"Ġfugitive":13865,"ĠLeonard":13866,"Ġrepresentatives":13867,"Ġcling":13868,"Ġmole":13869,"Ġwearied":13870,"Ġscal":13871,"ĠÂ«":13872,"Ġhawk":13873,"aters":13874,"onde":13875,"Ġpays":13876,"Ġunique":13877,"ĠForce":13878,"Ġdates":13879,"Ġworms":13880,"Ġmeets":13881,"Ġmes":13882,"antime":13883,"Ġreplies":13884,"Ġplayers":13885,"Ġplanets":13886,"Ġlocated":13887,"Ġendeavored":13888,"Ġintegr":13889,"Ġassign":13890,"Ġcrev":13891,"ĠBro":13892,"oore":13893,"iliar":13894,"ĠHood":13895,"Ġdesolation":13896,"Ġforet":13897,"ĠMountains":13898,"Ġoblige":13899,"IB":13900,"Ġbanker":13901,"Ġfluttering":13902,"Probably":13903,"Ġungrate":13904,"Ġsecuring":13905,"ernation":13906,"aska":13907,"ĠMull":13908,"ĠBrer":13909,"ĠPs":13910,"Ġhappiest":13911,"ĠAntonio":13912,"Ġcompromise":13913,"ĠEliza":13914,"ĠHorn":13915,"Ġexplod":13916,"ĠNavy":13917,"uccess":13918,"ĠBapt":13919,"Ġaft":13920,"ĠRub":13921,"Ġluxur":13922,"Ġchampion":13923,"Ġascent":13924,"riggs":13925,"ĠHaz":13926,"resent":13927,"ĠEaster":13928,"Ġinsin":13929,"Ġadmiral":13930,"William":13931,"gments":13932,"aston":13933,"Ġrespectfully":13934,"Ġconjecture":13935,"Ġhangs":13936,"Ġolive":13937,"Ġfowl":13938,"iffe":13939,"Ġaccepting":13940,"ĠRet":13941,"Ġgentleness":13942,"ĠKingdom":13943,"Ġprofoundly":13944,"anse":13945,"Ġthrilled":13946,"Ġglaring":13947,"Ġworker":13948,"Ġscratched":13949,"Ġduration":13950,"ĠRhod":13951,"Ġdances":13952,"ĠSeveral":13953,"Ġgoats":13954,"Ġproducts":13955,"itter":13956,"Ġbrew":13957,"ĠWigg":13958,"Ġliver":13959,"Ġingenuity":13960,"ĠPennsylvania":13961,"Ġsnowy":13962,"UG":13963,"gard":13964,"Ġments":13965,"ggie":13966,"ĠEgyptians":13967,"wright":13968,"Ġmuzz":13969,"Ġinclude":13970,"LES":13971,"ĠCommon":13972,"oup":13973,"ĠHoward":13974,"Sec":13975,"born":13976,"Ġstuffed":13977,"Ġscanty":13978,"ĠBeauty":13979,"Ġmajestic":13980,"Ġorche":13981,"Ġloveliness":13982,"Ġunlucky":13983,"atson":13984,"Ġresemble":13985,"Ġaccusation":13986,"idan":13987,"Ġsections":13988,"Ev":13989,"Ġencouraging":13990,"Ġclubs":13991,"Ġprivately":13992,"Ġbail":13993,"Ġspacious":13994,"Ġblunder":13995,"Ġorator":13996,"archy":13997,"heres":13998,"Ġquicker":13999,"Ġfists":14000,"Ġpersecution":14001,"Ġjudging":14002,"Ġvigour":14003,"wixt":14004,"Ġclasp":14005,"Ġsystems":14006,"ocke":14007,"Ġfavored":14008,"Ġlitter":14009,"Ġrolls":14010,"Ġfisherman":14011,"veying":14012,"ĠAnge":14013,"Ġviewed":14014,"Ġdescribing":14015,"dens":14016,"real":14017,"ĠWr":14018,"According":14019,"nton":14020,"Ġactivities":14021,"Ġpoetic":14022,"ĠWILL":14023,"Ġassociations":14024,"ĠCarolina":14025,"!_\"":14026,"Ġdame":14027,"Ġguides":14028,"Ġcess":14029,"Ġexpose":14030,"incing":14031,"Ġenquired":14032,"Ġspurs":14033,"Ġquarrels":14034,"Ġrue":14035,"ĠIsle":14036,"Ġexplanations":14037,"Ġactors":14038,"Ġsolved":14039,"Ġfluttered":14040,"Ġvalued":14041,"inter":14042,"Ġsep":14043,"iscilla":14044,"Ġbrooding":14045,"rupulous":14046,"ĠSidney":14047,"ĠOcean":14048,"ĠArabs":14049,"ĠLam":14050,"Ġwhirling":14051,"Ġcamps":14052,"Ġrushes":14053,"ili":14054,"ĠCel":14055,"Ġeffectually":14056,"ĠAli":14057,"Ġsilvery":14058,"Ġcatastrophe":14059,"Ġnursing":14060,"Ġeighth":14061,"ĠQuebec":14062,"Ġadequate":14063,"Ġsquat":14064,"IONS":14065,"Ġperched":14066,"Ġgrade":14067,"ĠBaker":14068,"Ġdemonstration":14069,"orters":14070,"ĠBarr":14071,"ĠBrent":14072,"Ġgiants":14073,"Ġgin":14074,"Ġ34":14075,"Ġalluded":14076,
[...]
